#ifndef GESTURE_MODEL_H
#define GESTURE_MODEL_H


unsigned int gesture_model_len = 6060;
unsigned char gesture_model[] = {
 0x1c, 0x00, 0x00, 0x00, 0x54, 0x46, 0x4c, 0x33, 0x14, 0x00, 0x20, 0x00,
  0x1c, 0x00, 0x18, 0x00, 0x14, 0x00, 0x10, 0x00, 0x0c, 0x00, 0x00, 0x00,
  0x08, 0x00, 0x04, 0x00, 0x14, 0x00, 0x00, 0x00, 0x1c, 0x00, 0x00, 0x00,
  0x8c, 0x00, 0x00, 0x00, 0xe4, 0x00, 0x00, 0x00, 0xd4, 0x0a, 0x00, 0x00,
  0xe4, 0x0a, 0x00, 0x00, 0x08, 0x17, 0x00, 0x00, 0x03, 0x00, 0x00, 0x00,
  0x01, 0x00, 0x00, 0x00, 0x04, 0x00, 0x00, 0x00, 0x26, 0xf3, 0xff, 0xff,
  0x0c, 0x00, 0x00, 0x00, 0x1c, 0x00, 0x00, 0x00, 0x3c, 0x00, 0x00, 0x00,
  0x0f, 0x00, 0x00, 0x00, 0x73, 0x65, 0x72, 0x76, 0x69, 0x6e, 0x67, 0x5f,
  0x64, 0x65, 0x66, 0x61, 0x75, 0x6c, 0x74, 0x00, 0x01, 0x00, 0x00, 0x00,
  0x04, 0x00, 0x00, 0x00, 0x90, 0xff, 0xff, 0xff, 0x15, 0x00, 0x00, 0x00,
  0x04, 0x00, 0x00, 0x00, 0x08, 0x00, 0x00, 0x00, 0x6f, 0x75, 0x74, 0x70,
  0x75, 0x74, 0x5f, 0x30, 0x00, 0x00, 0x00, 0x00, 0x01, 0x00, 0x00, 0x00,
  0x04, 0x00, 0x00, 0x00, 0xfa, 0xf4, 0xff, 0xff, 0x04, 0x00, 0x00, 0x00,
  0x0c, 0x00, 0x00, 0x00, 0x6b, 0x65, 0x72, 0x61, 0x73, 0x5f, 0x74, 0x65,
  0x6e, 0x73, 0x6f, 0x72, 0x00, 0x00, 0x00, 0x00, 0x02, 0x00, 0x00, 0x00,
  0x34, 0x00, 0x00, 0x00, 0x04, 0x00, 0x00, 0x00, 0xdc, 0xff, 0xff, 0xff,
  0x18, 0x00, 0x00, 0x00, 0x04, 0x00, 0x00, 0x00, 0x13, 0x00, 0x00, 0x00,
  0x43, 0x4f, 0x4e, 0x56, 0x45, 0x52, 0x53, 0x49, 0x4f, 0x4e, 0x5f, 0x4d,
  0x45, 0x54, 0x41, 0x44, 0x41, 0x54, 0x41, 0x00, 0x08, 0x00, 0x0c, 0x00,
  0x08, 0x00, 0x04, 0x00, 0x08, 0x00, 0x00, 0x00, 0x17, 0x00, 0x00, 0x00,
  0x04, 0x00, 0x00, 0x00, 0x13, 0x00, 0x00, 0x00, 0x6d, 0x69, 0x6e, 0x5f,
  0x72, 0x75, 0x6e, 0x74, 0x69, 0x6d, 0x65, 0x5f, 0x76, 0x65, 0x72, 0x73,
  0x69, 0x6f, 0x6e, 0x00, 0x19, 0x00, 0x00, 0x00, 0xec, 0x09, 0x00, 0x00,
  0xe4, 0x09, 0x00, 0x00, 0xa4, 0x09, 0x00, 0x00, 0x5c, 0x09, 0x00, 0x00,
  0x40, 0x09, 0x00, 0x00, 0x90, 0x06, 0x00, 0x00, 0x10, 0x06, 0x00, 0x00,
  0x50, 0x01, 0x00, 0x00, 0x2c, 0x01, 0x00, 0x00, 0x18, 0x01, 0x00, 0x00,
  0x00, 0x01, 0x00, 0x00, 0xec, 0x00, 0x00, 0x00, 0xe4, 0x00, 0x00, 0x00,
  0xdc, 0x00, 0x00, 0x00, 0xd4, 0x00, 0x00, 0x00, 0xcc, 0x00, 0x00, 0x00,
  0xc4, 0x00, 0x00, 0x00, 0xbc, 0x00, 0x00, 0x00, 0xb4, 0x00, 0x00, 0x00,
  0xac, 0x00, 0x00, 0x00, 0xa4, 0x00, 0x00, 0x00, 0x9c, 0x00, 0x00, 0x00,
  0x94, 0x00, 0x00, 0x00, 0x74, 0x00, 0x00, 0x00, 0x04, 0x00, 0x00, 0x00,
  0xda, 0xf5, 0xff, 0xff, 0x04, 0x00, 0x00, 0x00, 0x60, 0x00, 0x00, 0x00,
  0x10, 0x00, 0x00, 0x00, 0x00, 0x00, 0x00, 0x00, 0x08, 0x00, 0x0e, 0x00,
  0x08, 0x00, 0x04, 0x00, 0x08, 0x00, 0x00, 0x00, 0x10, 0x00, 0x00, 0x00,
  0x24, 0x00, 0x00, 0x00, 0x00, 0x00, 0x06, 0x00, 0x08, 0x00, 0x04, 0x00,
  0x06, 0x00, 0x00, 0x00, 0x04, 0x00, 0x00, 0x00, 0x00, 0x00, 0x00, 0x00,
  0x0c, 0x00, 0x18, 0x00, 0x14, 0x00, 0x10, 0x00, 0x0c, 0x00, 0x04, 0x00,
  0x0c, 0x00, 0x00, 0x00, 0xb2, 0x26, 0x29, 0xe5, 0xda, 0x36, 0x54, 0x72,
  0x02, 0x00, 0x00, 0x00, 0x02, 0x00, 0x00, 0x00, 0x04, 0x00, 0x00, 0x00,
  0x06, 0x00, 0x00, 0x00, 0x32, 0x2e, 0x31, 0x39, 0x2e, 0x30, 0x00, 0x00,
  0x46, 0xf6, 0xff, 0xff, 0x04, 0x00, 0x00, 0x00, 0x10, 0x00, 0x00, 0x00,
  0x31, 0x2e, 0x31, 0x30, 0x2e, 0x30, 0x00, 0x00, 0x00, 0x00, 0x00, 0x00,
  0x00, 0x00, 0x00, 0x00, 0xfc, 0xea, 0xff, 0xff, 0x00, 0xeb, 0xff, 0xff,
  0x04, 0xeb, 0xff, 0xff, 0x08, 0xeb, 0xff, 0xff, 0x0c, 0xeb, 0xff, 0xff,
  0x10, 0xeb, 0xff, 0xff, 0x14, 0xeb, 0xff, 0xff, 0x18, 0xeb, 0xff, 0xff,
  0x1c, 0xeb, 0xff, 0xff, 0x20, 0xeb, 0xff, 0xff, 0x24, 0xeb, 0xff, 0xff,
  0x8e, 0xf6, 0xff, 0xff, 0x04, 0x00, 0x00, 0x00, 0x04, 0x00, 0x00, 0x00,
  0xfd, 0xff, 0xff, 0xff, 0x9e, 0xf6, 0xff, 0xff, 0x04, 0x00, 0x00, 0x00,
  0x08, 0x00, 0x00, 0x00, 0xff, 0xff, 0xff, 0xff, 0x3c, 0x00, 0x00, 0x00,
  0xb2, 0xf6, 0xff, 0xff, 0x04, 0x00, 0x00, 0x00, 0x04, 0x00, 0x00, 0x00,
  0x01, 0x00, 0x00, 0x00, 0xc2, 0xf6, 0xff, 0xff, 0x04, 0x00, 0x00, 0x00,
  0x14, 0x00, 0x00, 0x00, 0xbb, 0x57, 0xfb, 0x39, 0xae, 0xc6, 0x6d, 0xba,
  0x6e, 0x81, 0x11, 0x3c, 0x04, 0x6a, 0x10, 0x3d, 0xac, 0xda, 0x1e, 0xbd,
  0xe2, 0xf6, 0xff, 0xff, 0x04, 0x00, 0x00, 0x00, 0xb0, 0x04, 0x00, 0x00,
  0xf4, 0xe7, 0x5c, 0x3e, 0x77, 0x39, 0xd4, 0xbe, 0xb0, 0xce, 0xdd, 0xbc,
  0xae, 0x59, 0x3d, 0xbf, 0xac, 0x67, 0x5c, 0x3f, 0xa1, 0x5c, 0x24, 0xbe,
  0x36, 0xa0, 0xe7, 0xbe, 0x9d, 0x09, 0x71, 0x3f, 0xa7, 0x60, 0x87, 0x3e,
  0x50, 0xec, 0xb3, 0xbe, 0x27, 0xcd, 0x7c, 0x3f, 0xd8, 0x10, 0xa7, 0x3d,
  0x52, 0xcd, 0x87, 0x3e, 0x62, 0x67, 0x7e, 0x3e, 0x7f, 0x88, 0x47, 0xbe,
  0x9e, 0x07, 0x9c, 0xbe, 0x5c, 0x68, 0xba, 0x3e, 0x2d, 0xfb, 0xaf, 0xbe,
  0xe4, 0x20, 0x76, 0xbe, 0xb3, 0x54, 0x09, 0x3f, 0xcd, 0x61, 0x03, 0x3e,
  0x12, 0xa3, 0x9b, 0xbe, 0x8f, 0xf3, 0x2f, 0x3e, 0x5c, 0x95, 0x7e, 0x3e,
  0xf2, 0x1e, 0x1c, 0x3e, 0x19, 0x66, 0xec, 0x3d, 0x7e, 0x3a, 0xa5, 0xbd,
  0x86, 0xd2, 0x44, 0xbe, 0x45, 0x03, 0x51, 0x3e, 0x9f, 0xc9, 0xf7, 0xbd,
  0x4c, 0xe4, 0x21, 0x3e, 0xe1, 0x97, 0x52, 0x3c, 0x68, 0xa5, 0x82, 0xbe,
  0x61, 0xaf, 0x95, 0x3e, 0xbd, 0x77, 0x8f, 0x3e, 0x80, 0x23, 0x70, 0x3e,
  0xc8, 0x83, 0x3f, 0xbe, 0x35, 0x3f, 0x93, 0x3e, 0xac, 0x73, 0x5b, 0x3e,
  0x5c, 0x9e, 0x19, 0x3e, 0x59, 0x59, 0x20, 0xbe, 0xa6, 0x74, 0x9e, 0x3e,
  0x77, 0xe6, 0x05, 0xbd, 0x55, 0x04, 0x17, 0x3e, 0x98, 0x81, 0x72, 0xbe,
  0xf7, 0x05, 0x7e, 0x3e, 0x53, 0xc6, 0x0f, 0x3e, 0x18, 0x29, 0xbe, 0x3d,
  0x98, 0x05, 0x95, 0x3e, 0x99, 0x56, 0xb4, 0x3d, 0x0e, 0x7f, 0x3d, 0x3e,
  0x48, 0x5a, 0x21, 0x3d, 0x79, 0xf1, 0xa8, 0xbd, 0x1e, 0xda, 0xc6, 0xbd,
  0xb2, 0x19, 0x95, 0x3e, 0x25, 0xbc, 0xe8, 0x3c, 0x0c, 0x05, 0x85, 0x3e,
  0x8f, 0x50, 0x11, 0x3e, 0xed, 0xdf, 0xed, 0x3d, 0x58, 0xe6, 0x7b, 0x3d,
  0x34, 0x77, 0xec, 0xbd, 0xe7, 0xc8, 0x9e, 0xbe, 0x73, 0x8c, 0x6a, 0xbe,
  0xf4, 0xb3, 0x1b, 0xbe, 0x2a, 0x45, 0xa5, 0x3e, 0x41, 0x2c, 0x17, 0x3f,
  0x9f, 0x12, 0xfa, 0xbc, 0xe2, 0x11, 0xa7, 0x3e, 0x57, 0xf2, 0x09, 0xbf,
  0xea, 0x48, 0x73, 0xbf, 0xbf, 0x13, 0xa0, 0x3f, 0xf4, 0x6f, 0xae, 0x3d,
  0x00, 0x77, 0x28, 0xbb, 0xe7, 0x7a, 0x0b, 0x3e, 0x3f, 0x85, 0x7c, 0xbe,
  0x14, 0x48, 0x88, 0x3e, 0xc8, 0x0f, 0x47, 0xbd, 0xc6, 0x58, 0xc4, 0xbe,
  0x63, 0x2c, 0xda, 0x3d, 0xa2, 0x15, 0x14, 0xbe, 0x31, 0x3a, 0xef, 0xbd,
  0xc9, 0x83, 0x8b, 0xbb, 0x16, 0x51, 0x83, 0x3f, 0xf8, 0xfe, 0x4b, 0x3e,
  0x74, 0x42, 0x0e, 0xbe, 0x31, 0x3c, 0x9a, 0x3e, 0xb0, 0x98, 0x6a, 0x3d,
  0x40, 0x5a, 0x09, 0x3d, 0x26, 0x2b, 0x12, 0xbf, 0xb5, 0x65, 0x09, 0xbf,
  0x35, 0x53, 0x4e, 0x3e, 0xc5, 0xa5, 0xf1, 0x3e, 0xda, 0x1d, 0xc9, 0x3e,
  0xc0, 0x58, 0xf0, 0x3e, 0x01, 0xb7, 0xca, 0x3d, 0xe0, 0x40, 0x9b, 0x3e,
  0xb8, 0x32, 0x09, 0x3d, 0x10, 0xd9, 0x75, 0x3d, 0x84, 0xab, 0xb9, 0x3d,
  0x7b, 0xc2, 0x94, 0xbe, 0xe3, 0x10, 0xfe, 0x3d, 0xa8, 0x55, 0xe5, 0x3b,
  0xf1, 0xe9, 0x13, 0x3e, 0xd9, 0x33, 0x50, 0x3e, 0xbe, 0xfe, 0x6f, 0xbc,
  0x58, 0x34, 0x0f, 0x3d, 0xc4, 0xee, 0xb9, 0x3d, 0x87, 0xf8, 0x27, 0xbe,
  0x68, 0x4b, 0x55, 0xbe, 0x0a, 0x15, 0x16, 0xbe, 0x40, 0xf3, 0x1b, 0xbe,
  0xd6, 0x8b, 0x70, 0x3d, 0x1c, 0xd4, 0x11, 0x3d, 0xab, 0x02, 0x2d, 0x3e,
  0xdb, 0xa0, 0x11, 0x3d, 0x6c, 0x34, 0x70, 0xbe, 0x05, 0x9e, 0x4a, 0xbe,
  0x6e, 0x25, 0x89, 0x3d, 0x5c, 0xb3, 0x91, 0x3e, 0x9c, 0x01, 0xa6, 0x3d,
  0x30, 0xeb, 0x46, 0x3d, 0x87, 0xb2, 0x9e, 0xbd, 0xc0, 0x2b, 0x7b, 0x3e,
  0xcc, 0x6b, 0x9b, 0xbd, 0x14, 0xe7, 0xbd, 0xbf, 0xc7, 0xdf, 0xcf, 0xbe,
  0x93, 0x2a, 0xb3, 0x3e, 0x46, 0x45, 0xc3, 0xbf, 0x3f, 0x21, 0x92, 0xbc,
  0x15, 0xdc, 0xa9, 0x3e, 0x4a, 0x37, 0x58, 0x3f, 0x50, 0x89, 0xdc, 0x3d,
  0x34, 0x0a, 0x0b, 0x3e, 0x0b, 0x45, 0x14, 0xbe, 0xc0, 0xe2, 0xba, 0x3b,
  0x51, 0x6d, 0x68, 0xbe, 0x06, 0x43, 0xa9, 0x3c, 0xe1, 0x61, 0x16, 0xbe,
  0x42, 0x99, 0x05, 0x3e, 0x87, 0xe0, 0xc1, 0xbe, 0x3f, 0x4c, 0x35, 0x3e,
  0x38, 0xbb, 0x65, 0x3d, 0x81, 0x16, 0x52, 0x3f, 0xc4, 0x1a, 0x65, 0x3e,
  0x4c, 0x7d, 0x8a, 0x3e, 0x96, 0x48, 0xc4, 0x3d, 0xd6, 0x42, 0x3c, 0x3e,
  0xbd, 0xcb, 0x2d, 0x3e, 0x95, 0xc3, 0xbb, 0x3e, 0xf5, 0x1d, 0x14, 0xbe,
  0xf2, 0x94, 0x51, 0xbe, 0x66, 0x63, 0xc2, 0x3c, 0xc0, 0x10, 0x3c, 0xbe,
  0x82, 0x69, 0x5f, 0xbb, 0x5f, 0x07, 0xe0, 0xbe, 0xc4, 0x49, 0x6a, 0x3e,
  0x1b, 0xce, 0x33, 0xbe, 0xb6, 0xeb, 0xd5, 0x3c, 0x5c, 0x1a, 0x12, 0x3e,
  0xaa, 0x31, 0xea, 0x3d, 0x47, 0xde, 0x35, 0xbe, 0x9b, 0xa5, 0xfc, 0xbc,
  0x45, 0x1b, 0x13, 0x3e, 0xcf, 0x69, 0x04, 0x3c, 0x07, 0x2b, 0x52, 0xbe,
  0x83, 0xfd, 0x28, 0xbd, 0x17, 0x45, 0x0f, 0x3e, 0xc8, 0xc4, 0x89, 0x3e,
  0xc1, 0x60, 0x3b, 0xbe, 0x0a, 0x1a, 0x94, 0xbd, 0xc4, 0x81, 0x56, 0x3e,
  0xf3, 0x81, 0x8f, 0xbe, 0xff, 0x5f, 0xa3, 0x3d, 0xb7, 0x5c, 0x39, 0xbb,
  0xb4, 0xf7, 0x96, 0xbd, 0x3d, 0x56, 0x86, 0x3d, 0x63, 0xcc, 0x1e, 0xbe,
  0xce, 0xe0, 0x49, 0x3e, 0xf7, 0xd6, 0xa9, 0xbe, 0xd0, 0x75, 0x30, 0x3d,
  0x14, 0x9a, 0x72, 0x3e, 0xda, 0x5d, 0x6e, 0xbd, 0xe3, 0x36, 0x13, 0xbe,
  0x74, 0x02, 0xf9, 0x3e, 0x42, 0x2f, 0x48, 0xc0, 0xfd, 0xb3, 0x0b, 0xc0,
  0xb5, 0xa6, 0x44, 0x3e, 0x8f, 0x8b, 0x8b, 0xbf, 0x4d, 0x32, 0xb4, 0x3e,
  0x79, 0x73, 0x41, 0x3f, 0x84, 0x8d, 0xc5, 0xbf, 0x74, 0x0c, 0x6c, 0x3e,
  0xe2, 0x5c, 0x39, 0xbe, 0x23, 0x1c, 0x34, 0xbf, 0x30, 0x49, 0xf7, 0x3d,
  0xbc, 0x44, 0xa1, 0xbe, 0xd3, 0xea, 0xbf, 0xbd, 0x16, 0x1c, 0xc7, 0x3e,
  0x7c, 0x2b, 0xd7, 0xbe, 0x59, 0x8a, 0xad, 0xbd, 0xa9, 0x69, 0x6d, 0xbf,
  0x9f, 0xd1, 0x5a, 0x3e, 0xe2, 0x09, 0x82, 0xbf, 0xea, 0x3f, 0x96, 0x3e,
  0xdc, 0xef, 0x6a, 0x3e, 0xe1, 0x92, 0x3b, 0xbf, 0xd1, 0xca, 0x63, 0xbe,
  0x3f, 0x61, 0x35, 0xbf, 0x5b, 0x16, 0x42, 0x3f, 0x3c, 0x91, 0x00, 0x3f,
  0xaa, 0xe2, 0xa7, 0x3d, 0x11, 0x87, 0x4d, 0x3f, 0x92, 0xb7, 0xfc, 0xbe,
  0x6d, 0x4a, 0x3c, 0xbf, 0x81, 0x20, 0x1c, 0xbe, 0x76, 0x73, 0x40, 0x3e,
  0x14, 0xed, 0x95, 0x3e, 0xf6, 0xf7, 0x22, 0xbd, 0x68, 0xa1, 0x20, 0xbe,
  0x4b, 0x6a, 0x66, 0xbe, 0x94, 0xf8, 0x83, 0x3d, 0x45, 0xe1, 0xa8, 0xbd,
  0x21, 0x4f, 0x85, 0x3e, 0xfd, 0x04, 0x40, 0x3e, 0x49, 0xad, 0x86, 0x3e,
  0x3e, 0xcb, 0x2d, 0x3e, 0x4c, 0xf5, 0x04, 0xbc, 0x42, 0xa4, 0xaf, 0xbd,
  0x2c, 0xf0, 0x96, 0xbe, 0x97, 0x99, 0xdb, 0x3d, 0x24, 0x61, 0xde, 0x3d,
  0x21, 0xd4, 0xdb, 0x3d, 0xdb, 0x70, 0x42, 0x3e, 0x89, 0x8c, 0xea, 0xbd,
  0x49, 0xa0, 0xf8, 0x3d, 0x03, 0xbf, 0x9a, 0x3e, 0xbd, 0x7c, 0x2a, 0xbd,
  0x94, 0xe0, 0x6a, 0x3e, 0x6d, 0x96, 0xb7, 0x3e, 0x60, 0xbb, 0x9f, 0xbc,
  0x1c, 0xe6, 0xe9, 0xbd, 0xa8, 0x01, 0x03, 0xbe, 0x32, 0x0b, 0x5d, 0x3e,
  0xa4, 0x44, 0xae, 0xbd, 0x0b, 0xe8, 0xc1, 0xbe, 0x1f, 0xa9, 0xa9, 0x3e,
  0x23, 0xa7, 0xa2, 0x3d, 0x98, 0xcf, 0x18, 0xc0, 0x74, 0x11, 0x88, 0x3d,
  0x04, 0xc8, 0xb4, 0xbe, 0x46, 0x59, 0xd7, 0xbe, 0xc0, 0xf1, 0xf0, 0x3d,
  0x70, 0x09, 0x6c, 0x3d, 0xcd, 0x90, 0x05, 0x3f, 0x48, 0xef, 0x75, 0xbe,
  0x5d, 0xb2, 0xb4, 0x3e, 0x6b, 0x85, 0x38, 0xbe, 0x88, 0xc5, 0xb9, 0x3c,
  0xd5, 0xa0, 0x89, 0x3d, 0xda, 0x1e, 0x93, 0xbe, 0x81, 0x8b, 0x9f, 0x3e,
  0xde, 0x16, 0xee, 0x3e, 0x77, 0xf3, 0xa8, 0xbd, 0xfc, 0xe3, 0x1b, 0x3e,
  0x67, 0x9a, 0x0d, 0xbe, 0xcf, 0xe4, 0xf2, 0x3e, 0x14, 0xd9, 0xf7, 0x3d,
  0x26, 0xfb, 0xc7, 0xbc, 0xdf, 0x64, 0xda, 0xbe, 0xb6, 0x86, 0x28, 0xbe,
  0xdc, 0xb0, 0xd0, 0x3e, 0x8b, 0x80, 0xc0, 0xbf, 0x35, 0xcd, 0x13, 0x3f,
  0x10, 0x0d, 0xd8, 0x3e, 0x7d, 0xa6, 0xfc, 0x3d, 0x68, 0x81, 0xd3, 0x3d,
  0x00, 0xb7, 0x20, 0x3e, 0x59, 0x8e, 0x8b, 0xbe, 0xd8, 0xff, 0x87, 0x3e,
  0x6e, 0xf6, 0xa5, 0xbe, 0x0b, 0x98, 0x96, 0xbe, 0x45, 0xfd, 0x5d, 0x3d,
  0xbf, 0xe1, 0x95, 0xbe, 0x71, 0xd2, 0x89, 0xbe, 0x06, 0x81, 0xb5, 0xbe,
  0x76, 0x65, 0xef, 0x3c, 0x0c, 0xc0, 0xab, 0xbc, 0x12, 0x89, 0x89, 0x3e,
  0x08, 0xa3, 0x88, 0xbe, 0xe8, 0x27, 0x5b, 0xbe, 0xb3, 0xda, 0x69, 0xbe,
  0x24, 0x8e, 0xe0, 0xbd, 0xa0, 0x09, 0xf8, 0x3d, 0x0b, 0x10, 0x41, 0xbb,
  0x42, 0xc7, 0x93, 0xbe, 0x1c, 0xa1, 0x78, 0xbe, 0xd4, 0xbd, 0xbc, 0xbe,
  0x91, 0x89, 0x79, 0xbe, 0x77, 0x57, 0x3b, 0x3e, 0x62, 0xf3, 0x20, 0x3e,
  0x9e, 0xfb, 0xff, 0xff, 0x04, 0x00, 0x00, 0x00, 0x70, 0x00, 0x00, 0x00,
  0xd7, 0xd1, 0xd8, 0x3d, 0xb0, 0x67, 0x6b, 0x3f, 0x99, 0x29, 0x5a, 0xbe,
  0xae, 0x27, 0xd7, 0xbe, 0x1c, 0xff, 0xe2, 0x3d, 0x50, 0xc8, 0x8d, 0x3f,
  0xa7, 0x15, 0x1f, 0xbe, 0xf4, 0x8b, 0x3b, 0xbf, 0x28, 0x0c, 0x8f, 0x3c,
  0xb6, 0xce, 0xd6, 0x3e, 0x0d, 0x13, 0x33, 0x3f, 0x4c, 0x50, 0xde, 0xbe,
  0x7c, 0x96, 0xb8, 0xbd, 0x70, 0xfb, 0x7f, 0xbe, 0x70, 0x9f, 0x5c, 0x3f,
  0xbb, 0xee, 0xe3, 0xbd, 0x88, 0x79, 0x55, 0xbf, 0x2f, 0xf2, 0x97, 0x3e,
  0x47, 0xc9, 0x60, 0xbf, 0x1a, 0xb7, 0xab, 0x3e, 0x91, 0xe9, 0x90, 0x3f,
  0x1f, 0x56, 0xe5, 0xbe, 0x8a, 0xfd, 0x81, 0xbe, 0x60, 0x24, 0x97, 0xbe,
  0xf0, 0x5d, 0xe8, 0x3e, 0x36, 0x5d, 0x64, 0x3e, 0x6b, 0x68, 0xcb, 0xbe,
  0x89, 0x8b, 0xc9, 0xbe, 0x1a, 0xfc, 0xff, 0xff, 0x04, 0x00, 0x00, 0x00,
  0xa0, 0x02, 0x00, 0x00, 0xa0, 0x9e, 0x12, 0x3d, 0xdb, 0x72, 0x90, 0xbe,
  0x02, 0xb5, 0xd5, 0xbe, 0xe8, 0x7f, 0x2a, 0x3e, 0x79, 0x56, 0xdc, 0xbe,
  0xb8, 0xef, 0xb9, 0xbe, 0x4a, 0x47, 0x84, 0x3e, 0x9b, 0xd4, 0xd1, 0xbe,
  0x82, 0x3a, 0xb4, 0x3e, 0x98, 0x19, 0xa0, 0x3e, 0x16, 0xf6, 0x44, 0xbe,
  0xff, 0x10, 0xe3, 0xbe, 0x17, 0x9d, 0xdb, 0xbe, 0x86, 0xea, 0xd3, 0x3e,
  0x6b, 0x58, 0xbf, 0x3e, 0x9e, 0x9d, 0xce, 0xbe, 0xdb, 0x9d, 0xc9, 0x3e,
  0x1b, 0xea, 0x92, 0x3e, 0x1a, 0xee, 0x05, 0xbe, 0x52, 0xa9, 0xc7, 0x3f,
  0x6c, 0x29, 0x35, 0x3e, 0xff, 0xd1, 0xa2, 0x3e, 0x5a, 0x9b, 0x9b, 0x3c,
  0xc3, 0x35, 0x6e, 0xbd, 0xb7, 0x93, 0x99, 0x3f, 0xc0, 0xcd, 0xc5, 0x3c,
  0x32, 0xab, 0xed, 0x3e, 0xae, 0x5b, 0xf0, 0x3e, 0xc8, 0x40, 0x6d, 0xbe,
  0x00, 0x81, 0x1b, 0x3d, 0x9f, 0x1e, 0x8d, 0xbe, 0x4e, 0x1d, 0x48, 0xbd,
  0x4b, 0x1f, 0x84, 0x3e, 0x59, 0x33, 0x06, 0xbe, 0xee, 0x3a, 0x4d, 0xbe,
  0x9d, 0x49, 0x14, 0xbe, 0xab, 0x89, 0x35, 0x3e, 0xce, 0xc5, 0x63, 0xbc,
  0x5c, 0xe8, 0x11, 0x3e, 0x72, 0x63, 0xe5, 0x3e, 0x43, 0xf7, 0x4d, 0x3e,
  0xfb, 0x7f, 0x7b, 0xbe, 0x05, 0xa6, 0x7e, 0x3e, 0xec, 0x09, 0x38, 0x3e,
  0x88, 0xa2, 0x98, 0xb9, 0x99, 0xe0, 0xb3, 0xbf, 0x7b, 0xf0, 0x02, 0xbe,
  0xef, 0x8d, 0x26, 0x3f, 0xea, 0x8c, 0x95, 0x3e, 0xbf, 0x50, 0x15, 0x3f,
  0xf2, 0xc4, 0x23, 0xbf, 0x57, 0x45, 0xa9, 0xbe, 0xcf, 0xf9, 0xe6, 0x3e,
  0xf4, 0x33, 0x79, 0x3e, 0xf2, 0x78, 0xe6, 0xb8, 0x48, 0xef, 0xcb, 0x3e,
  0x13, 0x4a, 0x7c, 0x3f, 0x55, 0x38, 0xc8, 0xbe, 0x9c, 0x27, 0x25, 0x3f,
  0x95, 0x2b, 0x93, 0x3f, 0xda, 0x39, 0xc1, 0x3d, 0x48, 0xd3, 0x60, 0xbf,
  0xea, 0x1c, 0x86, 0x3e, 0xf7, 0x1b, 0xb4, 0xbe, 0x2b, 0xff, 0xa3, 0x3f,
  0x2d, 0x62, 0xb7, 0x3f, 0x26, 0x72, 0x8f, 0xbf, 0x94, 0x97, 0x0a, 0x3e,
  0xc1, 0x0c, 0x51, 0x3e, 0x74, 0xee, 0xe1, 0xbe, 0xbd, 0x55, 0x0d, 0x3f,
  0x36, 0xd3, 0xbe, 0x3e, 0xd2, 0x3f, 0xaf, 0x3e, 0x4e, 0xf4, 0x8a, 0xbf,
  0x34, 0x06, 0xc8, 0x3d, 0x5b, 0xa7, 0x5f, 0xbf, 0x5e, 0x93, 0xb4, 0x3e,
  0x08, 0xbb, 0x86, 0x3d, 0x8a, 0x37, 0x1b, 0xbf, 0x2f, 0x07, 0xbe, 0xbe,
  0x47, 0xde, 0x04, 0xbf, 0x98, 0xcc, 0xaa, 0xbd, 0xf9, 0xbb, 0xff, 0xbc,
  0x59, 0xc5, 0x8d, 0xbe, 0x7f, 0x4c, 0x2c, 0xbd, 0x7e, 0x1a, 0xab, 0xbe,
  0x01, 0x39, 0xf7, 0x3e, 0xe9, 0x8e, 0x83, 0xbe, 0x80, 0xb4, 0x5e, 0xbe,
  0x09, 0x4b, 0x20, 0x3f, 0x98, 0x49, 0xdc, 0xbd, 0xc1, 0x50, 0xd6, 0x3e,
  0xdc, 0x14, 0x5e, 0xbf, 0x2b, 0x87, 0xed, 0xbe, 0xb8, 0xed, 0xe7, 0x3d,
  0x20, 0xbd, 0xe9, 0x3d, 0xe6, 0xc8, 0xc1, 0x3e, 0x7e, 0x10, 0xbe, 0x3e,
  0x03, 0x6a, 0x01, 0x3f, 0xdb, 0xbe, 0xcf, 0xbe, 0x7c, 0x9b, 0x17, 0x3e,
  0x5b, 0x9d, 0xcd, 0x3f, 0x3d, 0x23, 0x8b, 0x3e, 0x38, 0x5a, 0x98, 0xbf,
  0x6c, 0x0e, 0x22, 0xbe, 0x05, 0x8f, 0xb0, 0xbe, 0xc5, 0x2d, 0xc6, 0x3f,
  0x67, 0x24, 0xb8, 0x3f, 0x00, 0xde, 0x08, 0xbf, 0xf0, 0xa5, 0xf8, 0xbd,
  0x91, 0x35, 0x89, 0x3e, 0x60, 0x67, 0x94, 0x3d, 0xe6, 0xc4, 0xa2, 0xbe,
  0xa8, 0xcb, 0x86, 0x3e, 0x94, 0x23, 0xa6, 0x3c, 0x03, 0x38, 0xa5, 0x3f,
  0x72, 0xc7, 0xb4, 0x3e, 0x66, 0x63, 0x11, 0x3e, 0x24, 0xc0, 0xe7, 0xbd,
  0xb9, 0x04, 0x20, 0x3f, 0xc4, 0x4b, 0xe0, 0x3e, 0x9e, 0x2b, 0x1f, 0x3f,
  0xaf, 0xe0, 0x7c, 0x3f, 0x8b, 0x23, 0xbf, 0xbe, 0xf8, 0xe9, 0xee, 0x3d,
  0xd4, 0x81, 0x72, 0x3e, 0x4f, 0xc1, 0x09, 0xbf, 0x30, 0x56, 0x2d, 0x3d,
  0x31, 0x9a, 0x87, 0x3e, 0x5e, 0xb9, 0xea, 0xbf, 0xfd, 0xc9, 0x07, 0xbf,
  0x8e, 0xf1, 0x01, 0x3f, 0x6c, 0xd1, 0x13, 0x3e, 0x7c, 0xd6, 0xdf, 0x3e,
  0x13, 0xe2, 0x8b, 0xbf, 0x9f, 0xc7, 0x4b, 0xbf, 0x55, 0x77, 0x33, 0x3f,
  0xc0, 0xee, 0x60, 0x3c, 0x56, 0x75, 0x40, 0x3f, 0xd0, 0x2f, 0x5d, 0x3e,
  0x47, 0xe5, 0x81, 0xbc, 0x0c, 0x63, 0x62, 0x3e, 0x3d, 0xa5, 0x0b, 0xbe,
  0xf3, 0xed, 0x14, 0x40, 0xb3, 0x6a, 0x2e, 0xbf, 0x67, 0xe3, 0xaf, 0x3e,
  0x68, 0x2e, 0xd1, 0xbe, 0x83, 0xa8, 0x91, 0xbc, 0x0e, 0x39, 0xf9, 0x3e,
  0xfb, 0x1e, 0x15, 0x3f, 0xa7, 0x46, 0x89, 0xbd, 0xf6, 0xb7, 0x56, 0xbe,
  0x30, 0xf0, 0xf9, 0x3e, 0x74, 0xa9, 0x94, 0x3e, 0x11, 0xe9, 0xe8, 0xbe,
  0x20, 0xb4, 0x4a, 0xbc, 0xe3, 0xe6, 0x70, 0xbe, 0x48, 0xd6, 0xf4, 0xbd,
  0xfa, 0x98, 0xd2, 0xbe, 0x0e, 0x98, 0x02, 0xbe, 0xf4, 0x46, 0xcd, 0xbe,
  0x54, 0x7f, 0x8d, 0xbd, 0x9c, 0x47, 0x0b, 0xbe, 0xd0, 0x80, 0x02, 0xbd,
  0x9c, 0x7d, 0x88, 0xbd, 0x10, 0x7c, 0xec, 0x3e, 0x36, 0x6d, 0x1e, 0xbe,
  0xdc, 0x42, 0x27, 0xbe, 0xc6, 0xfe, 0xff, 0xff, 0x04, 0x00, 0x00, 0x00,
  0x0c, 0x00, 0x00, 0x00, 0xff, 0xff, 0xff, 0xff, 0x05, 0x00, 0x00, 0x00,
  0x0e, 0x00, 0x00, 0x00, 0xde, 0xfe, 0xff, 0xff, 0x04, 0x00, 0x00, 0x00,
  0x38, 0x00, 0x00, 0x00, 0xe2, 0x31, 0x22, 0x3e, 0x00, 0x00, 0x00, 0x00,
  0xea, 0xc5, 0xf3, 0x3d, 0x73, 0x60, 0xef, 0x3e, 0x17, 0xa8, 0x63, 0xbd,
  0xf3, 0xd9, 0x44, 0xbe, 0x00, 0x00, 0x00, 0x00, 0xe4, 0xa8, 0xdf, 0xbd,
  0x21, 0xa9, 0x01, 0x3e, 0xcf, 0x25, 0xea, 0x3d, 0x7f, 0x02, 0x5d, 0xbe,
  0x00, 0x00, 0x00, 0x00, 0x55, 0xf8, 0xa1, 0x3d, 0x00, 0x00, 0x00, 0x00,
  0x22, 0xff, 0xff, 0xff, 0x04, 0x00, 0x00, 0x00, 0x30, 0x00, 0x00, 0x00,
  0x00, 0x00, 0x00, 0x00, 0xed, 0xf4, 0xbc, 0xbd, 0x17, 0xc0, 0x5e, 0xbc,
  0x55, 0x92, 0xf3, 0xbc, 0x50, 0x47, 0x4b, 0x3e, 0x02, 0xbd, 0x90, 0x3d,
  0x47, 0x8e, 0x4d, 0xbd, 0x45, 0x80, 0xcb, 0x3d, 0x2c, 0x1f, 0xd1, 0xbb,
  0x85, 0x1a, 0xb6, 0x3d, 0xe0, 0x7c, 0x26, 0x3d, 0x00, 0x00, 0x00, 0x00,
  0xf8, 0xf3, 0xff, 0xff, 0xfc, 0xf3, 0xff, 0xff, 0x0f, 0x00, 0x00, 0x00,
  0x4d, 0x4c, 0x49, 0x52, 0x20, 0x43, 0x6f, 0x6e, 0x76, 0x65, 0x72, 0x74,
  0x65, 0x64, 0x2e, 0x00, 0x01, 0x00, 0x00, 0x00, 0x14, 0x00, 0x00, 0x00,
  0x00, 0x00, 0x0e, 0x00, 0x18, 0x00, 0x14, 0x00, 0x10, 0x00, 0x0c, 0x00,
  0x08, 0x00, 0x04, 0x00, 0x0e, 0x00, 0x00, 0x00, 0x14, 0x00, 0x00, 0x00,
  0x1c, 0x00, 0x00, 0x00, 0xb0, 0x02, 0x00, 0x00, 0xb4, 0x02, 0x00, 0x00,
  0xb8, 0x02, 0x00, 0x00, 0x04, 0x00, 0x00, 0x00, 0x6d, 0x61, 0x69, 0x6e,
  0x00, 0x00, 0x00, 0x00, 0x0b, 0x00, 0x00, 0x00, 0x68, 0x02, 0x00, 0x00,
  0x04, 0x02, 0x00, 0x00, 0xcc, 0x01, 0x00, 0x00, 0x90, 0x01, 0x00, 0x00,
  0x40, 0x01, 0x00, 0x00, 0x18, 0x01, 0x00, 0x00, 0xe8, 0x00, 0x00, 0x00,
  0xa0, 0x00, 0x00, 0x00, 0x78, 0x00, 0x00, 0x00, 0x40, 0x00, 0x00, 0x00,
  0x04, 0x00, 0x00, 0x00, 0x32, 0xfe, 0xff, 0xff, 0x1c, 0x00, 0x00, 0x00,
  0x00, 0x00, 0x00, 0x09, 0x1c, 0x00, 0x00, 0x00, 0x20, 0x00, 0x00, 0x00,
  0x05, 0x00, 0x00, 0x00, 0x00, 0x00, 0x06, 0x00, 0x08, 0x00, 0x04, 0x00,
  0x06, 0x00, 0x00, 0x00, 0x00, 0x00, 0x80, 0x3f, 0x01, 0x00, 0x00, 0x00,
  0x15, 0x00, 0x00, 0x00, 0x01, 0x00, 0x00, 0x00, 0x14, 0x00, 0x00, 0x00,
  0x6a, 0xfe, 0xff, 0xff, 0x14, 0x00, 0x00, 0x00, 0x00, 0x00, 0x00, 0x08,
  0x10, 0x00, 0x00, 0x00, 0x14, 0x00, 0x00, 0x00, 0x04, 0x00, 0x00, 0x00,
  0xd0, 0xf4, 0xff, 0xff, 0x01, 0x00, 0x00, 0x00, 0x14, 0x00, 0x00, 0x00,
  0x03, 0x00, 0x00, 0x00, 0x13, 0x00, 0x00, 0x00, 0x06, 0x00, 0x00, 0x00,
  0x07, 0x00, 0x00, 0x00, 0xce, 0xfe, 0xff, 0xff, 0x0c, 0x00, 0x00, 0x00,
  0x10, 0x00, 0x00, 0x00, 0x02, 0x00, 0x00, 0x00, 0x01, 0x00, 0x00, 0x00,
  0x13, 0x00, 0x00, 0x00, 0x02, 0x00, 0x00, 0x00, 0x12, 0x00, 0x00, 0x00,
  0x09, 0x00, 0x00, 0x00, 0xc2, 0xfe, 0xff, 0xff, 0x14, 0x00, 0x00, 0x00,
  0x00, 0x00, 0x00, 0x01, 0x20, 0x00, 0x00, 0x00, 0x24, 0x00, 0x00, 0x00,
  0x01, 0x00, 0x00, 0x00, 0xb4, 0xfe, 0xff, 0xff, 0x00, 0x00, 0x00, 0x01,
  0x01, 0x00, 0x00, 0x00, 0x01, 0x00, 0x00, 0x00, 0x00, 0x00, 0x00, 0x01,
  0x01, 0x00, 0x00, 0x00, 0x12, 0x00, 0x00, 0x00, 0x03, 0x00, 0x00, 0x00,
  0x11, 0x00, 0x00, 0x00, 0x04, 0x00, 0x00, 0x00, 0x01, 0x00, 0x00, 0x00,
  0xa6, 0xfe, 0xff, 0xff, 0x10, 0x00, 0x00, 0x00, 0x00, 0x00, 0x00, 0x34,
  0x0c, 0x00, 0x00, 0x00, 0x10, 0x00, 0x00, 0x00, 0x68, 0xf5, 0xff, 0xff,
  0x01, 0x00, 0x00, 0x00, 0x11, 0x00, 0x00, 0x00, 0x02, 0x00, 0x00, 0x00,
  0x10, 0x00, 0x00, 0x00, 0x0a, 0x00, 0x00, 0x00, 0x62, 0xff, 0xff, 0xff,
  0x0c, 0x00, 0x00, 0x00, 0x10, 0x00, 0x00, 0x00, 0x02, 0x00, 0x00, 0x00,
  0x01, 0x00, 0x00, 0x00, 0x10, 0x00, 0x00, 0x00, 0x02, 0x00, 0x00, 0x00,
  0x0f, 0x00, 0x00, 0x00, 0x03, 0x00, 0x00, 0x00, 0x56, 0xff, 0xff, 0xff,
  0x24, 0x00, 0x00, 0x00, 0x00, 0x00, 0x00, 0x05, 0x30, 0x00, 0x00, 0x00,
  0x34, 0x00, 0x00, 0x00, 0x03, 0x00, 0x00, 0x00, 0x00, 0x00, 0x0e, 0x00,
  0x14, 0x00, 0x00, 0x00, 0x10, 0x00, 0x0c, 0x00, 0x08, 0x00, 0x04, 0x00,
  0x0e, 0x00, 0x00, 0x00, 0x01, 0x00, 0x00, 0x00, 0x02, 0x00, 0x00, 0x00,
  0x01, 0x00, 0x00, 0x00, 0x01, 0x00, 0x00, 0x00, 0x01, 0x00, 0x00, 0x00,
  0x0f, 0x00, 0x00, 0x00, 0x01, 0x00, 0x00, 0x00, 0x0e, 0x00, 0x00, 0x00,
  0x42, 0xff, 0xff, 0xff, 0x10, 0x00, 0x00, 0x00, 0x00, 0x00, 0x00, 0x34,
  0x0c, 0x00, 0x00, 0x00, 0x10, 0x00, 0x00, 0x00, 0x04, 0xf6, 0xff, 0xff,
  0x01, 0x00, 0x00, 0x00, 0x0e, 0x00, 0x00, 0x00, 0x02, 0x00, 0x00, 0x00,
  0x0d, 0x00, 0x00, 0x00, 0x08, 0x00, 0x00, 0x00, 0x00, 0x00, 0x0a, 0x00,
  0x10, 0x00, 0x0c, 0x00, 0x08, 0x00, 0x04, 0x00, 0x0a, 0x00, 0x00, 0x00,
  0x0c, 0x00, 0x00, 0x00, 0x10, 0x00, 0x00, 0x00, 0x02, 0x00, 0x00, 0x00,
  0x01, 0x00, 0x00, 0x00, 0x0d, 0x00, 0x00, 0x00, 0x02, 0x00, 0x00, 0x00,
  0x0c, 0x00, 0x00, 0x00, 0x03, 0x00, 0x00, 0x00, 0x00, 0x00, 0x0e, 0x00,
  0x18, 0x00, 0x14, 0x00, 0x10, 0x00, 0x0c, 0x00, 0x0b, 0x00, 0x04, 0x00,
  0x0e, 0x00, 0x00, 0x00, 0x20, 0x00, 0x00, 0x00, 0x00, 0x00, 0x00, 0x01,
  0x2c, 0x00, 0x00, 0x00, 0x30, 0x00, 0x00, 0x00, 0x01, 0x00, 0x00, 0x00,
  0x0c, 0x00, 0x14, 0x00, 0x13, 0x00, 0x0c, 0x00, 0x08, 0x00, 0x07, 0x00,
  0x0c, 0x00, 0x00, 0x00, 0x00, 0x00, 0x00, 0x01, 0x01, 0x00, 0x00, 0x00,
  0x01, 0x00, 0x00, 0x00, 0x00, 0x00, 0x00, 0x01, 0x01, 0x00, 0x00, 0x00,
  0x0c, 0x00, 0x00, 0x00, 0x03, 0x00, 0x00, 0x00, 0x0b, 0x00, 0x00, 0x00,
  0x05, 0x00, 0x00, 0x00, 0x02, 0x00, 0x00, 0x00, 0x00, 0x00, 0x0e, 0x00,
  0x14, 0x00, 0x00, 0x00, 0x10, 0x00, 0x0c, 0x00, 0x0b, 0x00, 0x04, 0x00,
  0x0e, 0x00, 0x00, 0x00, 0x10, 0x00, 0x00, 0x00, 0x00, 0x00, 0x00, 0x34,
  0x0c, 0x00, 0x00, 0x00, 0x10, 0x00, 0x00, 0x00, 0xd0, 0xf6, 0xff, 0xff,
  0x01, 0x00, 0x00, 0x00, 0x0b, 0x00, 0x00, 0x00, 0x02, 0x00, 0x00, 0x00,
  0x00, 0x00, 0x00, 0x00, 0x0a, 0x00, 0x00, 0x00, 0x01, 0x00, 0x00, 0x00,
  0x15, 0x00, 0x00, 0x00, 0x01, 0x00, 0x00, 0x00, 0x00, 0x00, 0x00, 0x00,
  0x16, 0x00, 0x00, 0x00, 0xd8, 0x08, 0x00, 0x00, 0x84, 0x08, 0x00, 0x00,
  0x30, 0x08, 0x00, 0x00, 0xf0, 0x07, 0x00, 0x00, 0x90, 0x07, 0x00, 0x00,
  0x48, 0x07, 0x00, 0x00, 0x08, 0x07, 0x00, 0x00, 0xcc, 0x06, 0x00, 0x00,
  0x90, 0x06, 0x00, 0x00, 0x50, 0x06, 0x00, 0x00, 0x14, 0x06, 0x00, 0x00,
  0x94, 0x05, 0x00, 0x00, 0xbc, 0x04, 0x00, 0x00, 0x10, 0x04, 0x00, 0x00,
  0x8c, 0x03, 0x00, 0x00, 0x14, 0x03, 0x00, 0x00, 0x9c, 0x02, 0x00, 0x00,
  0x1c, 0x02, 0x00, 0x00, 0x3c, 0x01, 0x00, 0x00, 0xdc, 0x00, 0x00, 0x00,
  0x60, 0x00, 0x00, 0x00, 0x04, 0x00, 0x00, 0x00, 0x96, 0xf7, 0xff, 0xff,
  0x00, 0x00, 0x00, 0x01, 0x14, 0x00, 0x00, 0x00, 0x1c, 0x00, 0x00, 0x00,
  0x1c, 0x00, 0x00, 0x00, 0x16, 0x00, 0x00, 0x00, 0x34, 0x00, 0x00, 0x00,
  0x02, 0x00, 0x00, 0x00, 0xff, 0xff, 0xff, 0xff, 0x05, 0x00, 0x00, 0x00,
  0x7c, 0xf7, 0xff, 0xff, 0x1b, 0x00, 0x00, 0x00, 0x53, 0x74, 0x61, 0x74,
  0x65, 0x66, 0x75, 0x6c, 0x50, 0x61, 0x72, 0x74, 0x69, 0x74, 0x69, 0x6f,
  0x6e, 0x65, 0x64, 0x43, 0x61, 0x6c, 0x6c, 0x5f, 0x31, 0x3a, 0x30, 0x00,
  0x02, 0x00, 0x00, 0x00, 0x01, 0x00, 0x00, 0x00, 0x05, 0x00, 0x00, 0x00,
  0xee, 0xf7, 0xff, 0xff, 0x00, 0x00, 0x00, 0x01, 0x14, 0x00, 0x00, 0x00,
  0x1c, 0x00, 0x00, 0x00, 0x1c, 0x00, 0x00, 0x00, 0x15, 0x00, 0x00, 0x00,
  0x54, 0x00, 0x00, 0x00, 0x02, 0x00, 0x00, 0x00, 0xff, 0xff, 0xff, 0xff,
  0x05, 0x00, 0x00, 0x00, 0xd4, 0xf7, 0xff, 0xff, 0x38, 0x00, 0x00, 0x00,
  0x73, 0x65, 0x71, 0x75, 0x65, 0x6e, 0x74, 0x69, 0x61, 0x6c, 0x5f, 0x31,
  0x2f, 0x64, 0x65, 0x6e, 0x73, 0x65, 0x5f, 0x31, 0x2f, 0x4d, 0x61, 0x74,
  0x4d, 0x75, 0x6c, 0x3b, 0x73, 0x65, 0x71, 0x75, 0x65, 0x6e, 0x74, 0x69,
  0x61, 0x6c, 0x5f, 0x31, 0x2f, 0x64, 0x65, 0x6e, 0x73, 0x65, 0x5f, 0x31,
  0x2f, 0x42, 0x69, 0x61, 0x73, 0x41, 0x64, 0x64, 0x00, 0x00, 0x00, 0x00,
  0x02, 0x00, 0x00, 0x00, 0x01, 0x00, 0x00, 0x00, 0x05, 0x00, 0x00, 0x00,
  0x66, 0xf8, 0xff, 0xff, 0x00, 0x00, 0x00, 0x01, 0x14, 0x00, 0x00, 0x00,
  0x1c, 0x00, 0x00, 0x00, 0x1c, 0x00, 0x00, 0x00, 0x14, 0x00, 0x00, 0x00,
  0x38, 0x00, 0x00, 0x00, 0x02, 0x00, 0x00, 0x00, 0xff, 0xff, 0xff, 0xff,
  0x3c, 0x00, 0x00, 0x00, 0x4c, 0xf8, 0xff, 0xff, 0x1e, 0x00, 0x00, 0x00,
  0x73, 0x65, 0x71, 0x75, 0x65, 0x6e, 0x74, 0x69, 0x61, 0x6c, 0x5f, 0x31,
  0x2f, 0x66, 0x6c, 0x61, 0x74, 0x74, 0x65, 0x6e, 0x5f, 0x31, 0x2f, 0x52,
  0x65, 0x73, 0x68, 0x61, 0x70, 0x65, 0x00, 0x00, 0x02, 0x00, 0x00, 0x00,
  0x01, 0x00, 0x00, 0x00, 0x3c, 0x00, 0x00, 0x00, 0xc2, 0xf8, 0xff, 0xff,
  0x00, 0x00, 0x00, 0x01, 0x14, 0x00, 0x00, 0x00, 0x24, 0x00, 0x00, 0x00,
  0x24, 0x00, 0x00, 0x00, 0x13, 0x00, 0x00, 0x00, 0xb0, 0x00, 0x00, 0x00,
  0x04, 0x00, 0x00, 0x00, 0xff, 0xff, 0xff, 0xff, 0x01, 0x00, 0x00, 0x00,
  0x05, 0x00, 0x00, 0x00, 0x0c, 0x00, 0x00, 0x00, 0xb0, 0xf8, 0xff, 0xff,
  0x8d, 0x00, 0x00, 0x00, 0x73, 0x65, 0x71, 0x75, 0x65, 0x6e, 0x74, 0x69,
  0x61, 0x6c, 0x5f, 0x31, 0x2f, 0x63, 0x6f, 0x6e, 0x76, 0x31, 0x64, 0x5f,
  0x31, 0x5f, 0x32, 0x2f, 0x52, 0x65, 0x6c, 0x75, 0x3b, 0x73, 0x65, 0x71,
  0x75, 0x65, 0x6e, 0x74, 0x69, 0x61, 0x6c, 0x5f, 0x31, 0x2f, 0x63, 0x6f,
  0x6e, 0x76, 0x31, 0x64, 0x5f, 0x31, 0x5f, 0x32, 0x2f, 0x42, 0x69, 0x61,
  0x73, 0x41, 0x64, 0x64, 0x3b, 0x73, 0x65, 0x71, 0x75, 0x65, 0x6e, 0x74,
  0x69, 0x61, 0x6c, 0x5f, 0x31, 0x2f, 0x63, 0x6f, 0x6e, 0x76, 0x31, 0x64,
  0x5f, 0x31, 0x5f, 0x32, 0x2f, 0x63, 0x6f, 0x6e, 0x76, 0x6f, 0x6c, 0x75,
  0x74, 0x69, 0x6f, 0x6e, 0x2f, 0x53, 0x71, 0x75, 0x65, 0x65, 0x7a, 0x65,
  0x3b, 0x3b, 0x73, 0x65, 0x71, 0x75, 0x65, 0x6e, 0x74, 0x69, 0x61, 0x6c,
  0x5f, 0x31, 0x2f, 0x63, 0x6f, 0x6e, 0x76, 0x31, 0x64, 0x5f, 0x31, 0x5f,
  0x32, 0x2f, 0x63, 0x6f, 0x6e, 0x76, 0x6f, 0x6c, 0x75, 0x74, 0x69, 0x6f,
  0x6e, 0x00, 0x00, 0x00, 0x04, 0x00, 0x00, 0x00, 0x01, 0x00, 0x00, 0x00,
  0x01, 0x00, 0x00, 0x00, 0x05, 0x00, 0x00, 0x00, 0x0c, 0x00, 0x00, 0x00,
  0x9e, 0xf9, 0xff, 0xff, 0x00, 0x00, 0x00, 0x01, 0x14, 0x00, 0x00, 0x00,
  0x24, 0x00, 0x00, 0x00, 0x24, 0x00, 0x00, 0x00, 0x12, 0x00, 0x00, 0x00,
  0x50, 0x00, 0x00, 0x00, 0x04, 0x00, 0x00, 0x00, 0xff, 0xff, 0xff, 0xff,
  0x01, 0x00, 0x00, 0x00, 0x05, 0x00, 0x00, 0x00, 0x0e, 0x00, 0x00, 0x00,
  0x8c, 0xf9, 0xff, 0xff, 0x2e, 0x00, 0x00, 0x00, 0x73, 0x65, 0x71, 0x75,
  0x65, 0x6e, 0x74, 0x69, 0x61, 0x6c, 0x5f, 0x31, 0x2f, 0x63, 0x6f, 0x6e,
  0x76, 0x31, 0x64, 0x5f, 0x31, 0x5f, 0x32, 0x2f, 0x63, 0x6f, 0x6e, 0x76,
  0x6f, 0x6c, 0x75, 0x74, 0x69, 0x6f, 0x6e, 0x2f, 0x45, 0x78, 0x70, 0x61,
  0x6e, 0x64, 0x44, 0x69, 0x6d, 0x73, 0x00, 0x00, 0x04, 0x00, 0x00, 0x00,
  0x01, 0x00, 0x00, 0x00, 0x01, 0x00, 0x00, 0x00, 0x05, 0x00, 0x00, 0x00,
  0x0e, 0x00, 0x00, 0x00, 0x1a, 0xfa, 0xff, 0xff, 0x00, 0x00, 0x00, 0x01,
  0x14, 0x00, 0x00, 0x00, 0x20, 0x00, 0x00, 0x00, 0x20, 0x00, 0x00, 0x00,
  0x11, 0x00, 0x00, 0x00, 0x4c, 0x00, 0x00, 0x00, 0x03, 0x00, 0x00, 0x00,
  0xff, 0xff, 0xff, 0xff, 0x05, 0x00, 0x00, 0x00, 0x0e, 0x00, 0x00, 0x00,
  0x04, 0xfa, 0xff, 0xff, 0x2e, 0x00, 0x00, 0x00, 0x73, 0x65, 0x71, 0x75,
  0x65, 0x6e, 0x74, 0x69, 0x61, 0x6c, 0x5f, 0x31, 0x2f, 0x6d, 0x61, 0x78,
  0x5f, 0x70, 0x6f, 0x6f, 0x6c, 0x69, 0x6e, 0x67, 0x31, 0x64, 0x5f, 0x31,
  0x2f, 0x4d, 0x61, 0x78, 0x50, 0x6f, 0x6f, 0x6c, 0x31, 0x64, 0x2f, 0x53,
  0x71, 0x75, 0x65, 0x65, 0x7a, 0x65, 0x00, 0x00, 0x03, 0x00, 0x00, 0x00,
  0x01, 0x00, 0x00, 0x00, 0x05, 0x00, 0x00, 0x00, 0x0e, 0x00, 0x00, 0x00,
  0x8e, 0xfa, 0xff, 0xff, 0x00, 0x00, 0x00, 0x01, 0x14, 0x00, 0x00, 0x00,
  0x24, 0x00, 0x00, 0x00, 0x24, 0x00, 0x00, 0x00, 0x10, 0x00, 0x00, 0x00,
  0x48, 0x00, 0x00, 0x00, 0x04, 0x00, 0x00, 0x00, 0xff, 0xff, 0xff, 0xff,
  0x01, 0x00, 0x00, 0x00, 0x05, 0x00, 0x00, 0x00, 0x0e, 0x00, 0x00, 0x00,
  0x7c, 0xfa, 0xff, 0xff, 0x26, 0x00, 0x00, 0x00, 0x73, 0x65, 0x71, 0x75,
  0x65, 0x6e, 0x74, 0x69, 0x61, 0x6c, 0x5f, 0x31, 0x2f, 0x6d, 0x61, 0x78,
  0x5f, 0x70, 0x6f, 0x6f, 0x6c, 0x69, 0x6e, 0x67, 0x31, 0x64, 0x5f, 0x31,
  0x2f, 0x4d, 0x61, 0x78, 0x50, 0x6f, 0x6f, 0x6c, 0x31, 0x64, 0x00, 0x00,
  0x04, 0x00, 0x00, 0x00, 0x01, 0x00, 0x00, 0x00, 0x01, 0x00, 0x00, 0x00,
  0x05, 0x00, 0x00, 0x00, 0x0e, 0x00, 0x00, 0x00, 0x02, 0xfb, 0xff, 0xff,
  0x00, 0x00, 0x00, 0x01, 0x14, 0x00, 0x00, 0x00, 0x24, 0x00, 0x00, 0x00,
  0x24, 0x00, 0x00, 0x00, 0x0f, 0x00, 0x00, 0x00, 0x54, 0x00, 0x00, 0x00,
  0x04, 0x00, 0x00, 0x00, 0xff, 0xff, 0xff, 0xff, 0x01, 0x00, 0x00, 0x00,
  0x05, 0x00, 0x00, 0x00, 0x0e, 0x00, 0x00, 0x00, 0xf0, 0xfa, 0xff, 0xff,
  0x31, 0x00, 0x00, 0x00, 0x73, 0x65, 0x71, 0x75, 0x65, 0x6e, 0x74, 0x69,
  0x61, 0x6c, 0x5f, 0x31, 0x2f, 0x6d, 0x61, 0x78, 0x5f, 0x70, 0x6f, 0x6f,
  0x6c, 0x69, 0x6e, 0x67, 0x31, 0x64, 0x5f, 0x31, 0x2f, 0x4d, 0x61, 0x78,
  0x50, 0x6f, 0x6f, 0x6c, 0x31, 0x64, 0x2f, 0x45, 0x78, 0x70, 0x61, 0x6e,
  0x64, 0x44, 0x69, 0x6d, 0x73, 0x00, 0x00, 0x00, 0x04, 0x00, 0x00, 0x00,
  0x01, 0x00, 0x00, 0x00, 0x01, 0x00, 0x00, 0x00, 0x05, 0x00, 0x00, 0x00,
  0x0e, 0x00, 0x00, 0x00, 0x82, 0xfb, 0xff, 0xff, 0x00, 0x00, 0x00, 0x01,
  0x14, 0x00, 0x00, 0x00, 0x20, 0x00, 0x00, 0x00, 0x20, 0x00, 0x00, 0x00,
  0x0e, 0x00, 0x00, 0x00, 0x80, 0x00, 0x00, 0x00, 0x03, 0x00, 0x00, 0x00,
  0xff, 0xff, 0xff, 0xff, 0x05, 0x00, 0x00, 0x00, 0x0e, 0x00, 0x00, 0x00,
  0x6c, 0xfb, 0xff, 0xff, 0x63, 0x00, 0x00, 0x00, 0x73, 0x65, 0x71, 0x75,
  0x65, 0x6e, 0x74, 0x69, 0x61, 0x6c, 0x5f, 0x31, 0x2f, 0x63, 0x6f, 0x6e,
  0x76, 0x31, 0x64, 0x5f, 0x31, 0x2f, 0x52, 0x65, 0x6c, 0x75, 0x3b, 0x73,
  0x65, 0x71, 0x75, 0x65, 0x6e, 0x74, 0x69, 0x61, 0x6c, 0x5f, 0x31, 0x2f,
  0x63, 0x6f, 0x6e, 0x76, 0x31, 0x64, 0x5f, 0x31, 0x2f, 0x42, 0x69, 0x61,
  0x73, 0x41, 0x64, 0x64, 0x3b, 0x73, 0x65, 0x71, 0x75, 0x65, 0x6e, 0x74,
  0x69, 0x61, 0x6c, 0x5f, 0x31, 0x2f, 0x63, 0x6f, 0x6e, 0x76, 0x31, 0x64,
  0x5f, 0x31, 0x2f, 0x63, 0x6f, 0x6e, 0x76, 0x6f, 0x6c, 0x75, 0x74, 0x69,
  0x6f, 0x6e, 0x2f, 0x53, 0x71, 0x75, 0x65, 0x65, 0x7a, 0x65, 0x3b, 0x00,
  0x03, 0x00, 0x00, 0x00, 0x01, 0x00, 0x00, 0x00, 0x05, 0x00, 0x00, 0x00,
  0x0e, 0x00, 0x00, 0x00, 0x2a, 0xfc, 0xff, 0xff, 0x00, 0x00, 0x00, 0x01,
  0x14, 0x00, 0x00, 0x00, 0x24, 0x00, 0x00, 0x00, 0x24, 0x00, 0x00, 0x00,
  0x0d, 0x00, 0x00, 0x00, 0xa8, 0x00, 0x00, 0x00, 0x04, 0x00, 0x00, 0x00,
  0xff, 0xff, 0xff, 0xff, 0x01, 0x00, 0x00, 0x00, 0x05, 0x00, 0x00, 0x00,
  0x0e, 0x00, 0x00, 0x00, 0x18, 0xfc, 0xff, 0xff, 0x85, 0x00, 0x00, 0x00,
  0x73, 0x65, 0x71, 0x75, 0x65, 0x6e, 0x74, 0x69, 0x61, 0x6c, 0x5f, 0x31,
  0x2f, 0x63, 0x6f, 0x6e, 0x76, 0x31, 0x64, 0x5f, 0x31, 0x2f, 0x52, 0x65,
  0x6c, 0x75, 0x3b, 0x73, 0x65, 0x71, 0x75, 0x65, 0x6e, 0x74, 0x69, 0x61,
  0x6c, 0x5f, 0x31, 0x2f, 0x63, 0x6f, 0x6e, 0x76, 0x31, 0x64, 0x5f, 0x31,
  0x2f, 0x42, 0x69, 0x61, 0x73, 0x41, 0x64, 0x64, 0x3b, 0x73, 0x65, 0x71,
  0x75, 0x65, 0x6e, 0x74, 0x69, 0x61, 0x6c, 0x5f, 0x31, 0x2f, 0x63, 0x6f,
  0x6e, 0x76, 0x31, 0x64, 0x5f, 0x31, 0x2f, 0x63, 0x6f, 0x6e, 0x76, 0x6f,
  0x6c, 0x75, 0x74, 0x69, 0x6f, 0x6e, 0x2f, 0x53, 0x71, 0x75, 0x65, 0x65,
  0x7a, 0x65, 0x3b, 0x3b, 0x73, 0x65, 0x71, 0x75, 0x65, 0x6e, 0x74, 0x69,
  0x61, 0x6c, 0x5f, 0x31, 0x2f, 0x63, 0x6f, 0x6e, 0x76, 0x31, 0x64, 0x5f,
  0x31, 0x2f, 0x63, 0x6f, 0x6e, 0x76, 0x6f, 0x6c, 0x75, 0x74, 0x69, 0x6f,
  0x6e, 0x00, 0x00, 0x00, 0x04, 0x00, 0x00, 0x00, 0x01, 0x00, 0x00, 0x00,
  0x01, 0x00, 0x00, 0x00, 0x05, 0x00, 0x00, 0x00, 0x0e, 0x00, 0x00, 0x00,
  0xfe, 0xfc, 0xff, 0xff, 0x00, 0x00, 0x00, 0x01, 0x14, 0x00, 0x00, 0x00,
  0x24, 0x00, 0x00, 0x00, 0x24, 0x00, 0x00, 0x00, 0x0c, 0x00, 0x00, 0x00,
  0x50, 0x00, 0x00, 0x00, 0x04, 0x00, 0x00, 0x00, 0xff, 0xff, 0xff, 0xff,
  0x01, 0x00, 0x00, 0x00, 0x06, 0x00, 0x00, 0x00, 0x01, 0x00, 0x00, 0x00,
  0xec, 0xfc, 0xff, 0xff, 0x2c, 0x00, 0x00, 0x00, 0x73, 0x65, 0x71, 0x75,
  0x65, 0x6e, 0x74, 0x69, 0x61, 0x6c, 0x5f, 0x31, 0x2f, 0x63, 0x6f, 0x6e,
  0x76, 0x31, 0x64, 0x5f, 0x31, 0x2f, 0x63, 0x6f, 0x6e, 0x76, 0x6f, 0x6c,
  0x75, 0x74, 0x69, 0x6f, 0x6e, 0x2f, 0x45, 0x78, 0x70, 0x61, 0x6e, 0x64,
  0x44, 0x69, 0x6d, 0x73, 0x00, 0x00, 0x00, 0x00, 0x04, 0x00, 0x00, 0x00,
  0x01, 0x00, 0x00, 0x00, 0x01, 0x00, 0x00, 0x00, 0x06, 0x00, 0x00, 0x00,
  0x01, 0x00, 0x00, 0x00, 0x56, 0xfe, 0xff, 0xff, 0x00, 0x00, 0x00, 0x01,
  0x14, 0x00, 0x00, 0x00, 0x14, 0x00, 0x00, 0x00, 0x0b, 0x00, 0x00, 0x00,
  0x00, 0x00, 0x00, 0x02, 0x1c, 0x00, 0x00, 0x00, 0x54, 0xfd, 0xff, 0xff,
  0x0f, 0x00, 0x00, 0x00, 0x61, 0x72, 0x69, 0x74, 0x68, 0x2e, 0x63, 0x6f,
  0x6e, 0x73, 0x74, 0x61, 0x6e, 0x74, 0x39, 0x00, 0x00, 0x00, 0x00, 0x00,
  0x8e, 0xfe, 0xff, 0xff, 0x00, 0x00, 0x00, 0x01, 0x14, 0x00, 0x00, 0x00,
  0x14, 0x00, 0x00, 0x00, 0x0a, 0x00, 0x00, 0x00, 0x00, 0x00, 0x00, 0x02,
  0x1c, 0x00, 0x00, 0x00, 0x8c, 0xfd, 0xff, 0xff, 0x0f, 0x00, 0x00, 0x00,
  0x61, 0x72, 0x69, 0x74, 0x68, 0x2e, 0x63, 0x6f, 0x6e, 0x73, 0x74, 0x61,
  0x6e, 0x74, 0x38, 0x00, 0x01, 0x00, 0x00, 0x00, 0x02, 0x00, 0x00, 0x00,
  0xca, 0xfe, 0xff, 0xff, 0x00, 0x00, 0x00, 0x01, 0x14, 0x00, 0x00, 0x00,
  0x14, 0x00, 0x00, 0x00, 0x09, 0x00, 0x00, 0x00, 0x00, 0x00, 0x00, 0x02,
  0x1c, 0x00, 0x00, 0x00, 0xc8, 0xfd, 0xff, 0xff, 0x0f, 0x00, 0x00, 0x00,
  0x61, 0x72, 0x69, 0x74, 0x68, 0x2e, 0x63, 0x6f, 0x6e, 0x73, 0x74, 0x61,
  0x6e, 0x74, 0x37, 0x00, 0x00, 0x00, 0x00, 0x00, 0x76, 0xfe, 0xff, 0xff,
  0x00, 0x00, 0x00, 0x01, 0x10, 0x00, 0x00, 0x00, 0x10, 0x00, 0x00, 0x00,
  0x08, 0x00, 0x00, 0x00, 0x1c, 0x00, 0x00, 0x00, 0xfc, 0xfd, 0xff, 0xff,
  0x0f, 0x00, 0x00, 0x00, 0x61, 0x72, 0x69, 0x74, 0x68, 0x2e, 0x63, 0x6f,
  0x6e, 0x73, 0x74, 0x61, 0x6e, 0x74, 0x36, 0x00, 0x01, 0x00, 0x00, 0x00,
  0x05, 0x00, 0x00, 0x00, 0xae, 0xfe, 0xff, 0xff, 0x00, 0x00, 0x00, 0x01,
  0x10, 0x00, 0x00, 0x00, 0x10, 0x00, 0x00, 0x00, 0x07, 0x00, 0x00, 0x00,
  0x1c, 0x00, 0x00, 0x00, 0x34, 0xfe, 0xff, 0xff, 0x0f, 0x00, 0x00, 0x00,
  0x61, 0x72, 0x69, 0x74, 0x68, 0x2e, 0x63, 0x6f, 0x6e, 0x73, 0x74, 0x61,
  0x6e, 0x74, 0x35, 0x00, 0x02, 0x00, 0x00, 0x00, 0x05, 0x00, 0x00, 0x00,
  0x3c, 0x00, 0x00, 0x00, 0xea, 0xfe, 0xff, 0xff, 0x00, 0x00, 0x00, 0x01,
  0x10, 0x00, 0x00, 0x00, 0x10, 0x00, 0x00, 0x00, 0x06, 0x00, 0x00, 0x00,
  0x1c, 0x00, 0x00, 0x00, 0x70, 0xfe, 0xff, 0xff, 0x0f, 0x00, 0x00, 0x00,
  0x61, 0x72, 0x69, 0x74, 0x68, 0x2e, 0x63, 0x6f, 0x6e, 0x73, 0x74, 0x61,
  0x6e, 0x74, 0x34, 0x00, 0x04, 0x00, 0x00, 0x00, 0x0e, 0x00, 0x00, 0x00,
  0x01, 0x00, 0x00, 0x00, 0x02, 0x00, 0x00, 0x00, 0x01, 0x00, 0x00, 0x00,
  0x2e, 0xff, 0xff, 0xff, 0x00, 0x00, 0x00, 0x01, 0x10, 0x00, 0x00, 0x00,
  0x10, 0x00, 0x00, 0x00, 0x05, 0x00, 0x00, 0x00, 0x1c, 0x00, 0x00, 0x00,
  0xb4, 0xfe, 0xff, 0xff, 0x0f, 0x00, 0x00, 0x00, 0x61, 0x72, 0x69, 0x74,
  0x68, 0x2e, 0x63, 0x6f, 0x6e, 0x73, 0x74, 0x61, 0x6e, 0x74, 0x33, 0x00,
  0x04, 0x00, 0x00, 0x00, 0x0c, 0x00, 0x00, 0x00, 0x01, 0x00, 0x00, 0x00,
  0x01, 0x00, 0x00, 0x00, 0x0e, 0x00, 0x00, 0x00, 0x00, 0x00, 0x16, 0x00,
  0x1c, 0x00, 0x18, 0x00, 0x17, 0x00, 0x10, 0x00, 0x0c, 0x00, 0x08, 0x00,
  0x00, 0x00, 0x00, 0x00, 0x00, 0x00, 0x07, 0x00, 0x16, 0x00, 0x00, 0x00,
  0x00, 0x00, 0x00, 0x01, 0x14, 0x00, 0x00, 0x00, 0x14, 0x00, 0x00, 0x00,
  0x04, 0x00, 0x00, 0x00, 0x00, 0x00, 0x00, 0x02, 0x1c, 0x00, 0x00, 0x00,
  0x14, 0xff, 0xff, 0xff, 0x0f, 0x00, 0x00, 0x00, 0x61, 0x72, 0x69, 0x74,
  0x68, 0x2e, 0x63, 0x6f, 0x6e, 0x73, 0x74, 0x61, 0x6e, 0x74, 0x32, 0x00,
  0x01, 0x00, 0x00, 0x00, 0x03, 0x00, 0x00, 0x00, 0xc6, 0xff, 0xff, 0xff,
  0x00, 0x00, 0x00, 0x01, 0x10, 0x00, 0x00, 0x00, 0x10, 0x00, 0x00, 0x00,
  0x03, 0x00, 0x00, 0x00, 0x1c, 0x00, 0x00, 0x00, 0x4c, 0xff, 0xff, 0xff,
  0x0f, 0x00, 0x00, 0x00, 0x61, 0x72, 0x69, 0x74, 0x68, 0x2e, 0x63, 0x6f,
  0x6e, 0x73, 0x74, 0x61, 0x6e, 0x74, 0x31, 0x00, 0x01, 0x00, 0x00, 0x00,
  0x0e, 0x00, 0x00, 0x00, 0x00, 0x00, 0x16, 0x00, 0x18, 0x00, 0x14, 0x00,
  0x00, 0x00, 0x10, 0x00, 0x0c, 0x00, 0x08, 0x00, 0x00, 0x00, 0x00, 0x00,
  0x00, 0x00, 0x07, 0x00, 0x16, 0x00, 0x00, 0x00, 0x00, 0x00, 0x00, 0x01,
  0x10, 0x00, 0x00, 0x00, 0x10, 0x00, 0x00, 0x00, 0x02, 0x00, 0x00, 0x00,
  0x1c, 0x00, 0x00, 0x00, 0x9c, 0xff, 0xff, 0xff, 0x0e, 0x00, 0x00, 0x00,
  0x61, 0x72, 0x69, 0x74, 0x68, 0x2e, 0x63, 0x6f, 0x6e, 0x73, 0x74, 0x61,
  0x6e, 0x74, 0x00, 0x00, 0x01, 0x00, 0x00, 0x00, 0x0c, 0x00, 0x00, 0x00,
  0x00, 0x00, 0x16, 0x00, 0x1c, 0x00, 0x18, 0x00, 0x00, 0x00, 0x14, 0x00,
  0x10, 0x00, 0x0c, 0x00, 0x00, 0x00, 0x00, 0x00, 0x08, 0x00, 0x07, 0x00,
  0x16, 0x00, 0x00, 0x00, 0x00, 0x00, 0x00, 0x01, 0x14, 0x00, 0x00, 0x00,
  0x24, 0x00, 0x00, 0x00, 0x24, 0x00, 0x00, 0x00, 0x01, 0x00, 0x00, 0x00,
  0x40, 0x00, 0x00, 0x00, 0x03, 0x00, 0x00, 0x00, 0xff, 0xff, 0xff, 0xff,
  0x06, 0x00, 0x00, 0x00, 0x01, 0x00, 0x00, 0x00, 0x04, 0x00, 0x04, 0x00,
  0x04, 0x00, 0x00, 0x00, 0x1e, 0x00, 0x00, 0x00, 0x73, 0x65, 0x72, 0x76,
  0x69, 0x6e, 0x67, 0x5f, 0x64, 0x65, 0x66, 0x61, 0x75, 0x6c, 0x74, 0x5f,
  0x6b, 0x65, 0x72, 0x61, 0x73, 0x5f, 0x74, 0x65, 0x6e, 0x73, 0x6f, 0x72,
  0x3a, 0x30, 0x00, 0x00, 0x03, 0x00, 0x00, 0x00, 0x01, 0x00, 0x00, 0x00,
  0x06, 0x00, 0x00, 0x00, 0x01, 0x00, 0x00, 0x00, 0x06, 0x00, 0x00, 0x00,
  0x60, 0x00, 0x00, 0x00, 0x44, 0x00, 0x00, 0x00, 0x34, 0x00, 0x00, 0x00,
  0x24, 0x00, 0x00, 0x00, 0x14, 0x00, 0x00, 0x00, 0x04, 0x00, 0x00, 0x00,
  0xc4, 0xff, 0xff, 0xff, 0x19, 0x00, 0x00, 0x00, 0x00, 0x00, 0x00, 0x19,
  0xd0, 0xff, 0xff, 0xff, 0x09, 0x00, 0x00, 0x00, 0x00, 0x00, 0x00, 0x09,
  0xdc, 0xff, 0xff, 0xff, 0x11, 0x00, 0x00, 0x00, 0x00, 0x00, 0x00, 0x11,
  0xe8, 0xff, 0xff, 0xff, 0x16, 0x00, 0x00, 0x00, 0x00, 0x00, 0x00, 0x16,
  0xf4, 0xff, 0xff, 0xff, 0x03, 0x00, 0x00, 0x00, 0x00, 0x00, 0x00, 0x03,
  0x0c, 0x00, 0x0c, 0x00, 0x0b, 0x00, 0x00, 0x00, 0x00, 0x00, 0x04, 0x00,
  0x0c, 0x00, 0x00, 0x00, 0x46, 0x00, 0x00, 0x00, 0x00, 0x00, 0x00, 0x46
 
};

#endif //GESTURE_MODEL_H