#ifndef GESTURE_MODEL_H
#define GESTURE_MODEL_H


unsigned int gesture_model_len = 6832;
unsigned char gesture_model[] = {
 0x1c, 0x00, 0x00, 0x00, 0x54, 0x46, 0x4c, 0x33, 0x14, 0x00, 0x20, 0x00,
  0x1c, 0x00, 0x18, 0x00, 0x14, 0x00, 0x10, 0x00, 0x0c, 0x00, 0x00, 0x00,
  0x08, 0x00, 0x04, 0x00, 0x14, 0x00, 0x00, 0x00, 0x1c, 0x00, 0x00, 0x00,
  0x8c, 0x00, 0x00, 0x00, 0xe4, 0x00, 0x00, 0x00, 0x48, 0x0b, 0x00, 0x00,
  0x58, 0x0b, 0x00, 0x00, 0x0c, 0x1a, 0x00, 0x00, 0x03, 0x00, 0x00, 0x00,
  0x01, 0x00, 0x00, 0x00, 0x04, 0x00, 0x00, 0x00, 0x1a, 0xf2, 0xff, 0xff,
  0x0c, 0x00, 0x00, 0x00, 0x1c, 0x00, 0x00, 0x00, 0x3c, 0x00, 0x00, 0x00,
  0x0f, 0x00, 0x00, 0x00, 0x73, 0x65, 0x72, 0x76, 0x69, 0x6e, 0x67, 0x5f,
  0x64, 0x65, 0x66, 0x61, 0x75, 0x6c, 0x74, 0x00, 0x01, 0x00, 0x00, 0x00,
  0x04, 0x00, 0x00, 0x00, 0x90, 0xff, 0xff, 0xff, 0x19, 0x00, 0x00, 0x00,
  0x04, 0x00, 0x00, 0x00, 0x08, 0x00, 0x00, 0x00, 0x6f, 0x75, 0x74, 0x70,
  0x75, 0x74, 0x5f, 0x30, 0x00, 0x00, 0x00, 0x00, 0x01, 0x00, 0x00, 0x00,
  0x04, 0x00, 0x00, 0x00, 0x7a, 0xf4, 0xff, 0xff, 0x04, 0x00, 0x00, 0x00,
  0x0c, 0x00, 0x00, 0x00, 0x6b, 0x65, 0x72, 0x61, 0x73, 0x5f, 0x74, 0x65,
  0x6e, 0x73, 0x6f, 0x72, 0x00, 0x00, 0x00, 0x00, 0x02, 0x00, 0x00, 0x00,
  0x34, 0x00, 0x00, 0x00, 0x04, 0x00, 0x00, 0x00, 0xdc, 0xff, 0xff, 0xff,
  0x1c, 0x00, 0x00, 0x00, 0x04, 0x00, 0x00, 0x00, 0x13, 0x00, 0x00, 0x00,
  0x43, 0x4f, 0x4e, 0x56, 0x45, 0x52, 0x53, 0x49, 0x4f, 0x4e, 0x5f, 0x4d,
  0x45, 0x54, 0x41, 0x44, 0x41, 0x54, 0x41, 0x00, 0x08, 0x00, 0x0c, 0x00,
  0x08, 0x00, 0x04, 0x00, 0x08, 0x00, 0x00, 0x00, 0x1b, 0x00, 0x00, 0x00,
  0x04, 0x00, 0x00, 0x00, 0x13, 0x00, 0x00, 0x00, 0x6d, 0x69, 0x6e, 0x5f,
  0x72, 0x75, 0x6e, 0x74, 0x69, 0x6d, 0x65, 0x5f, 0x76, 0x65, 0x72, 0x73,
  0x69, 0x6f, 0x6e, 0x00, 0x1d, 0x00, 0x00, 0x00, 0x60, 0x0a, 0x00, 0x00,
  0x58, 0x0a, 0x00, 0x00, 0x18, 0x0a, 0x00, 0x00, 0xd0, 0x09, 0x00, 0x00,
  0xb4, 0x09, 0x00, 0x00, 0x98, 0x09, 0x00, 0x00, 0x48, 0x04, 0x00, 0x00,
  0x58, 0x03, 0x00, 0x00, 0x68, 0x01, 0x00, 0x00, 0x44, 0x01, 0x00, 0x00,
  0x30, 0x01, 0x00, 0x00, 0x18, 0x01, 0x00, 0x00, 0x04, 0x01, 0x00, 0x00,
  0xfc, 0x00, 0x00, 0x00, 0xf4, 0x00, 0x00, 0x00, 0xec, 0x00, 0x00, 0x00,
  0xe4, 0x00, 0x00, 0x00, 0xdc, 0x00, 0x00, 0x00, 0xd4, 0x00, 0x00, 0x00,
  0xcc, 0x00, 0x00, 0x00, 0xc4, 0x00, 0x00, 0x00, 0xbc, 0x00, 0x00, 0x00,
  0xb4, 0x00, 0x00, 0x00, 0xac, 0x00, 0x00, 0x00, 0xa4, 0x00, 0x00, 0x00,
  0x9c, 0x00, 0x00, 0x00, 0x94, 0x00, 0x00, 0x00, 0x74, 0x00, 0x00, 0x00,
  0x04, 0x00, 0x00, 0x00, 0x6a, 0xf5, 0xff, 0xff, 0x04, 0x00, 0x00, 0x00,
  0x60, 0x00, 0x00, 0x00, 0x10, 0x00, 0x00, 0x00, 0x00, 0x00, 0x00, 0x00,
  0x08, 0x00, 0x0e, 0x00, 0x08, 0x00, 0x04, 0x00, 0x08, 0x00, 0x00, 0x00,
  0x10, 0x00, 0x00, 0x00, 0x24, 0x00, 0x00, 0x00, 0x00, 0x00, 0x06, 0x00,
  0x08, 0x00, 0x04, 0x00, 0x06, 0x00, 0x00, 0x00, 0x04, 0x00, 0x00, 0x00,
  0x00, 0x00, 0x00, 0x00, 0x0c, 0x00, 0x18, 0x00, 0x14, 0x00, 0x10, 0x00,
  0x0c, 0x00, 0x04, 0x00, 0x0c, 0x00, 0x00, 0x00, 0xa9, 0x40, 0xfd, 0xbc,
  0x71, 0x3a, 0x89, 0x3f, 0x02, 0x00, 0x00, 0x00, 0x02, 0x00, 0x00, 0x00,
  0x04, 0x00, 0x00, 0x00, 0x06, 0x00, 0x00, 0x00, 0x32, 0x2e, 0x31, 0x39,
  0x2e, 0x30, 0x00, 0x00, 0xd6, 0xf5, 0xff, 0xff, 0x04, 0x00, 0x00, 0x00,
  0x10, 0x00, 0x00, 0x00, 0x31, 0x2e, 0x31, 0x30, 0x2e, 0x30, 0x00, 0x00,
  0x00, 0x00, 0x00, 0x00, 0x00, 0x00, 0x00, 0x00, 0x08, 0xe8, 0xff, 0xff,
  0x0c, 0xe8, 0xff, 0xff, 0x10, 0xe8, 0xff, 0xff, 0x14, 0xe8, 0xff, 0xff,
  0x18, 0xe8, 0xff, 0xff, 0x1c, 0xe8, 0xff, 0xff, 0x20, 0xe8, 0xff, 0xff,
  0x24, 0xe8, 0xff, 0xff, 0x28, 0xe8, 0xff, 0xff, 0x2c, 0xe8, 0xff, 0xff,
  0x30, 0xe8, 0xff, 0xff, 0x34, 0xe8, 0xff, 0xff, 0x38, 0xe8, 0xff, 0xff,
  0x3c, 0xe8, 0xff, 0xff, 0x2a, 0xf6, 0xff, 0xff, 0x04, 0x00, 0x00, 0x00,
  0x04, 0x00, 0x00, 0x00, 0xfd, 0xff, 0xff, 0xff, 0x3a, 0xf6, 0xff, 0xff,
  0x04, 0x00, 0x00, 0x00, 0x08, 0x00, 0x00, 0x00, 0xff, 0xff, 0xff, 0xff,
  0x18, 0x00, 0x00, 0x00, 0x4e, 0xf6, 0xff, 0xff, 0x04, 0x00, 0x00, 0x00,
  0x04, 0x00, 0x00, 0x00, 0x01, 0x00, 0x00, 0x00, 0x5e, 0xf6, 0xff, 0xff,
  0x04, 0x00, 0x00, 0x00, 0x14, 0x00, 0x00, 0x00, 0xc0, 0x05, 0xad, 0xbd,
  0xc2, 0x46, 0x38, 0xbe, 0x4b, 0x80, 0x12, 0x3e, 0x4f, 0x06, 0x2a, 0x3e,
  0x11, 0x71, 0x04, 0x39, 0x7e, 0xf6, 0xff, 0xff, 0x04, 0x00, 0x00, 0x00,
  0xe0, 0x01, 0x00, 0x00, 0x55, 0x6f, 0x21, 0x3f, 0xe6, 0x2c, 0x6c, 0xbf,
  0x1b, 0x35, 0x98, 0xbe, 0x24, 0xe2, 0x86, 0x3f, 0x1a, 0x52, 0x1d, 0x3f,
  0x4f, 0xb5, 0x32, 0xbe, 0x9e, 0x6d, 0xee, 0x3e, 0x20, 0xdc, 0x9f, 0xbe,
  0x74, 0xb9, 0xb8, 0xbd, 0x0d, 0xff, 0xa3, 0xbe, 0x08, 0xc7, 0x07, 0x3f,
  0x54, 0x9e, 0xd7, 0xbd, 0xfe, 0x9b, 0x90, 0xbd, 0xb8, 0x4b, 0x1a, 0xbf,
  0x36, 0xa8, 0xd0, 0xbe, 0xf0, 0x6d, 0x44, 0x3e, 0x25, 0x08, 0xbd, 0x3d,
  0x41, 0xed, 0xd0, 0x3d, 0x44, 0xa9, 0x02, 0x3f, 0xf4, 0x90, 0xc4, 0xbe,
  0x1a, 0x3a, 0xd2, 0x3e, 0x44, 0xc2, 0xf1, 0x3e, 0xf1, 0x4e, 0x79, 0x3f,
  0x6c, 0xb9, 0x80, 0xbe, 0x9c, 0xd0, 0x29, 0x3e, 0x40, 0x07, 0x30, 0x3e,
  0x9c, 0xb1, 0x53, 0xbf, 0x6f, 0x69, 0x8d, 0xbd, 0xbd, 0xdd, 0x24, 0x3f,
  0xea, 0x87, 0x39, 0x3f, 0x70, 0x11, 0x83, 0x3e, 0x82, 0x74, 0x83, 0xbe,
  0x7c, 0x15, 0x9f, 0x3e, 0x5c, 0x5c, 0x83, 0xbd, 0x0d, 0xb4, 0xf0, 0xbe,
  0x4d, 0x1a, 0x07, 0x3f, 0xef, 0x05, 0x3e, 0x3f, 0xb9, 0xa6, 0x29, 0x3f,
  0x10, 0x6d, 0xdc, 0xbe, 0xd8, 0xa4, 0x4a, 0x3f, 0x6f, 0x60, 0x3d, 0x3f,
  0xb3, 0x2c, 0xcb, 0x3e, 0xff, 0x40, 0xa2, 0x3e, 0x05, 0x76, 0xac, 0x3e,
  0x3a, 0x0c, 0x73, 0xbe, 0xdf, 0xf4, 0x56, 0x3d, 0x87, 0x82, 0x28, 0xbf,
  0xcb, 0xe8, 0x72, 0xbe, 0x99, 0xa3, 0xae, 0xbe, 0x0a, 0xdc, 0x1b, 0xbb,
  0xe9, 0xf7, 0x3e, 0x3e, 0xba, 0xa3, 0x80, 0xbf, 0x56, 0x15, 0x72, 0xbf,
  0x88, 0xd1, 0x37, 0xbf, 0x62, 0x73, 0x4d, 0xbf, 0xd5, 0xd8, 0xb4, 0xbe,
  0x96, 0x45, 0x4e, 0xbe, 0xf6, 0xd5, 0x52, 0xbd, 0xb9, 0xb8, 0x29, 0xbf,
  0x43, 0xfa, 0x1f, 0x3f, 0x1e, 0xbf, 0x09, 0xbf, 0x1c, 0x0e, 0xe1, 0x3d,
  0xd6, 0xd8, 0x08, 0x3f, 0xd0, 0xa4, 0xb6, 0xbf, 0xfd, 0xb8, 0xd2, 0xbe,
  0x0e, 0xee, 0x91, 0x3e, 0xa0, 0x0c, 0x75, 0xbf, 0xfb, 0x7a, 0x2f, 0x3e,
  0x30, 0xb3, 0xc0, 0x3e, 0x68, 0x66, 0xd3, 0xbe, 0x8a, 0x2c, 0x79, 0xbf,
  0x68, 0xfa, 0x3e, 0x3e, 0xb0, 0x92, 0xbe, 0xbf, 0x79, 0x38, 0xe3, 0xbc,
  0x0c, 0x19, 0x54, 0x3f, 0x08, 0x06, 0xdb, 0xbe, 0xdf, 0x33, 0x03, 0xbf,
  0xd6, 0x7b, 0x37, 0xbf, 0xcb, 0x41, 0xc2, 0xbf, 0xc2, 0xd2, 0x80, 0xbe,
  0x2a, 0x35, 0xc5, 0x3e, 0xcc, 0x9e, 0xca, 0xbf, 0x7d, 0x81, 0x9b, 0xbf,
  0xd9, 0x7e, 0xbf, 0xbf, 0x3a, 0x5d, 0xc0, 0xbf, 0x14, 0x92, 0x47, 0x3f,
  0xd7, 0x09, 0x4d, 0x3e, 0x1f, 0x35, 0x79, 0x3e, 0xd3, 0x08, 0x95, 0xbf,
  0x1e, 0xc4, 0x32, 0x3f, 0x63, 0x9b, 0x8a, 0xbf, 0x74, 0xbf, 0xa9, 0xbe,
  0x48, 0x16, 0x89, 0xbe, 0xd7, 0x4c, 0x75, 0xbf, 0xd4, 0x17, 0x1d, 0xbf,
  0x50, 0x6a, 0x92, 0xbf, 0xa7, 0x17, 0xef, 0xbc, 0xb2, 0x0b, 0xe4, 0xbe,
  0x95, 0xd8, 0x9e, 0x3d, 0x06, 0xa2, 0x9d, 0xbf, 0x53, 0x70, 0x06, 0xbf,
  0x4a, 0x48, 0x80, 0xbf, 0x8e, 0x46, 0x82, 0x3e, 0xc9, 0xe2, 0x47, 0x3e,
  0x50, 0x7b, 0x8f, 0x3e, 0xc1, 0xd9, 0x4d, 0x3f, 0xdf, 0x6e, 0xb3, 0xbf,
  0xcc, 0x00, 0x55, 0x3f, 0x85, 0xc2, 0x0a, 0xbe, 0x3a, 0x99, 0xbc, 0xbf,
  0xa1, 0x43, 0x51, 0x3d, 0xf8, 0x79, 0xa3, 0xbf, 0x4b, 0x6d, 0x85, 0x3e,
  0x81, 0x5a, 0x80, 0x3c, 0xba, 0xa9, 0xe2, 0x3d, 0x99, 0x5e, 0xa8, 0x3e,
  0x44, 0x69, 0x4f, 0x3e, 0x49, 0x1e, 0x40, 0x3f, 0x8f, 0xbc, 0x6a, 0xbf,
  0x70, 0x02, 0x46, 0x3f, 0x6a, 0xf8, 0xff, 0xff, 0x04, 0x00, 0x00, 0x00,
  0xe0, 0x00, 0x00, 0x00, 0x5d, 0x65, 0xb9, 0xbe, 0x89, 0xd2, 0x80, 0xbe,
  0x40, 0xb5, 0x9e, 0x3e, 0x8c, 0xcf, 0xa8, 0x3e, 0x33, 0xb7, 0x33, 0xbf,
  0xd4, 0x38, 0x46, 0x3f, 0xef, 0x5a, 0x8c, 0x3e, 0xf7, 0xff, 0xc8, 0x3d,
  0x83, 0xf1, 0x2b, 0x3e, 0x45, 0x50, 0x53, 0xbd, 0xd1, 0x25, 0x1a, 0xbe,
  0xfd, 0x49, 0x98, 0xbe, 0x0e, 0x46, 0x54, 0xbf, 0x53, 0x9f, 0x6d, 0x3e,
  0x87, 0x95, 0xcb, 0xbb, 0xe9, 0x93, 0x08, 0x3e, 0xf8, 0x8c, 0x7d, 0xbe,
  0x97, 0x08, 0x13, 0xbe, 0x78, 0xf1, 0x05, 0x3e, 0x56, 0x58, 0x9c, 0xbe,
  0x87, 0xc0, 0x9b, 0xbe, 0x26, 0xcf, 0x00, 0xbe, 0x23, 0x78, 0x44, 0x3e,
  0x95, 0xf2, 0xcc, 0x3e, 0x53, 0x75, 0xea, 0xbe, 0x01, 0x11, 0xe1, 0xbe,
  0xe1, 0x8c, 0xfe, 0x3e, 0x81, 0x30, 0x26, 0x3e, 0xb0, 0x92, 0xe5, 0xbd,
  0xec, 0xb7, 0xf6, 0x3e, 0x0f, 0x59, 0x89, 0x3e, 0x03, 0x9a, 0xad, 0xbe,
  0x2c, 0xb8, 0x3c, 0xbe, 0xbb, 0xfd, 0x14, 0xbf, 0x50, 0x21, 0xad, 0x3b,
  0xc1, 0xd4, 0xc1, 0x3e, 0x55, 0x6d, 0x67, 0xbc, 0x72, 0xf3, 0x4c, 0x3e,
  0xb4, 0xeb, 0x77, 0xbe, 0x3f, 0xe4, 0xa5, 0xbe, 0xd8, 0xfa, 0x5d, 0xbd,
  0x38, 0x66, 0x28, 0x3d, 0x78, 0x69, 0xc2, 0xbd, 0x84, 0x6e, 0xdd, 0xbd,
  0xe3, 0x85, 0x32, 0xbe, 0x94, 0x4c, 0x5a, 0xbe, 0xe9, 0x23, 0x41, 0xbe,
  0xc1, 0x3b, 0x92, 0xbe, 0x55, 0x16, 0x5f, 0xbe, 0x66, 0x75, 0x02, 0x3e,
  0x04, 0x55, 0x09, 0x3f, 0x4b, 0x92, 0xae, 0x3b, 0x44, 0x76, 0x97, 0xbe,
  0xe0, 0xed, 0x29, 0xbd, 0x48, 0xce, 0x09, 0xbd, 0xcc, 0xb0, 0x76, 0xbe,
  0x56, 0xf9, 0xff, 0xff, 0x04, 0x00, 0x00, 0x00, 0x40, 0x05, 0x00, 0x00,
  0x6d, 0x8d, 0xe6, 0xbe, 0xbf, 0x71, 0x3a, 0x3f, 0x05, 0xb9, 0xe2, 0x3d,
  0x72, 0x9d, 0xce, 0x3e, 0xc0, 0xab, 0x73, 0xbd, 0x34, 0xea, 0x3a, 0xbe,
  0x3e, 0x5a, 0x1f, 0xbe, 0xd9, 0xf9, 0x27, 0x3f, 0x46, 0x14, 0x12, 0xbf,
  0xb9, 0x9a, 0x19, 0xbc, 0x14, 0x48, 0x21, 0xbe, 0x5c, 0xcd, 0x5f, 0x3e,
  0xdd, 0xf9, 0x99, 0x3e, 0xb4, 0x81, 0x3b, 0xbe, 0xec, 0xb0, 0x6f, 0xbf,
  0xcf, 0xbf, 0x2b, 0xbf, 0x57, 0xf0, 0x7d, 0xbe, 0x95, 0xc2, 0xd3, 0xbd,
  0xdf, 0x8e, 0x66, 0xbe, 0x9f, 0x9c, 0x4f, 0xbf, 0xc9, 0x9b, 0x2f, 0xbf,
  0xd8, 0xe8, 0x4e, 0x3e, 0x1b, 0x5a, 0xd1, 0xbe, 0x58, 0x9c, 0x8d, 0x3e,
  0x21, 0xe1, 0x5a, 0xbe, 0x0c, 0x1f, 0x57, 0x3e, 0x8f, 0xa7, 0xc0, 0xbe,
  0xa0, 0xf7, 0x26, 0x3e, 0x9d, 0x63, 0x21, 0x3f, 0xaf, 0x0a, 0x10, 0xbf,
  0xbe, 0x48, 0x8c, 0xbd, 0x46, 0x5c, 0x2e, 0xbf, 0x8a, 0xc7, 0x33, 0xbe,
  0xa5, 0xaf, 0xc9, 0x3e, 0xdd, 0x6d, 0x5d, 0x3e, 0x57, 0x09, 0x46, 0xbf,
  0x1c, 0x63, 0x2c, 0xbf, 0xaa, 0x72, 0x77, 0xbe, 0x2b, 0x03, 0x21, 0xbe,
  0x52, 0x27, 0x2b, 0xbe, 0x4c, 0xa2, 0x4d, 0x3e, 0x7c, 0xc2, 0x93, 0x3e,
  0xed, 0xe4, 0x39, 0x3f, 0xd3, 0x32, 0x2b, 0x3f, 0x7f, 0x1a, 0x8d, 0x3e,
  0xd8, 0x43, 0x85, 0xbf, 0xf7, 0x54, 0x28, 0xbe, 0x0b, 0x92, 0x3c, 0x3f,
  0x08, 0x01, 0xde, 0x3e, 0xb9, 0x72, 0xdc, 0x3e, 0x36, 0x38, 0x5a, 0x3f,
  0x5a, 0xde, 0xaf, 0xbe, 0x38, 0xdd, 0x40, 0x3e, 0xea, 0xb9, 0x6f, 0xbe,
  0x1c, 0x07, 0x01, 0x3f, 0xf4, 0x37, 0x9a, 0x3e, 0x83, 0x3e, 0x39, 0x3e,
  0xa9, 0x4d, 0x9b, 0x3e, 0x3f, 0x65, 0x11, 0x3e, 0x62, 0x60, 0x38, 0xbf,
  0xc4, 0x82, 0x82, 0xbe, 0xa3, 0x4b, 0x2d, 0x3f, 0x7e, 0x99, 0xa8, 0xbf,
  0x00, 0xcc, 0xa6, 0xbe, 0x11, 0x87, 0x9d, 0xbf, 0x40, 0x25, 0x9e, 0xbd,
  0xaa, 0x33, 0xa7, 0x3e, 0xf0, 0xea, 0x80, 0x3c, 0x6c, 0x88, 0xab, 0x3b,
  0x20, 0x4b, 0x61, 0x3d, 0xd5, 0x9d, 0x3c, 0x3f, 0xc7, 0x71, 0x4d, 0x3e,
  0x9b, 0x7f, 0x0f, 0xbe, 0x6a, 0x92, 0x74, 0xbf, 0x84, 0x73, 0x0d, 0xbe,
  0xd3, 0x43, 0x50, 0x3f, 0xc4, 0x55, 0xf7, 0xbe, 0x2c, 0x02, 0x09, 0x3e,
  0x9a, 0xcc, 0x30, 0xbf, 0x1e, 0xc3, 0x69, 0x3d, 0x18, 0x48, 0x54, 0x3e,
  0x34, 0x0d, 0x46, 0x3e, 0x7f, 0x35, 0x0f, 0x3f, 0x1e, 0xc8, 0x14, 0x3e,
  0xf0, 0x56, 0x1d, 0x3f, 0xbe, 0x03, 0xa5, 0xbd, 0x4e, 0x06, 0xa0, 0x3e,
  0xec, 0x37, 0x82, 0x3f, 0x2d, 0x95, 0x48, 0xbe, 0x92, 0xb7, 0x0e, 0x3e,
  0x42, 0xaf, 0x4d, 0x3f, 0xbf, 0x44, 0x3e, 0xbc, 0xe5, 0xc1, 0x8c, 0x3f,
  0xd6, 0x46, 0x7e, 0xbe, 0x04, 0x14, 0xa1, 0x3e, 0xe0, 0xc2, 0xc5, 0xbc,
  0xe1, 0x17, 0xe8, 0x3d, 0xe8, 0x05, 0x31, 0x3e, 0xa0, 0xa8, 0xae, 0x3e,
  0x71, 0x71, 0x87, 0x3e, 0x2f, 0xa4, 0x86, 0xbe, 0x47, 0x38, 0x7c, 0x3f,
  0x00, 0x5d, 0x17, 0xbd, 0xd7, 0xa1, 0xa9, 0x3d, 0x51, 0x64, 0x99, 0x3f,
  0xbd, 0x94, 0xc8, 0xbe, 0x77, 0x2c, 0x51, 0x3f, 0xa8, 0xe6, 0x92, 0x3d,
  0x5c, 0x18, 0x35, 0x3e, 0xb0, 0x06, 0x57, 0xbe, 0x68, 0x27, 0x79, 0xbe,
  0x3a, 0xab, 0xda, 0xbd, 0xa6, 0x9e, 0x37, 0x3e, 0x0a, 0x49, 0xc5, 0x3e,
  0x6b, 0xbe, 0x32, 0x3c, 0x6e, 0xaf, 0x08, 0x3f, 0xd0, 0x78, 0x5c, 0x3e,
  0xa8, 0x0b, 0x91, 0xbd, 0x9d, 0x78, 0xa7, 0x3f, 0xa7, 0xe5, 0x00, 0x3f,
  0xdc, 0xd8, 0xc3, 0x3f, 0x75, 0xb5, 0x50, 0x3a, 0xea, 0x7e, 0x00, 0x3e,
  0x88, 0xd4, 0xab, 0xbd, 0x1d, 0x3f, 0x95, 0x3e, 0x9e, 0x4b, 0x1b, 0x3e,
  0x03, 0xd6, 0xc8, 0xbe, 0x1c, 0xf2, 0x40, 0x3d, 0xaf, 0x96, 0xe6, 0x3b,
  0xbd, 0xbc, 0x8a, 0x3f, 0x34, 0xf1, 0x5c, 0x3e, 0xf2, 0x29, 0xe9, 0xbe,
  0x4a, 0x5c, 0x68, 0x3f, 0x39, 0xfc, 0xbe, 0x3e, 0x6b, 0x13, 0xe3, 0x3e,
  0x05, 0x95, 0x49, 0xbc, 0xe2, 0xd1, 0xa1, 0x3e, 0x7a, 0xd9, 0x55, 0xbe,
  0x58, 0xe7, 0x4e, 0xbe, 0x04, 0xcd, 0x8b, 0x3e, 0x5b, 0xb8, 0x48, 0x3f,
  0x58, 0x84, 0x8c, 0xbe, 0x01, 0x29, 0x52, 0xbe, 0x6c, 0x58, 0x13, 0xbf,
  0x9b, 0xc3, 0x08, 0xbe, 0xbe, 0xef, 0x26, 0x3f, 0x88, 0xd3, 0x88, 0x3f,
  0x7b, 0x91, 0x6b, 0xbd, 0x13, 0x9d, 0x29, 0x3f, 0x51, 0xb0, 0x7a, 0x3e,
  0xf0, 0x9b, 0xc3, 0x3c, 0xaa, 0xfb, 0x0a, 0x3e, 0x78, 0x93, 0x2b, 0x3f,
  0xca, 0x9b, 0x83, 0x3e, 0x1e, 0x5b, 0x50, 0xbf, 0x85, 0xde, 0x26, 0x3e,
  0x2d, 0x92, 0xa8, 0xbe, 0x7c, 0xa1, 0xc1, 0xbe, 0x56, 0xaa, 0x87, 0xbe,
  0xbd, 0xfc, 0xb8, 0xbe, 0xfc, 0x00, 0x2a, 0x3f, 0xaa, 0x87, 0xbe, 0x3e,
  0x26, 0x5d, 0x69, 0x3f, 0x76, 0x62, 0x97, 0x3e, 0xc0, 0x97, 0x7a, 0x3e,
  0xce, 0x3c, 0x28, 0xbe, 0x24, 0xd0, 0xe1, 0x3c, 0x28, 0xd4, 0x6c, 0x3d,
  0xbf, 0x29, 0xf8, 0xbe, 0xaf, 0x26, 0x26, 0x3f, 0x4a, 0x86, 0xa1, 0xbe,
  0x58, 0x98, 0x51, 0x3f, 0xfc, 0x78, 0x33, 0xbe, 0xe4, 0x55, 0x89, 0xbe,
  0x17, 0xe5, 0xb1, 0xbd, 0x26, 0xec, 0x61, 0x3e, 0x4e, 0x25, 0x24, 0x3f,
  0x6e, 0xfa, 0xb6, 0x3d, 0xea, 0x86, 0x89, 0x3e, 0x8c, 0xe4, 0xfc, 0x3d,
  0xe1, 0xe2, 0x2f, 0x3e, 0x38, 0x24, 0x1e, 0xbe, 0xb8, 0xb1, 0x1c, 0xbf,
  0x46, 0xa5, 0x38, 0xbf, 0x1a, 0x9a, 0x8d, 0x3e, 0x54, 0xd8, 0x3b, 0x3f,
  0x40, 0xee, 0x2c, 0x3e, 0xee, 0xff, 0xb0, 0xbe, 0xbb, 0x16, 0x4e, 0x3e,
  0xff, 0x29, 0x49, 0xbf, 0xd7, 0x24, 0x8d, 0xbe, 0x2a, 0xd7, 0x15, 0x3e,
  0xc0, 0x73, 0x7e, 0xbd, 0xc6, 0xee, 0xac, 0x3e, 0xbc, 0x33, 0x53, 0xbe,
  0x9e, 0x0b, 0x81, 0xbe, 0x3f, 0x70, 0xbb, 0xbc, 0x62, 0x8d, 0x14, 0xbd,
  0x44, 0x76, 0x93, 0x3e, 0x4e, 0x67, 0x60, 0x3e, 0x5a, 0x2f, 0x8e, 0x3e,
  0x7f, 0xf2, 0xa7, 0xbd, 0xbf, 0xd0, 0xb2, 0x3d, 0xea, 0xd1, 0xa2, 0xbe,
  0x04, 0x82, 0x2a, 0x3e, 0x92, 0x15, 0xa8, 0x3e, 0x61, 0x6a, 0x55, 0xbe,
  0xd0, 0x75, 0xe0, 0xbd, 0x19, 0xf6, 0x72, 0xbe, 0x38, 0xf1, 0xbc, 0x3d,
  0xfb, 0x96, 0xc4, 0x3d, 0x9f, 0x90, 0x9f, 0xbe, 0x1c, 0xbc, 0x7f, 0x3e,
  0x20, 0xa4, 0xf2, 0x3c, 0x14, 0xcd, 0xb0, 0xbd, 0x1d, 0x81, 0x44, 0x3e,
  0x89, 0x03, 0x38, 0xbe, 0x94, 0x70, 0x86, 0xbd, 0xd8, 0xeb, 0xac, 0x3d,
  0xb4, 0x43, 0x22, 0x3e, 0x0a, 0x3d, 0x28, 0xbe, 0x7d, 0x93, 0x03, 0xbe,
  0x2e, 0xa7, 0xf4, 0x3d, 0xf0, 0x51, 0x82, 0xbd, 0x94, 0x51, 0x85, 0xbd,
  0xee, 0x59, 0x54, 0xbe, 0xbc, 0xc9, 0xae, 0xbd, 0x3c, 0x9d, 0x7e, 0x3e,
  0xd4, 0xe6, 0xef, 0x3d, 0xd9, 0x07, 0xa1, 0xbe, 0xf0, 0xd0, 0x16, 0x3e,
  0xa0, 0xde, 0x93, 0xbe, 0xd8, 0x9c, 0x14, 0xbd, 0x5c, 0xd8, 0xe1, 0x3d,
  0xc0, 0x7b, 0x96, 0xbe, 0x30, 0x45, 0x8c, 0xbe, 0xd8, 0xea, 0x81, 0xbd,
  0x86, 0x38, 0x16, 0x3e, 0x90, 0xbf, 0x47, 0x3d, 0x90, 0x5e, 0xf5, 0x3c,
  0x3c, 0xfb, 0x80, 0x3e, 0x3c, 0x19, 0x9f, 0xbd, 0x4a, 0x2c, 0xde, 0xbd,
  0x62, 0x86, 0xa9, 0xbe, 0x2a, 0x13, 0x88, 0xbe, 0x2c, 0x5b, 0x8b, 0xbd,
  0xf8, 0x3c, 0x4e, 0xbe, 0x7f, 0xbf, 0xa3, 0xbe, 0x50, 0xff, 0x51, 0xbe,
  0xce, 0xad, 0x88, 0xbe, 0x29, 0xca, 0xa9, 0xbe, 0x9c, 0x7f, 0xf0, 0x3d,
  0x6e, 0x01, 0xb6, 0xbe, 0x06, 0x34, 0xfc, 0x3e, 0x3c, 0xc4, 0xa3, 0x3e,
  0x91, 0x15, 0x10, 0xbd, 0xd5, 0xd9, 0x52, 0xbe, 0xac, 0x72, 0x56, 0xbe,
  0xbe, 0x74, 0x7a, 0xbf, 0x29, 0x49, 0xdb, 0x3e, 0x68, 0xaa, 0x28, 0xbe,
  0x6e, 0xd9, 0x2e, 0x3e, 0xe8, 0x4e, 0x56, 0x3d, 0x8d, 0x8b, 0x89, 0xbe,
  0x59, 0x98, 0x98, 0x3d, 0x4c, 0x52, 0xa0, 0xbe, 0x23, 0xdf, 0xab, 0xbe,
  0x0f, 0x68, 0x84, 0xbf, 0x99, 0x4f, 0x3c, 0xbe, 0x4e, 0xce, 0x0f, 0x3e,
  0xcc, 0xea, 0x55, 0x3e, 0xf3, 0xc2, 0x83, 0xbe, 0x7f, 0xa4, 0x56, 0xbf,
  0xc8, 0x6e, 0x6a, 0xbe, 0x18, 0x2f, 0xba, 0xbe, 0x2c, 0xeb, 0x5e, 0x3e,
  0xb2, 0xac, 0x85, 0x3e, 0x84, 0x87, 0x99, 0x3e, 0xb8, 0x99, 0x86, 0x3d,
  0x40, 0x1e, 0xbc, 0x3b, 0x5a, 0xb2, 0xe4, 0x3e, 0x9e, 0xae, 0x5d, 0x3e,
  0x10, 0x15, 0x0d, 0xbd, 0x9c, 0xa4, 0x96, 0x3f, 0xae, 0xc2, 0x5e, 0xbe,
  0x1a, 0xbb, 0xbd, 0xbb, 0x6b, 0x9f, 0x30, 0x3f, 0x89, 0x46, 0x2f, 0xbb,
  0xf6, 0xaf, 0xef, 0x3e, 0x23, 0xea, 0x20, 0xbe, 0xa4, 0x32, 0x63, 0x3e,
  0x8a, 0xe4, 0x29, 0xbe, 0x80, 0xaa, 0x54, 0xbe, 0x78, 0x0e, 0x16, 0x3e,
  0xa6, 0x1b, 0x2d, 0x3e, 0xc6, 0xf3, 0x71, 0x3d, 0x9a, 0x1b, 0x5e, 0xbe,
  0x66, 0xcf, 0x61, 0x3f, 0xe0, 0xb6, 0xa3, 0x3e, 0x60, 0xb0, 0x96, 0xbe,
  0x64, 0xc6, 0xd6, 0xbd, 0xb0, 0xee, 0x88, 0x3d, 0xc0, 0xd9, 0x06, 0xbd,
  0xd8, 0xcc, 0x84, 0xbe, 0xf8, 0xd0, 0x32, 0x3d, 0x30, 0x6a, 0xc4, 0x3d,
  0x42, 0x21, 0x8e, 0xbe, 0x94, 0x9f, 0x97, 0x3e, 0x2c, 0xe9, 0x8a, 0xbe,
  0xba, 0x91, 0xf2, 0x3e, 0x78, 0x14, 0x27, 0x3e, 0x72, 0x90, 0x62, 0xbf,
  0x41, 0xe1, 0x92, 0xbe, 0x99, 0xda, 0x9d, 0x3d, 0x57, 0x57, 0xb7, 0xbf,
  0x0e, 0x66, 0xc0, 0x3e, 0xb1, 0x39, 0x63, 0xbe, 0xa2, 0x06, 0x2f, 0x3d,
  0xec, 0xdb, 0x80, 0xbe, 0x26, 0xab, 0x26, 0xbe, 0xb9, 0xa0, 0xcc, 0x3e,
  0xa0, 0x0b, 0xc2, 0xbc, 0x4f, 0x8c, 0xd6, 0xbd, 0x65, 0x18, 0x77, 0xbf,
  0xef, 0x39, 0x73, 0xbe, 0x35, 0x4c, 0xf5, 0x3d, 0x50, 0x83, 0xb8, 0x3c,
  0xf7, 0xeb, 0xcd, 0xbe, 0x69, 0xd5, 0x70, 0xbf, 0x0d, 0x57, 0xfb, 0xbe,
  0xa1, 0x97, 0xf1, 0xbe, 0xf3, 0x00, 0x84, 0xbe, 0x28, 0xe9, 0x38, 0xbe,
  0x40, 0xc1, 0x47, 0x3e, 0x23, 0xfa, 0x9a, 0xbb, 0x60, 0x9a, 0x2a, 0xbc,
  0xa2, 0xfe, 0xff, 0xff, 0x04, 0x00, 0x00, 0x00, 0x0c, 0x00, 0x00, 0x00,
  0xff, 0xff, 0xff, 0xff, 0x03, 0x00, 0x00, 0x00, 0x0e, 0x00, 0x00, 0x00,
  0xba, 0xfe, 0xff, 0xff, 0x04, 0x00, 0x00, 0x00, 0x0c, 0x00, 0x00, 0x00,
  0xff, 0xff, 0xff, 0xff, 0x02, 0x00, 0x00, 0x00, 0x0c, 0x00, 0x00, 0x00,
  0xd2, 0xfe, 0xff, 0xff, 0x04, 0x00, 0x00, 0x00, 0x38, 0x00, 0x00, 0x00,
  0x0a, 0xf2, 0x02, 0x3e, 0xaa, 0xf9, 0x98, 0x3c, 0x6b, 0x6b, 0xb6, 0xbc,
  0xe9, 0x9e, 0xe7, 0x3d, 0x00, 0x00, 0x00, 0x00, 0x46, 0xfe, 0xbf, 0x3d,
  0x5c, 0x6e, 0x46, 0x3e, 0xb6, 0x83, 0xd4, 0xbd, 0xc6, 0xd1, 0x6e, 0x3e,
  0x01, 0x51, 0x16, 0xbc, 0x00, 0x00, 0x00, 0x00, 0x00, 0x00, 0x00, 0x00,
  0xf0, 0xe1, 0x6a, 0x3d, 0x00, 0x00, 0x00, 0x00, 0x16, 0xff, 0xff, 0xff,
  0x04, 0x00, 0x00, 0x00, 0x30, 0x00, 0x00, 0x00, 0xdd, 0xde, 0x86, 0x3d,
  0x99, 0x31, 0x98, 0x3d, 0x1b, 0x48, 0xbc, 0x3e, 0x24, 0xcd, 0xcb, 0xbd,
  0x60, 0x42, 0x74, 0xbe, 0x0e, 0x27, 0x29, 0xbe, 0x11, 0x83, 0x38, 0x3d,
  0xbf, 0x0c, 0x79, 0xbc, 0x00, 0x00, 0x00, 0x00, 0x5b, 0x98, 0x18, 0x3e,
  0xdc, 0x47, 0x0d, 0xbd, 0xb5, 0x1e, 0xd0, 0x3d, 0x68, 0xf1, 0xff, 0xff,
  0x6c, 0xf1, 0xff, 0xff, 0x0f, 0x00, 0x00, 0x00, 0x4d, 0x4c, 0x49, 0x52,
  0x20, 0x43, 0x6f, 0x6e, 0x76, 0x65, 0x72, 0x74, 0x65, 0x64, 0x2e, 0x00,
  0x01, 0x00, 0x00, 0x00, 0x14, 0x00, 0x00, 0x00, 0x00, 0x00, 0x0e, 0x00,
  0x18, 0x00, 0x14, 0x00, 0x10, 0x00, 0x0c, 0x00, 0x08, 0x00, 0x04, 0x00,
  0x0e, 0x00, 0x00, 0x00, 0x14, 0x00, 0x00, 0x00, 0x1c, 0x00, 0x00, 0x00,
  0x48, 0x03, 0x00, 0x00, 0x4c, 0x03, 0x00, 0x00, 0x50, 0x03, 0x00, 0x00,
  0x04, 0x00, 0x00, 0x00, 0x6d, 0x61, 0x69, 0x6e, 0x00, 0x00, 0x00, 0x00,
  0x0e, 0x00, 0x00, 0x00, 0x00, 0x03, 0x00, 0x00, 0x9c, 0x02, 0x00, 0x00,
  0x64, 0x02, 0x00, 0x00, 0x28, 0x02, 0x00, 0x00, 0xd8, 0x01, 0x00, 0x00,
  0xb0, 0x01, 0x00, 0x00, 0x80, 0x01, 0x00, 0x00, 0x38, 0x01, 0x00, 0x00,
  0x10, 0x01, 0x00, 0x00, 0xe0, 0x00, 0x00, 0x00, 0xa0, 0x00, 0x00, 0x00,
  0x78, 0x00, 0x00, 0x00, 0x40, 0x00, 0x00, 0x00, 0x04, 0x00, 0x00, 0x00,
  0xa6, 0xfd, 0xff, 0xff, 0x1c, 0x00, 0x00, 0x00, 0x00, 0x00, 0x00, 0x09,
  0x1c, 0x00, 0x00, 0x00, 0x20, 0x00, 0x00, 0x00, 0x05, 0x00, 0x00, 0x00,
  0x00, 0x00, 0x06, 0x00, 0x08, 0x00, 0x04, 0x00, 0x06, 0x00, 0x00, 0x00,
  0x00, 0x00, 0x80, 0x3f, 0x01, 0x00, 0x00, 0x00, 0x19, 0x00, 0x00, 0x00,
  0x01, 0x00, 0x00, 0x00, 0x18, 0x00, 0x00, 0x00, 0xde, 0xfd, 0xff, 0xff,
  0x14, 0x00, 0x00, 0x00, 0x00, 0x00, 0x00, 0x08, 0x10, 0x00, 0x00, 0x00,
  0x14, 0x00, 0x00, 0x00, 0x04, 0x00, 0x00, 0x00, 0x4c, 0xf2, 0xff, 0xff,
  0x01, 0x00, 0x00, 0x00, 0x18, 0x00, 0x00, 0x00, 0x03, 0x00, 0x00, 0x00,
  0x17, 0x00, 0x00, 0x00, 0x07, 0x00, 0x00, 0x00, 0x08, 0x00, 0x00, 0x00,
  0x42, 0xfe, 0xff, 0xff, 0x0c, 0x00, 0x00, 0x00, 0x10, 0x00, 0x00, 0x00,
  0x02, 0x00, 0x00, 0x00, 0x01, 0x00, 0x00, 0x00, 0x17, 0x00, 0x00, 0x00,
  0x02, 0x00, 0x00, 0x00, 0x16, 0x00, 0x00, 0x00, 0x0a, 0x00, 0x00, 0x00,
  0x36, 0xfe, 0xff, 0xff, 0x14, 0x00, 0x00, 0x00, 0x00, 0x00, 0x00, 0x05,
  0x20, 0x00, 0x00, 0x00, 0x24, 0x00, 0x00, 0x00, 0x03, 0x00, 0x00, 0x00,
  0xde, 0xfe, 0xff, 0xff, 0x01, 0x00, 0x00, 0x00, 0x02, 0x00, 0x00, 0x00,
  0x01, 0x00, 0x00, 0x00, 0x01, 0x00, 0x00, 0x00, 0x01, 0x00, 0x00, 0x00,
  0x16, 0x00, 0x00, 0x00, 0x01, 0x00, 0x00, 0x00, 0x15, 0x00, 0x00, 0x00,
  0x12, 0xfe, 0xff, 0xff, 0x10, 0x00, 0x00, 0x00, 0x00, 0x00, 0x00, 0x34,
  0x0c, 0x00, 0x00, 0x00, 0x10, 0x00, 0x00, 0x00, 0xdc, 0xf2, 0xff, 0xff,
  0x01, 0x00, 0x00, 0x00, 0x15, 0x00, 0x00, 0x00, 0x02, 0x00, 0x00, 0x00,
  0x14, 0x00, 0x00, 0x00, 0x09, 0x00, 0x00, 0x00, 0xce, 0xfe, 0xff, 0xff,
  0x0c, 0x00, 0x00, 0x00, 0x10, 0x00, 0x00, 0x00, 0x02, 0x00, 0x00, 0x00,
  0x01, 0x00, 0x00, 0x00, 0x14, 0x00, 0x00, 0x00, 0x02, 0x00, 0x00, 0x00,
  0x13, 0x00, 0x00, 0x00, 0x03, 0x00, 0x00, 0x00, 0xc2, 0xfe, 0xff, 0xff,
  0x14, 0x00, 0x00, 0x00, 0x00, 0x00, 0x00, 0x01, 0x20, 0x00, 0x00, 0x00,
  0x24, 0x00, 0x00, 0x00, 0x01, 0x00, 0x00, 0x00, 0xb4, 0xfe, 0xff, 0xff,
  0x00, 0x00, 0x00, 0x01, 0x01, 0x00, 0x00, 0x00, 0x01, 0x00, 0x00, 0x00,
  0x00, 0x00, 0x00, 0x01, 0x01, 0x00, 0x00, 0x00, 0x13, 0x00, 0x00, 0x00,
  0x03, 0x00, 0x00, 0x00, 0x12, 0x00, 0x00, 0x00, 0x05, 0x00, 0x00, 0x00,
  0x01, 0x00, 0x00, 0x00, 0xa6, 0xfe, 0xff, 0xff, 0x10, 0x00, 0x00, 0x00,
  0x00, 0x00, 0x00, 0x34, 0x0c, 0x00, 0x00, 0x00, 0x10, 0x00, 0x00, 0x00,
  0x70, 0xf3, 0xff, 0xff, 0x01, 0x00, 0x00, 0x00, 0x12, 0x00, 0x00, 0x00,
  0x02, 0x00, 0x00, 0x00, 0x11, 0x00, 0x00, 0x00, 0x0b, 0x00, 0x00, 0x00,
  0x62, 0xff, 0xff, 0xff, 0x0c, 0x00, 0x00, 0x00, 0x10, 0x00, 0x00, 0x00,
  0x02, 0x00, 0x00, 0x00, 0x01, 0x00, 0x00, 0x00, 0x11, 0x00, 0x00, 0x00,
  0x02, 0x00, 0x00, 0x00, 0x10, 0x00, 0x00, 0x00, 0x04, 0x00, 0x00, 0x00,
  0x56, 0xff, 0xff, 0xff, 0x24, 0x00, 0x00, 0x00, 0x00, 0x00, 0x00, 0x05,
  0x30, 0x00, 0x00, 0x00, 0x34, 0x00, 0x00, 0x00, 0x03, 0x00, 0x00, 0x00,
  0x00, 0x00, 0x0e, 0x00, 0x14, 0x00, 0x00, 0x00, 0x10, 0x00, 0x0c, 0x00,
  0x08, 0x00, 0x04, 0x00, 0x0e, 0x00, 0x00, 0x00, 0x01, 0x00, 0x00, 0x00,
  0x02, 0x00, 0x00, 0x00, 0x01, 0x00, 0x00, 0x00, 0x01, 0x00, 0x00, 0x00,
  0x01, 0x00, 0x00, 0x00, 0x10, 0x00, 0x00, 0x00, 0x01, 0x00, 0x00, 0x00,
  0x0f, 0x00, 0x00, 0x00, 0x42, 0xff, 0xff, 0xff, 0x10, 0x00, 0x00, 0x00,
  0x00, 0x00, 0x00, 0x34, 0x0c, 0x00, 0x00, 0x00, 0x10, 0x00, 0x00, 0x00,
  0x0c, 0xf4, 0xff, 0xff, 0x01, 0x00, 0x00, 0x00, 0x0f, 0x00, 0x00, 0x00,
  0x02, 0x00, 0x00, 0x00, 0x0e, 0x00, 0x00, 0x00, 0x09, 0x00, 0x00, 0x00,
  0x00, 0x00, 0x0a, 0x00, 0x10, 0x00, 0x0c, 0x00, 0x08, 0x00, 0x04, 0x00,
  0x0a, 0x00, 0x00, 0x00, 0x0c, 0x00, 0x00, 0x00, 0x10, 0x00, 0x00, 0x00,
  0x02, 0x00, 0x00, 0x00, 0x01, 0x00, 0x00, 0x00, 0x0e, 0x00, 0x00, 0x00,
  0x02, 0x00, 0x00, 0x00, 0x0d, 0x00, 0x00, 0x00, 0x04, 0x00, 0x00, 0x00,
  0x00, 0x00, 0x0e, 0x00, 0x18, 0x00, 0x14, 0x00, 0x10, 0x00, 0x0c, 0x00,
  0x0b, 0x00, 0x04, 0x00, 0x0e, 0x00, 0x00, 0x00, 0x20, 0x00, 0x00, 0x00,
  0x00, 0x00, 0x00, 0x01, 0x2c, 0x00, 0x00, 0x00, 0x30, 0x00, 0x00, 0x00,
  0x01, 0x00, 0x00, 0x00, 0x0c, 0x00, 0x14, 0x00, 0x13, 0x00, 0x0c, 0x00,
  0x08, 0x00, 0x07, 0x00, 0x0c, 0x00, 0x00, 0x00, 0x00, 0x00, 0x00, 0x01,
  0x01, 0x00, 0x00, 0x00, 0x01, 0x00, 0x00, 0x00, 0x00, 0x00, 0x00, 0x01,
  0x01, 0x00, 0x00, 0x00, 0x0d, 0x00, 0x00, 0x00, 0x03, 0x00, 0x00, 0x00,
  0x0c, 0x00, 0x00, 0x00, 0x06, 0x00, 0x00, 0x00, 0x02, 0x00, 0x00, 0x00,
  0x00, 0x00, 0x0e, 0x00, 0x14, 0x00, 0x00, 0x00, 0x10, 0x00, 0x0c, 0x00,
  0x0b, 0x00, 0x04, 0x00, 0x0e, 0x00, 0x00, 0x00, 0x10, 0x00, 0x00, 0x00,
  0x00, 0x00, 0x00, 0x34, 0x0c, 0x00, 0x00, 0x00, 0x10, 0x00, 0x00, 0x00,
  0xd8, 0xf4, 0xff, 0xff, 0x01, 0x00, 0x00, 0x00, 0x0c, 0x00, 0x00, 0x00,
  0x02, 0x00, 0x00, 0x00, 0x00, 0x00, 0x00, 0x00, 0x0b, 0x00, 0x00, 0x00,
  0x01, 0x00, 0x00, 0x00, 0x19, 0x00, 0x00, 0x00, 0x01, 0x00, 0x00, 0x00,
  0x00, 0x00, 0x00, 0x00, 0x1a, 0x00, 0x00, 0x00, 0xd0, 0x0a, 0x00, 0x00,
  0x7c, 0x0a, 0x00, 0x00, 0x28, 0x0a, 0x00, 0x00, 0xe8, 0x09, 0x00, 0x00,
  0x90, 0x09, 0x00, 0x00, 0x48, 0x09, 0x00, 0x00, 0x00, 0x09, 0x00, 0x00,
  0xc0, 0x08, 0x00, 0x00, 0x84, 0x08, 0x00, 0x00, 0x48, 0x08, 0x00, 0x00,
  0x08, 0x08, 0x00, 0x00, 0xc8, 0x07, 0x00, 0x00, 0x48, 0x07, 0x00, 0x00,
  0x70, 0x06, 0x00, 0x00, 0xc4, 0x05, 0x00, 0x00, 0x40, 0x05, 0x00, 0x00,
  0xc8, 0x04, 0x00, 0x00, 0x50, 0x04, 0x00, 0x00, 0xd0, 0x03, 0x00, 0x00,
  0xf0, 0x02, 0x00, 0x00, 0x3c, 0x02, 0x00, 0x00, 0xb8, 0x01, 0x00, 0x00,
  0x3c, 0x01, 0x00, 0x00, 0xdc, 0x00, 0x00, 0x00, 0x60, 0x00, 0x00, 0x00,
  0x04, 0x00, 0x00, 0x00, 0xae, 0xf5, 0xff, 0xff, 0x00, 0x00, 0x00, 0x01,
  0x14, 0x00, 0x00, 0x00, 0x1c, 0x00, 0x00, 0x00, 0x1c, 0x00, 0x00, 0x00,
  0x1a, 0x00, 0x00, 0x00, 0x34, 0x00, 0x00, 0x00, 0x02, 0x00, 0x00, 0x00,
  0xff, 0xff, 0xff, 0xff, 0x05, 0x00, 0x00, 0x00, 0x94, 0xf5, 0xff, 0xff,
  0x1b, 0x00, 0x00, 0x00, 0x53, 0x74, 0x61, 0x74, 0x65, 0x66, 0x75, 0x6c,
  0x50, 0x61, 0x72, 0x74, 0x69, 0x74, 0x69, 0x6f, 0x6e, 0x65, 0x64, 0x43,
  0x61, 0x6c, 0x6c, 0x5f, 0x31, 0x3a, 0x30, 0x00, 0x02, 0x00, 0x00, 0x00,
  0x01, 0x00, 0x00, 0x00, 0x05, 0x00, 0x00, 0x00, 0x06, 0xf6, 0xff, 0xff,
  0x00, 0x00, 0x00, 0x01, 0x14, 0x00, 0x00, 0x00, 0x1c, 0x00, 0x00, 0x00,
  0x1c, 0x00, 0x00, 0x00, 0x19, 0x00, 0x00, 0x00, 0x54, 0x00, 0x00, 0x00,
  0x02, 0x00, 0x00, 0x00, 0xff, 0xff, 0xff, 0xff, 0x05, 0x00, 0x00, 0x00,
  0xec, 0xf5, 0xff, 0xff, 0x38, 0x00, 0x00, 0x00, 0x73, 0x65, 0x71, 0x75,
  0x65, 0x6e, 0x74, 0x69, 0x61, 0x6c, 0x5f, 0x31, 0x2f, 0x64, 0x65, 0x6e,
  0x73, 0x65, 0x5f, 0x31, 0x2f, 0x4d, 0x61, 0x74, 0x4d, 0x75, 0x6c, 0x3b,
  0x73, 0x65, 0x71, 0x75, 0x65, 0x6e, 0x74, 0x69, 0x61, 0x6c, 0x5f, 0x31,
  0x2f, 0x64, 0x65, 0x6e, 0x73, 0x65, 0x5f, 0x31, 0x2f, 0x42, 0x69, 0x61,
  0x73, 0x41, 0x64, 0x64, 0x00, 0x00, 0x00, 0x00, 0x02, 0x00, 0x00, 0x00,
  0x01, 0x00, 0x00, 0x00, 0x05, 0x00, 0x00, 0x00, 0x7e, 0xf6, 0xff, 0xff,
  0x00, 0x00, 0x00, 0x01, 0x14, 0x00, 0x00, 0x00, 0x1c, 0x00, 0x00, 0x00,
  0x1c, 0x00, 0x00, 0x00, 0x18, 0x00, 0x00, 0x00, 0x38, 0x00, 0x00, 0x00,
  0x02, 0x00, 0x00, 0x00, 0xff, 0xff, 0xff, 0xff, 0x18, 0x00, 0x00, 0x00,
  0x64, 0xf6, 0xff, 0xff, 0x1e, 0x00, 0x00, 0x00, 0x73, 0x65, 0x71, 0x75,
  0x65, 0x6e, 0x74, 0x69, 0x61, 0x6c, 0x5f, 0x31, 0x2f, 0x66, 0x6c, 0x61,
  0x74, 0x74, 0x65, 0x6e, 0x5f, 0x31, 0x2f, 0x52, 0x65, 0x73, 0x68, 0x61,
  0x70, 0x65, 0x00, 0x00, 0x02, 0x00, 0x00, 0x00, 0x01, 0x00, 0x00, 0x00,
  0x18, 0x00, 0x00, 0x00, 0xda, 0xf6, 0xff, 0xff, 0x00, 0x00, 0x00, 0x01,
  0x14, 0x00, 0x00, 0x00, 0x24, 0x00, 0x00, 0x00, 0x24, 0x00, 0x00, 0x00,
  0x17, 0x00, 0x00, 0x00, 0x4c, 0x00, 0x00, 0x00, 0x04, 0x00, 0x00, 0x00,
  0xff, 0xff, 0xff, 0xff, 0x01, 0x00, 0x00, 0x00, 0x02, 0x00, 0x00, 0x00,
  0x0c, 0x00, 0x00, 0x00, 0xc8, 0xf6, 0xff, 0xff, 0x28, 0x00, 0x00, 0x00,
  0x73, 0x65, 0x71, 0x75, 0x65, 0x6e, 0x74, 0x69, 0x61, 0x6c, 0x5f, 0x31,
  0x2f, 0x6d, 0x61, 0x78, 0x5f, 0x70, 0x6f, 0x6f, 0x6c, 0x69, 0x6e, 0x67,
  0x31, 0x64, 0x5f, 0x31, 0x5f, 0x32, 0x2f, 0x4d, 0x61, 0x78, 0x50, 0x6f,
  0x6f, 0x6c, 0x31, 0x64, 0x00, 0x00, 0x00, 0x00, 0x04, 0x00, 0x00, 0x00,
  0x01, 0x00, 0x00, 0x00, 0x01, 0x00, 0x00, 0x00, 0x02, 0x00, 0x00, 0x00,
  0x0c, 0x00, 0x00, 0x00, 0x52, 0xf7, 0xff, 0xff, 0x00, 0x00, 0x00, 0x01,
  0x14, 0x00, 0x00, 0x00, 0x24, 0x00, 0x00, 0x00, 0x24, 0x00, 0x00, 0x00,
  0x16, 0x00, 0x00, 0x00, 0x54, 0x00, 0x00, 0x00, 0x04, 0x00, 0x00, 0x00,
  0xff, 0xff, 0xff, 0xff, 0x01, 0x00, 0x00, 0x00, 0x02, 0x00, 0x00, 0x00,
  0x0c, 0x00, 0x00, 0x00, 0x40, 0xf7, 0xff, 0xff, 0x33, 0x00, 0x00, 0x00,
  0x73, 0x65, 0x71, 0x75, 0x65, 0x6e, 0x74, 0x69, 0x61, 0x6c, 0x5f, 0x31,
  0x2f, 0x6d, 0x61, 0x78, 0x5f, 0x70, 0x6f, 0x6f, 0x6c, 0x69, 0x6e, 0x67,
  0x31, 0x64, 0x5f, 0x31, 0x5f, 0x32, 0x2f, 0x4d, 0x61, 0x78, 0x50, 0x6f,
  0x6f, 0x6c, 0x31, 0x64, 0x2f, 0x45, 0x78, 0x70, 0x61, 0x6e, 0x64, 0x44,
  0x69, 0x6d, 0x73, 0x00, 0x04, 0x00, 0x00, 0x00, 0x01, 0x00, 0x00, 0x00,
  0x01, 0x00, 0x00, 0x00, 0x02, 0x00, 0x00, 0x00, 0x0c, 0x00, 0x00, 0x00,
  0xd2, 0xf7, 0xff, 0xff, 0x00, 0x00, 0x00, 0x01, 0x14, 0x00, 0x00, 0x00,
  0x20, 0x00, 0x00, 0x00, 0x20, 0x00, 0x00, 0x00, 0x15, 0x00, 0x00, 0x00,
  0x88, 0x00, 0x00, 0x00, 0x03, 0x00, 0x00, 0x00, 0xff, 0xff, 0xff, 0xff,
  0x02, 0x00, 0x00, 0x00, 0x0c, 0x00, 0x00, 0x00, 0xbc, 0xf7, 0xff, 0xff,
  0x69, 0x00, 0x00, 0x00, 0x73, 0x65, 0x71, 0x75, 0x65, 0x6e, 0x74, 0x69,
  0x61, 0x6c, 0x5f, 0x31, 0x2f, 0x63, 0x6f, 0x6e, 0x76, 0x31, 0x64, 0x5f,
  0x31, 0x5f, 0x32, 0x2f, 0x52, 0x65, 0x6c, 0x75, 0x3b, 0x73, 0x65, 0x71,
  0x75, 0x65, 0x6e, 0x74, 0x69, 0x61, 0x6c, 0x5f, 0x31, 0x2f, 0x63, 0x6f,
  0x6e, 0x76, 0x31, 0x64, 0x5f, 0x31, 0x5f, 0x32, 0x2f, 0x42, 0x69, 0x61,
  0x73, 0x41, 0x64, 0x64, 0x3b, 0x73, 0x65, 0x71, 0x75, 0x65, 0x6e, 0x74,
  0x69, 0x61, 0x6c, 0x5f, 0x31, 0x2f, 0x63, 0x6f, 0x6e, 0x76, 0x31, 0x64,
  0x5f, 0x31, 0x5f, 0x32, 0x2f, 0x63, 0x6f, 0x6e, 0x76, 0x6f, 0x6c, 0x75,
  0x74, 0x69, 0x6f, 0x6e, 0x2f, 0x53, 0x71, 0x75, 0x65, 0x65, 0x7a, 0x65,
  0x3b, 0x00, 0x00, 0x00, 0x03, 0x00, 0x00, 0x00, 0x01, 0x00, 0x00, 0x00,
  0x02, 0x00, 0x00, 0x00, 0x0c, 0x00, 0x00, 0x00, 0x82, 0xf8, 0xff, 0xff,
  0x00, 0x00, 0x00, 0x01, 0x14, 0x00, 0x00, 0x00, 0x24, 0x00, 0x00, 0x00,
  0x24, 0x00, 0x00, 0x00, 0x14, 0x00, 0x00, 0x00, 0xb0, 0x00, 0x00, 0x00,
  0x04, 0x00, 0x00, 0x00, 0xff, 0xff, 0xff, 0xff, 0x01, 0x00, 0x00, 0x00,
  0x02, 0x00, 0x00, 0x00, 0x0c, 0x00, 0x00, 0x00, 0x70, 0xf8, 0xff, 0xff,
  0x8d, 0x00, 0x00, 0x00, 0x73, 0x65, 0x71, 0x75, 0x65, 0x6e, 0x74, 0x69,
  0x61, 0x6c, 0x5f, 0x31, 0x2f, 0x63, 0x6f, 0x6e, 0x76, 0x31, 0x64, 0x5f,
  0x31, 0x5f, 0x32, 0x2f, 0x52, 0x65, 0x6c, 0x75, 0x3b, 0x73, 0x65, 0x71,
  0x75, 0x65, 0x6e, 0x74, 0x69, 0x61, 0x6c, 0x5f, 0x31, 0x2f, 0x63, 0x6f,
  0x6e, 0x76, 0x31, 0x64, 0x5f, 0x31, 0x5f, 0x32, 0x2f, 0x42, 0x69, 0x61,
  0x73, 0x41, 0x64, 0x64, 0x3b, 0x73, 0x65, 0x71, 0x75, 0x65, 0x6e, 0x74,
  0x69, 0x61, 0x6c, 0x5f, 0x31, 0x2f, 0x63, 0x6f, 0x6e, 0x76, 0x31, 0x64,
  0x5f, 0x31, 0x5f, 0x32, 0x2f, 0x63, 0x6f, 0x6e, 0x76, 0x6f, 0x6c, 0x75,
  0x74, 0x69, 0x6f, 0x6e, 0x2f, 0x53, 0x71, 0x75, 0x65, 0x65, 0x7a, 0x65,
  0x3b, 0x3b, 0x73, 0x65, 0x71, 0x75, 0x65, 0x6e, 0x74, 0x69, 0x61, 0x6c,
  0x5f, 0x31, 0x2f, 0x63, 0x6f, 0x6e, 0x76, 0x31, 0x64, 0x5f, 0x31, 0x5f,
  0x32, 0x2f, 0x63, 0x6f, 0x6e, 0x76, 0x6f, 0x6c, 0x75, 0x74, 0x69, 0x6f,
  0x6e, 0x00, 0x00, 0x00, 0x04, 0x00, 0x00, 0x00, 0x01, 0x00, 0x00, 0x00,
  0x01, 0x00, 0x00, 0x00, 0x02, 0x00, 0x00, 0x00, 0x0c, 0x00, 0x00, 0x00,
  0x5e, 0xf9, 0xff, 0xff, 0x00, 0x00, 0x00, 0x01, 0x14, 0x00, 0x00, 0x00,
  0x24, 0x00, 0x00, 0x00, 0x24, 0x00, 0x00, 0x00, 0x13, 0x00, 0x00, 0x00,
  0x50, 0x00, 0x00, 0x00, 0x04, 0x00, 0x00, 0x00, 0xff, 0xff, 0xff, 0xff,
  0x01, 0x00, 0x00, 0x00, 0x03, 0x00, 0x00, 0x00, 0x0e, 0x00, 0x00, 0x00,
  0x4c, 0xf9, 0xff, 0xff, 0x2e, 0x00, 0x00, 0x00, 0x73, 0x65, 0x71, 0x75,
  0x65, 0x6e, 0x74, 0x69, 0x61, 0x6c, 0x5f, 0x31, 0x2f, 0x63, 0x6f, 0x6e,
  0x76, 0x31, 0x64, 0x5f, 0x31, 0x5f, 0x32, 0x2f, 0x63, 0x6f, 0x6e, 0x76,
  0x6f, 0x6c, 0x75, 0x74, 0x69, 0x6f, 0x6e, 0x2f, 0x45, 0x78, 0x70, 0x61,
  0x6e, 0x64, 0x44, 0x69, 0x6d, 0x73, 0x00, 0x00, 0x04, 0x00, 0x00, 0x00,
  0x01, 0x00, 0x00, 0x00, 0x01, 0x00, 0x00, 0x00, 0x03, 0x00, 0x00, 0x00,
  0x0e, 0x00, 0x00, 0x00, 0xda, 0xf9, 0xff, 0xff, 0x00, 0x00, 0x00, 0x01,
  0x14, 0x00, 0x00, 0x00, 0x20, 0x00, 0x00, 0x00, 0x20, 0x00, 0x00, 0x00,
  0x12, 0x00, 0x00, 0x00, 0x4c, 0x00, 0x00, 0x00, 0x03, 0x00, 0x00, 0x00,
  0xff, 0xff, 0xff, 0xff, 0x03, 0x00, 0x00, 0x00, 0x0e, 0x00, 0x00, 0x00,
  0xc4, 0xf9, 0xff, 0xff, 0x2e, 0x00, 0x00, 0x00, 0x73, 0x65, 0x71, 0x75,
  0x65, 0x6e, 0x74, 0x69, 0x61, 0x6c, 0x5f, 0x31, 0x2f, 0x6d, 0x61, 0x78,
  0x5f, 0x70, 0x6f, 0x6f, 0x6c, 0x69, 0x6e, 0x67, 0x31, 0x64, 0x5f, 0x31,
  0x2f, 0x4d, 0x61, 0x78, 0x50, 0x6f, 0x6f, 0x6c, 0x31, 0x64, 0x2f, 0x53,
  0x71, 0x75, 0x65, 0x65, 0x7a, 0x65, 0x00, 0x00, 0x03, 0x00, 0x00, 0x00,
  0x01, 0x00, 0x00, 0x00, 0x03, 0x00, 0x00, 0x00, 0x0e, 0x00, 0x00, 0x00,
  0x4e, 0xfa, 0xff, 0xff, 0x00, 0x00, 0x00, 0x01, 0x14, 0x00, 0x00, 0x00,
  0x24, 0x00, 0x00, 0x00, 0x24, 0x00, 0x00, 0x00, 0x11, 0x00, 0x00, 0x00,
  0x48, 0x00, 0x00, 0x00, 0x04, 0x00, 0x00, 0x00, 0xff, 0xff, 0xff, 0xff,
  0x01, 0x00, 0x00, 0x00, 0x03, 0x00, 0x00, 0x00, 0x0e, 0x00, 0x00, 0x00,
  0x3c, 0xfa, 0xff, 0xff, 0x26, 0x00, 0x00, 0x00, 0x73, 0x65, 0x71, 0x75,
  0x65, 0x6e, 0x74, 0x69, 0x61, 0x6c, 0x5f, 0x31, 0x2f, 0x6d, 0x61, 0x78,
  0x5f, 0x70, 0x6f, 0x6f, 0x6c, 0x69, 0x6e, 0x67, 0x31, 0x64, 0x5f, 0x31,
  0x2f, 0x4d, 0x61, 0x78, 0x50, 0x6f, 0x6f, 0x6c, 0x31, 0x64, 0x00, 0x00,
  0x04, 0x00, 0x00, 0x00, 0x01, 0x00, 0x00, 0x00, 0x01, 0x00, 0x00, 0x00,
  0x03, 0x00, 0x00, 0x00, 0x0e, 0x00, 0x00, 0x00, 0xc2, 0xfa, 0xff, 0xff,
  0x00, 0x00, 0x00, 0x01, 0x14, 0x00, 0x00, 0x00, 0x24, 0x00, 0x00, 0x00,
  0x24, 0x00, 0x00, 0x00, 0x10, 0x00, 0x00, 0x00, 0x54, 0x00, 0x00, 0x00,
  0x04, 0x00, 0x00, 0x00, 0xff, 0xff, 0xff, 0xff, 0x01, 0x00, 0x00, 0x00,
  0x03, 0x00, 0x00, 0x00, 0x0e, 0x00, 0x00, 0x00, 0xb0, 0xfa, 0xff, 0xff,
  0x31, 0x00, 0x00, 0x00, 0x73, 0x65, 0x71, 0x75, 0x65, 0x6e, 0x74, 0x69,
  0x61, 0x6c, 0x5f, 0x31, 0x2f, 0x6d, 0x61, 0x78, 0x5f, 0x70, 0x6f, 0x6f,
  0x6c, 0x69, 0x6e, 0x67, 0x31, 0x64, 0x5f, 0x31, 0x2f, 0x4d, 0x61, 0x78,
  0x50, 0x6f, 0x6f, 0x6c, 0x31, 0x64, 0x2f, 0x45, 0x78, 0x70, 0x61, 0x6e,
  0x64, 0x44, 0x69, 0x6d, 0x73, 0x00, 0x00, 0x00, 0x04, 0x00, 0x00, 0x00,
  0x01, 0x00, 0x00, 0x00, 0x01, 0x00, 0x00, 0x00, 0x03, 0x00, 0x00, 0x00,
  0x0e, 0x00, 0x00, 0x00, 0x42, 0xfb, 0xff, 0xff, 0x00, 0x00, 0x00, 0x01,
  0x14, 0x00, 0x00, 0x00, 0x20, 0x00, 0x00, 0x00, 0x20, 0x00, 0x00, 0x00,
  0x0f, 0x00, 0x00, 0x00, 0x80, 0x00, 0x00, 0x00, 0x03, 0x00, 0x00, 0x00,
  0xff, 0xff, 0xff, 0xff, 0x03, 0x00, 0x00, 0x00, 0x0e, 0x00, 0x00, 0x00,
  0x2c, 0xfb, 0xff, 0xff, 0x63, 0x00, 0x00, 0x00, 0x73, 0x65, 0x71, 0x75,
  0x65, 0x6e, 0x74, 0x69, 0x61, 0x6c, 0x5f, 0x31, 0x2f, 0x63, 0x6f, 0x6e,
  0x76, 0x31, 0x64, 0x5f, 0x31, 0x2f, 0x52, 0x65, 0x6c, 0x75, 0x3b, 0x73,
  0x65, 0x71, 0x75, 0x65, 0x6e, 0x74, 0x69, 0x61, 0x6c, 0x5f, 0x31, 0x2f,
  0x63, 0x6f, 0x6e, 0x76, 0x31, 0x64, 0x5f, 0x31, 0x2f, 0x42, 0x69, 0x61,
  0x73, 0x41, 0x64, 0x64, 0x3b, 0x73, 0x65, 0x71, 0x75, 0x65, 0x6e, 0x74,
  0x69, 0x61, 0x6c, 0x5f, 0x31, 0x2f, 0x63, 0x6f, 0x6e, 0x76, 0x31, 0x64,
  0x5f, 0x31, 0x2f, 0x63, 0x6f, 0x6e, 0x76, 0x6f, 0x6c, 0x75, 0x74, 0x69,
  0x6f, 0x6e, 0x2f, 0x53, 0x71, 0x75, 0x65, 0x65, 0x7a, 0x65, 0x3b, 0x00,
  0x03, 0x00, 0x00, 0x00, 0x01, 0x00, 0x00, 0x00, 0x03, 0x00, 0x00, 0x00,
  0x0e, 0x00, 0x00, 0x00, 0xea, 0xfb, 0xff, 0xff, 0x00, 0x00, 0x00, 0x01,
  0x14, 0x00, 0x00, 0x00, 0x24, 0x00, 0x00, 0x00, 0x24, 0x00, 0x00, 0x00,
  0x0e, 0x00, 0x00, 0x00, 0xa8, 0x00, 0x00, 0x00, 0x04, 0x00, 0x00, 0x00,
  0xff, 0xff, 0xff, 0xff, 0x01, 0x00, 0x00, 0x00, 0x03, 0x00, 0x00, 0x00,
  0x0e, 0x00, 0x00, 0x00, 0xd8, 0xfb, 0xff, 0xff, 0x85, 0x00, 0x00, 0x00,
  0x73, 0x65, 0x71, 0x75, 0x65, 0x6e, 0x74, 0x69, 0x61, 0x6c, 0x5f, 0x31,
  0x2f, 0x63, 0x6f, 0x6e, 0x76, 0x31, 0x64, 0x5f, 0x31, 0x2f, 0x52, 0x65,
  0x6c, 0x75, 0x3b, 0x73, 0x65, 0x71, 0x75, 0x65, 0x6e, 0x74, 0x69, 0x61,
  0x6c, 0x5f, 0x31, 0x2f, 0x63, 0x6f, 0x6e, 0x76, 0x31, 0x64, 0x5f, 0x31,
  0x2f, 0x42, 0x69, 0x61, 0x73, 0x41, 0x64, 0x64, 0x3b, 0x73, 0x65, 0x71,
  0x75, 0x65, 0x6e, 0x74, 0x69, 0x61, 0x6c, 0x5f, 0x31, 0x2f, 0x63, 0x6f,
  0x6e, 0x76, 0x31, 0x64, 0x5f, 0x31, 0x2f, 0x63, 0x6f, 0x6e, 0x76, 0x6f,
  0x6c, 0x75, 0x74, 0x69, 0x6f, 0x6e, 0x2f, 0x53, 0x71, 0x75, 0x65, 0x65,
  0x7a, 0x65, 0x3b, 0x3b, 0x73, 0x65, 0x71, 0x75, 0x65, 0x6e, 0x74, 0x69,
  0x61, 0x6c, 0x5f, 0x31, 0x2f, 0x63, 0x6f, 0x6e, 0x76, 0x31, 0x64, 0x5f,
  0x31, 0x2f, 0x63, 0x6f, 0x6e, 0x76, 0x6f, 0x6c, 0x75, 0x74, 0x69, 0x6f,
  0x6e, 0x00, 0x00, 0x00, 0x04, 0x00, 0x00, 0x00, 0x01, 0x00, 0x00, 0x00,
  0x01, 0x00, 0x00, 0x00, 0x03, 0x00, 0x00, 0x00, 0x0e, 0x00, 0x00, 0x00,
  0xbe, 0xfc, 0xff, 0xff, 0x00, 0x00, 0x00, 0x01, 0x14, 0x00, 0x00, 0x00,
  0x24, 0x00, 0x00, 0x00, 0x24, 0x00, 0x00, 0x00, 0x0d, 0x00, 0x00, 0x00,
  0x50, 0x00, 0x00, 0x00, 0x04, 0x00, 0x00, 0x00, 0xff, 0xff, 0xff, 0xff,
  0x01, 0x00, 0x00, 0x00, 0x06, 0x00, 0x00, 0x00, 0x01, 0x00, 0x00, 0x00,
  0xac, 0xfc, 0xff, 0xff, 0x2c, 0x00, 0x00, 0x00, 0x73, 0x65, 0x71, 0x75,
  0x65, 0x6e, 0x74, 0x69, 0x61, 0x6c, 0x5f, 0x31, 0x2f, 0x63, 0x6f, 0x6e,
  0x76, 0x31, 0x64, 0x5f, 0x31, 0x2f, 0x63, 0x6f, 0x6e, 0x76, 0x6f, 0x6c,
  0x75, 0x74, 0x69, 0x6f, 0x6e, 0x2f, 0x45, 0x78, 0x70, 0x61, 0x6e, 0x64,
  0x44, 0x69, 0x6d, 0x73, 0x00, 0x00, 0x00, 0x00, 0x04, 0x00, 0x00, 0x00,
  0x01, 0x00, 0x00, 0x00, 0x01, 0x00, 0x00, 0x00, 0x06, 0x00, 0x00, 0x00,
  0x01, 0x00, 0x00, 0x00, 0x16, 0xfe, 0xff, 0xff, 0x00, 0x00, 0x00, 0x01,
  0x14, 0x00, 0x00, 0x00, 0x14, 0x00, 0x00, 0x00, 0x0c, 0x00, 0x00, 0x00,
  0x00, 0x00, 0x00, 0x02, 0x20, 0x00, 0x00, 0x00, 0x14, 0xfd, 0xff, 0xff,
  0x10, 0x00, 0x00, 0x00, 0x61, 0x72, 0x69, 0x74, 0x68, 0x2e, 0x63, 0x6f,
  0x6e, 0x73, 0x74, 0x61, 0x6e, 0x74, 0x31, 0x30, 0x00, 0x00, 0x00, 0x00,
  0x00, 0x00, 0x00, 0x00, 0x52, 0xfe, 0xff, 0xff, 0x00, 0x00, 0x00, 0x01,
  0x14, 0x00, 0x00, 0x00, 0x14, 0x00, 0x00, 0x00, 0x0b, 0x00, 0x00, 0x00,
  0x00, 0x00, 0x00, 0x02, 0x1c, 0x00, 0x00, 0x00, 0x50, 0xfd, 0xff, 0xff,
  0x0f, 0x00, 0x00, 0x00, 0x61, 0x72, 0x69, 0x74, 0x68, 0x2e, 0x63, 0x6f,
  0x6e, 0x73, 0x74, 0x61, 0x6e, 0x74, 0x39, 0x00, 0x01, 0x00, 0x00, 0x00,
  0x02, 0x00, 0x00, 0x00, 0x8e, 0xfe, 0xff, 0xff, 0x00, 0x00, 0x00, 0x01,
  0x14, 0x00, 0x00, 0x00, 0x14, 0x00, 0x00, 0x00, 0x0a, 0x00, 0x00, 0x00,
  0x00, 0x00, 0x00, 0x02, 0x1c, 0x00, 0x00, 0x00, 0x8c, 0xfd, 0xff, 0xff,
  0x0f, 0x00, 0x00, 0x00, 0x61, 0x72, 0x69, 0x74, 0x68, 0x2e, 0x63, 0x6f,
  0x6e, 0x73, 0x74, 0x61, 0x6e, 0x74, 0x38, 0x00, 0x00, 0x00, 0x00, 0x00,
  0x3a, 0xfe, 0xff, 0xff, 0x00, 0x00, 0x00, 0x01, 0x10, 0x00, 0x00, 0x00,
  0x10, 0x00, 0x00, 0x00, 0x09, 0x00, 0x00, 0x00, 0x1c, 0x00, 0x00, 0x00,
  0xc0, 0xfd, 0xff, 0xff, 0x0f, 0x00, 0x00, 0x00, 0x61, 0x72, 0x69, 0x74,
  0x68, 0x2e, 0x63, 0x6f, 0x6e, 0x73, 0x74, 0x61, 0x6e, 0x74, 0x37, 0x00,
  0x01, 0x00, 0x00, 0x00, 0x05, 0x00, 0x00, 0x00, 0x72, 0xfe, 0xff, 0xff,
  0x00, 0x00, 0x00, 0x01, 0x10, 0x00, 0x00, 0x00, 0x10, 0x00, 0x00, 0x00,
  0x08, 0x00, 0x00, 0x00, 0x1c, 0x00, 0x00, 0x00, 0xf8, 0xfd, 0xff, 0xff,
  0x0f, 0x00, 0x00, 0x00, 0x61, 0x72, 0x69, 0x74, 0x68, 0x2e, 0x63, 0x6f,
  0x6e, 0x73, 0x74, 0x61, 0x6e, 0x74, 0x36, 0x00, 0x02, 0x00, 0x00, 0x00,
  0x05, 0x00, 0x00, 0x00, 0x18, 0x00, 0x00, 0x00, 0xae, 0xfe, 0xff, 0xff,
  0x00, 0x00, 0x00, 0x01, 0x10, 0x00, 0x00, 0x00, 0x10, 0x00, 0x00, 0x00,
  0x07, 0x00, 0x00, 0x00, 0x1c, 0x00, 0x00, 0x00, 0x34, 0xfe, 0xff, 0xff,
  0x0f, 0x00, 0x00, 0x00, 0x61, 0x72, 0x69, 0x74, 0x68, 0x2e, 0x63, 0x6f,
  0x6e, 0x73, 0x74, 0x61, 0x6e, 0x74, 0x35, 0x00, 0x04, 0x00, 0x00, 0x00,
  0x0e, 0x00, 0x00, 0x00, 0x01, 0x00, 0x00, 0x00, 0x04, 0x00, 0x00, 0x00,
  0x01, 0x00, 0x00, 0x00, 0xf2, 0xfe, 0xff, 0xff, 0x00, 0x00, 0x00, 0x01,
  0x10, 0x00, 0x00, 0x00, 0x10, 0x00, 0x00, 0x00, 0x06, 0x00, 0x00, 0x00,
  0x1c, 0x00, 0x00, 0x00, 0x78, 0xfe, 0xff, 0xff, 0x0f, 0x00, 0x00, 0x00,
  0x61, 0x72, 0x69, 0x74, 0x68, 0x2e, 0x63, 0x6f, 0x6e, 0x73, 0x74, 0x61,
  0x6e, 0x74, 0x34, 0x00, 0x04, 0x00, 0x00, 0x00, 0x0c, 0x00, 0x00, 0x00,
  0x01, 0x00, 0x00, 0x00, 0x02, 0x00, 0x00, 0x00, 0x0e, 0x00, 0x00, 0x00,
  0xc2, 0xff, 0xff, 0xff, 0x00, 0x00, 0x00, 0x01, 0x14, 0x00, 0x00, 0x00,
  0x14, 0x00, 0x00, 0x00, 0x05, 0x00, 0x00, 0x00, 0x00, 0x00, 0x00, 0x02,
  0x1c, 0x00, 0x00, 0x00, 0xc0, 0xfe, 0xff, 0xff, 0x0f, 0x00, 0x00, 0x00,
  0x61, 0x72, 0x69, 0x74, 0x68, 0x2e, 0x63, 0x6f, 0x6e, 0x73, 0x74, 0x61,
  0x6e, 0x74, 0x33, 0x00, 0x01, 0x00, 0x00, 0x00, 0x03, 0x00, 0x00, 0x00,
  0x00, 0x00, 0x16, 0x00, 0x1c, 0x00, 0x18, 0x00, 0x17, 0x00, 0x10, 0x00,
  0x0c, 0x00, 0x08, 0x00, 0x00, 0x00, 0x00, 0x00, 0x00, 0x00, 0x07, 0x00,
  0x16, 0x00, 0x00, 0x00, 0x00, 0x00, 0x00, 0x01, 0x14, 0x00, 0x00, 0x00,
  0x14, 0x00, 0x00, 0x00, 0x04, 0x00, 0x00, 0x00, 0x00, 0x00, 0x00, 0x02,
  0x1c, 0x00, 0x00, 0x00, 0x14, 0xff, 0xff, 0xff, 0x0f, 0x00, 0x00, 0x00,
  0x61, 0x72, 0x69, 0x74, 0x68, 0x2e, 0x63, 0x6f, 0x6e, 0x73, 0x74, 0x61,
  0x6e, 0x74, 0x32, 0x00, 0x01, 0x00, 0x00, 0x00, 0x03, 0x00, 0x00, 0x00,
  0xc6, 0xff, 0xff, 0xff, 0x00, 0x00, 0x00, 0x01, 0x10, 0x00, 0x00, 0x00,
  0x10, 0x00, 0x00, 0x00, 0x03, 0x00, 0x00, 0x00, 0x1c, 0x00, 0x00, 0x00,
  0x4c, 0xff, 0xff, 0xff, 0x0f, 0x00, 0x00, 0x00, 0x61, 0x72, 0x69, 0x74,
  0x68, 0x2e, 0x63, 0x6f, 0x6e, 0x73, 0x74, 0x61, 0x6e, 0x74, 0x31, 0x00,
  0x01, 0x00, 0x00, 0x00, 0x0e, 0x00, 0x00, 0x00, 0x00, 0x00, 0x16, 0x00,
  0x18, 0x00, 0x14, 0x00, 0x00, 0x00, 0x10, 0x00, 0x0c, 0x00, 0x08, 0x00,
  0x00, 0x00, 0x00, 0x00, 0x00, 0x00, 0x07, 0x00, 0x16, 0x00, 0x00, 0x00,
  0x00, 0x00, 0x00, 0x01, 0x10, 0x00, 0x00, 0x00, 0x10, 0x00, 0x00, 0x00,
  0x02, 0x00, 0x00, 0x00, 0x1c, 0x00, 0x00, 0x00, 0x9c, 0xff, 0xff, 0xff,
  0x0e, 0x00, 0x00, 0x00, 0x61, 0x72, 0x69, 0x74, 0x68, 0x2e, 0x63, 0x6f,
  0x6e, 0x73, 0x74, 0x61, 0x6e, 0x74, 0x00, 0x00, 0x01, 0x00, 0x00, 0x00,
  0x0c, 0x00, 0x00, 0x00, 0x00, 0x00, 0x16, 0x00, 0x1c, 0x00, 0x18, 0x00,
  0x00, 0x00, 0x14, 0x00, 0x10, 0x00, 0x0c, 0x00, 0x00, 0x00, 0x00, 0x00,
  0x08, 0x00, 0x07, 0x00, 0x16, 0x00, 0x00, 0x00, 0x00, 0x00, 0x00, 0x01,
  0x14, 0x00, 0x00, 0x00, 0x24, 0x00, 0x00, 0x00, 0x24, 0x00, 0x00, 0x00,
  0x01, 0x00, 0x00, 0x00, 0x40, 0x00, 0x00, 0x00, 0x03, 0x00, 0x00, 0x00,
  0xff, 0xff, 0xff, 0xff, 0x06, 0x00, 0x00, 0x00, 0x01, 0x00, 0x00, 0x00,
  0x04, 0x00, 0x04, 0x00, 0x04, 0x00, 0x00, 0x00, 0x1e, 0x00, 0x00, 0x00,
  0x73, 0x65, 0x72, 0x76, 0x69, 0x6e, 0x67, 0x5f, 0x64, 0x65, 0x66, 0x61,
  0x75, 0x6c, 0x74, 0x5f, 0x6b, 0x65, 0x72, 0x61, 0x73, 0x5f, 0x74, 0x65,
  0x6e, 0x73, 0x6f, 0x72, 0x3a, 0x30, 0x00, 0x00, 0x03, 0x00, 0x00, 0x00,
  0x01, 0x00, 0x00, 0x00, 0x06, 0x00, 0x00, 0x00, 0x01, 0x00, 0x00, 0x00,
  0x06, 0x00, 0x00, 0x00, 0x60, 0x00, 0x00, 0x00, 0x44, 0x00, 0x00, 0x00,
  0x34, 0x00, 0x00, 0x00, 0x24, 0x00, 0x00, 0x00, 0x14, 0x00, 0x00, 0x00,
  0x04, 0x00, 0x00, 0x00, 0xc4, 0xff, 0xff, 0xff, 0x19, 0x00, 0x00, 0x00,
  0x00, 0x00, 0x00, 0x19, 0xd0, 0xff, 0xff, 0xff, 0x09, 0x00, 0x00, 0x00,
  0x00, 0x00, 0x00, 0x09, 0xdc, 0xff, 0xff, 0xff, 0x11, 0x00, 0x00, 0x00,
  0x00, 0x00, 0x00, 0x11, 0xe8, 0xff, 0xff, 0xff, 0x16, 0x00, 0x00, 0x00,
  0x00, 0x00, 0x00, 0x16, 0xf4, 0xff, 0xff, 0xff, 0x03, 0x00, 0x00, 0x00,
  0x00, 0x00, 0x00, 0x03, 0x0c, 0x00, 0x0c, 0x00, 0x0b, 0x00, 0x00, 0x00,
  0x00, 0x00, 0x04, 0x00, 0x0c, 0x00, 0x00, 0x00, 0x46, 0x00, 0x00, 0x00,
  0x00, 0x00, 0x00, 0x46
};

#endif //GESTURE_MODEL_H