#ifndef GESTURE_MODEL_H
#define GESTURE_MODEL_H


unsigned int gesture_model_len = 6060;
unsigned char gesture_model[] = {
 0x1c, 0x00, 0x00, 0x00, 0x54, 0x46, 0x4c, 0x33, 0x14, 0x00, 0x20, 0x00,
  0x1c, 0x00, 0x18, 0x00, 0x14, 0x00, 0x10, 0x00, 0x0c, 0x00, 0x00, 0x00,
  0x08, 0x00, 0x04, 0x00, 0x14, 0x00, 0x00, 0x00, 0x1c, 0x00, 0x00, 0x00,
  0x8c, 0x00, 0x00, 0x00, 0xe4, 0x00, 0x00, 0x00, 0xd4, 0x0a, 0x00, 0x00,
  0xe4, 0x0a, 0x00, 0x00, 0x08, 0x17, 0x00, 0x00, 0x03, 0x00, 0x00, 0x00,
  0x01, 0x00, 0x00, 0x00, 0x04, 0x00, 0x00, 0x00, 0x26, 0xf3, 0xff, 0xff,
  0x0c, 0x00, 0x00, 0x00, 0x1c, 0x00, 0x00, 0x00, 0x3c, 0x00, 0x00, 0x00,
  0x0f, 0x00, 0x00, 0x00, 0x73, 0x65, 0x72, 0x76, 0x69, 0x6e, 0x67, 0x5f,
  0x64, 0x65, 0x66, 0x61, 0x75, 0x6c, 0x74, 0x00, 0x01, 0x00, 0x00, 0x00,
  0x04, 0x00, 0x00, 0x00, 0x90, 0xff, 0xff, 0xff, 0x15, 0x00, 0x00, 0x00,
  0x04, 0x00, 0x00, 0x00, 0x08, 0x00, 0x00, 0x00, 0x6f, 0x75, 0x74, 0x70,
  0x75, 0x74, 0x5f, 0x30, 0x00, 0x00, 0x00, 0x00, 0x01, 0x00, 0x00, 0x00,
  0x04, 0x00, 0x00, 0x00, 0xfa, 0xf4, 0xff, 0xff, 0x04, 0x00, 0x00, 0x00,
  0x0c, 0x00, 0x00, 0x00, 0x6b, 0x65, 0x72, 0x61, 0x73, 0x5f, 0x74, 0x65,
  0x6e, 0x73, 0x6f, 0x72, 0x00, 0x00, 0x00, 0x00, 0x02, 0x00, 0x00, 0x00,
  0x34, 0x00, 0x00, 0x00, 0x04, 0x00, 0x00, 0x00, 0xdc, 0xff, 0xff, 0xff,
  0x18, 0x00, 0x00, 0x00, 0x04, 0x00, 0x00, 0x00, 0x13, 0x00, 0x00, 0x00,
  0x43, 0x4f, 0x4e, 0x56, 0x45, 0x52, 0x53, 0x49, 0x4f, 0x4e, 0x5f, 0x4d,
  0x45, 0x54, 0x41, 0x44, 0x41, 0x54, 0x41, 0x00, 0x08, 0x00, 0x0c, 0x00,
  0x08, 0x00, 0x04, 0x00, 0x08, 0x00, 0x00, 0x00, 0x17, 0x00, 0x00, 0x00,
  0x04, 0x00, 0x00, 0x00, 0x13, 0x00, 0x00, 0x00, 0x6d, 0x69, 0x6e, 0x5f,
  0x72, 0x75, 0x6e, 0x74, 0x69, 0x6d, 0x65, 0x5f, 0x76, 0x65, 0x72, 0x73,
  0x69, 0x6f, 0x6e, 0x00, 0x19, 0x00, 0x00, 0x00, 0xec, 0x09, 0x00, 0x00,
  0xe4, 0x09, 0x00, 0x00, 0xa4, 0x09, 0x00, 0x00, 0x5c, 0x09, 0x00, 0x00,
  0x40, 0x09, 0x00, 0x00, 0x90, 0x06, 0x00, 0x00, 0x10, 0x06, 0x00, 0x00,
  0x50, 0x01, 0x00, 0x00, 0x2c, 0x01, 0x00, 0x00, 0x18, 0x01, 0x00, 0x00,
  0x00, 0x01, 0x00, 0x00, 0xec, 0x00, 0x00, 0x00, 0xe4, 0x00, 0x00, 0x00,
  0xdc, 0x00, 0x00, 0x00, 0xd4, 0x00, 0x00, 0x00, 0xcc, 0x00, 0x00, 0x00,
  0xc4, 0x00, 0x00, 0x00, 0xbc, 0x00, 0x00, 0x00, 0xb4, 0x00, 0x00, 0x00,
  0xac, 0x00, 0x00, 0x00, 0xa4, 0x00, 0x00, 0x00, 0x9c, 0x00, 0x00, 0x00,
  0x94, 0x00, 0x00, 0x00, 0x74, 0x00, 0x00, 0x00, 0x04, 0x00, 0x00, 0x00,
  0xda, 0xf5, 0xff, 0xff, 0x04, 0x00, 0x00, 0x00, 0x60, 0x00, 0x00, 0x00,
  0x10, 0x00, 0x00, 0x00, 0x00, 0x00, 0x00, 0x00, 0x08, 0x00, 0x0e, 0x00,
  0x08, 0x00, 0x04, 0x00, 0x08, 0x00, 0x00, 0x00, 0x10, 0x00, 0x00, 0x00,
  0x24, 0x00, 0x00, 0x00, 0x00, 0x00, 0x06, 0x00, 0x08, 0x00, 0x04, 0x00,
  0x06, 0x00, 0x00, 0x00, 0x04, 0x00, 0x00, 0x00, 0x00, 0x00, 0x00, 0x00,
  0x0c, 0x00, 0x18, 0x00, 0x14, 0x00, 0x10, 0x00, 0x0c, 0x00, 0x04, 0x00,
  0x0c, 0x00, 0x00, 0x00, 0xb2, 0x26, 0x29, 0xe5, 0xda, 0x36, 0x54, 0x72,
  0x02, 0x00, 0x00, 0x00, 0x02, 0x00, 0x00, 0x00, 0x04, 0x00, 0x00, 0x00,
  0x06, 0x00, 0x00, 0x00, 0x32, 0x2e, 0x31, 0x39, 0x2e, 0x30, 0x00, 0x00,
  0x46, 0xf6, 0xff, 0xff, 0x04, 0x00, 0x00, 0x00, 0x10, 0x00, 0x00, 0x00,
  0x31, 0x2e, 0x31, 0x30, 0x2e, 0x30, 0x00, 0x00, 0x00, 0x00, 0x00, 0x00,
  0x00, 0x00, 0x00, 0x00, 0xfc, 0xea, 0xff, 0xff, 0x00, 0xeb, 0xff, 0xff,
  0x04, 0xeb, 0xff, 0xff, 0x08, 0xeb, 0xff, 0xff, 0x0c, 0xeb, 0xff, 0xff,
  0x10, 0xeb, 0xff, 0xff, 0x14, 0xeb, 0xff, 0xff, 0x18, 0xeb, 0xff, 0xff,
  0x1c, 0xeb, 0xff, 0xff, 0x20, 0xeb, 0xff, 0xff, 0x24, 0xeb, 0xff, 0xff,
  0x8e, 0xf6, 0xff, 0xff, 0x04, 0x00, 0x00, 0x00, 0x04, 0x00, 0x00, 0x00,
  0xfd, 0xff, 0xff, 0xff, 0x9e, 0xf6, 0xff, 0xff, 0x04, 0x00, 0x00, 0x00,
  0x08, 0x00, 0x00, 0x00, 0xff, 0xff, 0xff, 0xff, 0x3c, 0x00, 0x00, 0x00,
  0xb2, 0xf6, 0xff, 0xff, 0x04, 0x00, 0x00, 0x00, 0x04, 0x00, 0x00, 0x00,
  0x01, 0x00, 0x00, 0x00, 0xc2, 0xf6, 0xff, 0xff, 0x04, 0x00, 0x00, 0x00,
  0x14, 0x00, 0x00, 0x00, 0xd8, 0xa3, 0x98, 0x3c, 0x52, 0xfc, 0xf4, 0xbc,
  0xc7, 0x03, 0x48, 0xbc, 0x8c, 0x65, 0xda, 0x3d, 0xad, 0x02, 0xa1, 0xbd,
  0xe2, 0xf6, 0xff, 0xff, 0x04, 0x00, 0x00, 0x00, 0xb0, 0x04, 0x00, 0x00,
  0xf3, 0x6c, 0xc4, 0xbe, 0x6c, 0x2a, 0x50, 0xbe, 0xd9, 0x6e, 0x75, 0x3f,
  0xcd, 0x1e, 0x2b, 0x3f, 0x82, 0x09, 0xa9, 0x3e, 0x13, 0x57, 0x10, 0xbf,
  0x5c, 0x89, 0x8e, 0xbf, 0x88, 0x24, 0x8f, 0x3e, 0x45, 0x42, 0xb0, 0xbd,
  0x43, 0x1a, 0x2c, 0xbe, 0x5d, 0xa1, 0x98, 0x3e, 0x00, 0x4b, 0x03, 0xbe,
  0x3c, 0x08, 0x65, 0x3d, 0xe8, 0xc9, 0x9e, 0x3d, 0xed, 0xc2, 0xfb, 0x3d,
  0x61, 0xa2, 0x0f, 0xbf, 0x66, 0xd8, 0x1d, 0x3f, 0xb8, 0x88, 0x4c, 0x3c,
  0x04, 0xec, 0xcf, 0x3b, 0xbc, 0x1e, 0x4b, 0x3c, 0xa4, 0x68, 0x96, 0xbd,
  0x40, 0x2d, 0x1d, 0x3e, 0xf2, 0x19, 0xe2, 0x3e, 0x00, 0x4b, 0x35, 0xbe,
  0x3e, 0xbc, 0xc8, 0x3e, 0xe0, 0x46, 0x4d, 0x3c, 0xb9, 0x52, 0x1a, 0xbf,
  0xdf, 0x40, 0x89, 0xbf, 0x10, 0x94, 0xa3, 0xbe, 0x1b, 0x22, 0xac, 0x3e,
  0x1d, 0x18, 0x4d, 0x3e, 0x2f, 0xb9, 0x53, 0xbe, 0x20, 0x53, 0x82, 0x3e,
  0x75, 0xc5, 0x2b, 0xbe, 0xde, 0x93, 0x57, 0x3e, 0x32, 0x1b, 0xb4, 0x3c,
  0x60, 0x25, 0xb9, 0x3d, 0x30, 0xaf, 0xe1, 0xbc, 0xb0, 0x4d, 0x10, 0x3d,
  0xf9, 0xda, 0x9f, 0xbe, 0x76, 0x2d, 0x36, 0xbe, 0x4a, 0x4a, 0x68, 0xbe,
  0x7f, 0x9e, 0x12, 0xbe, 0x77, 0x68, 0x16, 0x3e, 0x2d, 0xff, 0x0c, 0xbe,
  0xf8, 0x3b, 0x23, 0xbd, 0xc2, 0x81, 0x1d, 0xbe, 0x40, 0x78, 0x67, 0xbc,
  0x3e, 0x04, 0x55, 0x3d, 0xd8, 0xbe, 0x5a, 0xbd, 0x84, 0x27, 0x6e, 0x3e,
  0xb8, 0x54, 0x83, 0xbd, 0x1f, 0x9d, 0xad, 0xbc, 0xce, 0xa6, 0x31, 0xbe,
  0x6b, 0xb0, 0x34, 0xbe, 0xef, 0x22, 0x7a, 0x3e, 0xe1, 0x04, 0x0d, 0xbd,
  0xb4, 0x84, 0xd6, 0xbd, 0x4e, 0x34, 0xd0, 0xbd, 0x48, 0x20, 0x74, 0x3e,
  0xb5, 0xee, 0x88, 0xbf, 0x95, 0x88, 0x1f, 0xbe, 0x03, 0x5c, 0xb8, 0xbf,
  0x44, 0x48, 0xed, 0xbd, 0xe7, 0x3f, 0x34, 0x3f, 0xfd, 0xc7, 0x2d, 0xbd,
  0x84, 0x3d, 0xc3, 0xbe, 0x2e, 0x59, 0x11, 0x3f, 0x0e, 0x1f, 0x18, 0x3f,
  0x42, 0xa1, 0x9b, 0xbd, 0x58, 0xb7, 0xc1, 0x3d, 0xd0, 0x18, 0x98, 0xbe,
  0x59, 0x13, 0xeb, 0xbd, 0x70, 0x22, 0x81, 0x3d, 0x7f, 0xe3, 0xbc, 0x3f,
  0xa4, 0x04, 0x4e, 0x3f, 0x1d, 0x76, 0x90, 0xbf, 0x3d, 0xa3, 0x21, 0x3e,
  0x55, 0x1c, 0x79, 0x3e, 0x58, 0x14, 0x22, 0x3f, 0x46, 0xe4, 0x97, 0xbe,
  0x64, 0xa6, 0x4c, 0x3e, 0xf8, 0x5e, 0x18, 0xbd, 0xa6, 0xb9, 0xd5, 0xbd,
  0x25, 0xeb, 0x15, 0x3d, 0x20, 0xb0, 0x99, 0xbe, 0xc2, 0x1f, 0x6b, 0x3f,
  0x86, 0xeb, 0x8e, 0x3f, 0xec, 0xa4, 0x6a, 0x3d, 0xf7, 0x3e, 0x8f, 0x3e,
  0x3b, 0x63, 0xa2, 0x3d, 0x81, 0x81, 0x3e, 0x3f, 0xb0, 0x40, 0xb3, 0xbe,
  0x40, 0x02, 0x98, 0x3d, 0xfe, 0x8f, 0x25, 0x3e, 0x7f, 0x6e, 0x0a, 0x3e,
  0x26, 0x71, 0x4f, 0xbc, 0x28, 0xf3, 0x55, 0x3d, 0x5b, 0x62, 0x13, 0xbe,
  0x26, 0xe8, 0x73, 0xbd, 0x8c, 0xd4, 0x83, 0xbe, 0x76, 0xfa, 0x84, 0xbe,
  0x3e, 0xbd, 0x96, 0xbe, 0x65, 0xce, 0x7b, 0xbe, 0x3b, 0xd2, 0xbb, 0xbd,
  0x0f, 0x44, 0x08, 0xbe, 0x67, 0x6f, 0xca, 0x3d, 0x81, 0x75, 0x9b, 0xbe,
  0x1a, 0xf7, 0x24, 0xbd, 0x5c, 0x6a, 0x90, 0x3e, 0x78, 0x47, 0x5a, 0x3e,
  0x19, 0x1b, 0x1c, 0x3d, 0x2d, 0xf3, 0x09, 0x3e, 0xc1, 0xe2, 0xa0, 0xbe,
  0xb6, 0x71, 0xc9, 0x3d, 0xb5, 0x3f, 0x14, 0xbe, 0xfc, 0x2b, 0x9e, 0xbe,
  0x18, 0xe7, 0x16, 0x3d, 0x0e, 0x37, 0xe3, 0xbc, 0x3e, 0xe2, 0x28, 0xbe,
  0x49, 0x09, 0xf2, 0x3e, 0x6c, 0x39, 0x6d, 0xbe, 0xce, 0x2f, 0xad, 0xbf,
  0x97, 0x53, 0xd2, 0xbf, 0x08, 0xf0, 0x5a, 0xc0, 0x71, 0xf7, 0x63, 0x3e,
  0xad, 0x32, 0xbb, 0x3e, 0x61, 0xa4, 0xe2, 0xbf, 0xd2, 0xf0, 0x82, 0xbd,
  0xb8, 0x03, 0x3f, 0x3e, 0x45, 0x55, 0x01, 0x3d, 0xe1, 0x8c, 0x5c, 0x3e,
  0x15, 0x4f, 0xab, 0x3e, 0xa0, 0x89, 0xfc, 0xbc, 0x22, 0x67, 0x9a, 0xbf,
  0x4a, 0x8a, 0x16, 0xbf, 0xe4, 0xef, 0x14, 0x3e, 0x0d, 0x78, 0xd9, 0xbd,
  0x5f, 0xc7, 0x79, 0x3c, 0x4b, 0x49, 0x8c, 0xbe, 0x66, 0xff, 0x4a, 0xbe,
  0x00, 0x72, 0x62, 0xbe, 0x8d, 0xe2, 0x54, 0xbe, 0x6d, 0x9a, 0x8b, 0xbd,
  0x5e, 0xbd, 0x9c, 0xbe, 0xf6, 0x2d, 0x40, 0xbe, 0xa2, 0x3d, 0x61, 0xbf,
  0xae, 0xd0, 0x91, 0xbf, 0xa4, 0x94, 0x75, 0xbe, 0xea, 0xf8, 0xfe, 0x3d,
  0x4d, 0xad, 0x36, 0xbe, 0xdb, 0x4a, 0x12, 0xbe, 0x30, 0xab, 0x13, 0x3e,
  0xad, 0x48, 0x3b, 0xbe, 0xd7, 0x9d, 0xc4, 0xbd, 0xbe, 0xbc, 0x06, 0x3e,
  0x66, 0xce, 0x1c, 0x3e, 0x98, 0xf7, 0x77, 0x3e, 0xfc, 0xde, 0xac, 0x3d,
  0x2d, 0x9a, 0xf4, 0xbd, 0xcc, 0x4b, 0x6f, 0x3e, 0xc8, 0x23, 0x06, 0xbe,
  0x0a, 0xbf, 0x21, 0xbe, 0xf6, 0x76, 0x35, 0xbe, 0xe0, 0x64, 0x47, 0x3e,
  0xbc, 0x07, 0xad, 0x3d, 0xa3, 0x83, 0xb9, 0xbc, 0xe2, 0x05, 0x5c, 0xbe,
  0x33, 0xf0, 0xd0, 0xbd, 0x54, 0xf4, 0x38, 0xbe, 0xf4, 0xb4, 0x4f, 0xbe,
  0x40, 0x90, 0x29, 0x3e, 0x71, 0x12, 0xb3, 0x3d, 0x0e, 0xc1, 0x9e, 0xbe,
  0x80, 0x7e, 0x50, 0x3e, 0x5e, 0x6c, 0xf6, 0x3d, 0xeb, 0x1b, 0xa7, 0xbe,
  0x50, 0xf0, 0x7f, 0x3e, 0xba, 0x98, 0x55, 0x3e, 0xf5, 0x7c, 0x85, 0xbe,
  0xc6, 0x0b, 0x14, 0x3e, 0x60, 0x45, 0x80, 0xbe, 0x69, 0x59, 0x26, 0x3f,
  0x76, 0x1b, 0x62, 0xbe, 0xab, 0x70, 0x98, 0x3e, 0x2e, 0xb0, 0xa7, 0x3e,
  0x89, 0x74, 0xd2, 0x3e, 0xe7, 0x67, 0x16, 0xbf, 0x44, 0x74, 0xbb, 0xbf,
  0x0b, 0x81, 0x0e, 0xbe, 0xdd, 0xb9, 0x23, 0x3d, 0x1d, 0xeb, 0x82, 0xbe,
  0x1c, 0x0e, 0x4f, 0xbf, 0x10, 0x92, 0x49, 0xbe, 0x36, 0xd8, 0x37, 0xbf,
  0x59, 0x00, 0x39, 0xbc, 0xbf, 0x29, 0x2a, 0x3f, 0x09, 0x62, 0x8f, 0xbe,
  0x8b, 0xba, 0xea, 0xbe, 0x77, 0x14, 0x42, 0xbe, 0x1b, 0x9d, 0x7e, 0xbe,
  0xf6, 0xe0, 0x55, 0xbe, 0xa3, 0x37, 0xd9, 0xbe, 0x1b, 0x8a, 0x80, 0x3e,
  0x3c, 0x56, 0x30, 0xbf, 0xaf, 0x58, 0x5d, 0xbe, 0x9b, 0x8e, 0x74, 0xbf,
  0x6d, 0x18, 0xa9, 0x3d, 0x10, 0x8c, 0x11, 0x3f, 0x78, 0xe3, 0x03, 0xbf,
  0xdc, 0x2b, 0x35, 0xbf, 0x6a, 0x5f, 0x45, 0x3f, 0xc8, 0xa5, 0x96, 0x3e,
  0xe3, 0x0c, 0x9b, 0xbe, 0x87, 0x44, 0x2c, 0xbf, 0x7b, 0x1b, 0x8f, 0xbe,
  0x81, 0x8c, 0xea, 0x3e, 0x59, 0xa4, 0x72, 0xbe, 0xf0, 0x06, 0xd9, 0x3d,
  0xc4, 0x3e, 0x9d, 0x3c, 0x30, 0x3a, 0x63, 0xbe, 0xba, 0x0a, 0x91, 0x3e,
  0xee, 0xb9, 0x55, 0x3d, 0x37, 0x3f, 0x12, 0xbe, 0x4c, 0xef, 0x8d, 0x3e,
  0x04, 0x02, 0x49, 0x3e, 0xd6, 0x88, 0x76, 0x3e, 0x28, 0x68, 0x66, 0xbe,
  0x28, 0xce, 0x1c, 0x3e, 0x76, 0xa7, 0x22, 0xbe, 0x2a, 0xe5, 0x8c, 0xbe,
  0xb4, 0xd7, 0xd9, 0x3d, 0x13, 0x5f, 0x2d, 0xbe, 0x05, 0x13, 0x0e, 0xbe,
  0xbb, 0x10, 0x2e, 0x3d, 0xf5, 0x2d, 0x54, 0x3e, 0xf2, 0x14, 0x35, 0xbd,
  0x60, 0x6e, 0xda, 0x3c, 0x26, 0x21, 0xc4, 0x3e, 0x30, 0x12, 0xa8, 0x3d,
  0x9c, 0x7d, 0x9b, 0x3e, 0x71, 0xa4, 0x80, 0xbe, 0x14, 0x84, 0x28, 0xbf,
  0x1c, 0x0b, 0x9e, 0xbf, 0x49, 0x18, 0xac, 0xbf, 0x3c, 0x2f, 0x84, 0xbe,
  0x38, 0x88, 0x54, 0x3e, 0x9d, 0x19, 0xa0, 0xbd, 0x07, 0xcb, 0x04, 0x3f,
  0x10, 0xc4, 0x6a, 0x3d, 0xae, 0xd3, 0x6f, 0x3e, 0x1b, 0x70, 0x6c, 0xbd,
  0xd6, 0x51, 0x34, 0x3f, 0xa8, 0x03, 0xba, 0x3d, 0xb8, 0x13, 0xae, 0xbf,
  0x7a, 0x90, 0x39, 0xbf, 0xcd, 0x9d, 0x02, 0xbf, 0x2d, 0x47, 0x0d, 0x3f,
  0xb9, 0xa9, 0x1e, 0x3e, 0x0d, 0x82, 0xc6, 0xbd, 0x32, 0x1a, 0x0b, 0xbd,
  0xf4, 0xb7, 0xd9, 0x3d, 0xcc, 0xe9, 0x5a, 0xbd, 0xb8, 0xb2, 0xe5, 0x3d,
  0x6b, 0x6a, 0x36, 0x3f, 0x00, 0x42, 0x01, 0x3d, 0x0d, 0xbd, 0x76, 0xbf,
  0x6f, 0x04, 0x29, 0xc0, 0x25, 0x78, 0x38, 0xbf, 0xa9, 0xbd, 0x78, 0x3e,
  0xef, 0x7f, 0x09, 0x3f, 0x7d, 0x81, 0xc8, 0xbf, 0x59, 0x78, 0x4d, 0x3d,
  0x6a, 0x1f, 0x39, 0x3e, 0x46, 0x11, 0x98, 0xbd, 0x6c, 0x35, 0xbd, 0xbd,
  0x42, 0x26, 0x60, 0xbe, 0x88, 0x19, 0xf3, 0xbd, 0x80, 0x1e, 0x4b, 0x3e,
  0xcc, 0x87, 0x2b, 0xbd, 0xa6, 0xd1, 0x56, 0xbd, 0xc5, 0x28, 0x8d, 0xbd,
  0xa3, 0x36, 0x92, 0xbd, 0x6f, 0xc1, 0x27, 0x3e, 0x5e, 0x0c, 0x7e, 0xbe,
  0xd0, 0x01, 0x2c, 0x3d, 0x4f, 0x15, 0xa7, 0xbc, 0x36, 0x91, 0x47, 0xbe,
  0x46, 0x21, 0x20, 0xbd, 0x7c, 0xd6, 0x8f, 0xbd, 0x02, 0x98, 0x47, 0xbe,
  0xcc, 0x64, 0x0e, 0x3e, 0x29, 0xbd, 0xab, 0xbd, 0x8c, 0x09, 0x17, 0xbe,
  0x18, 0x6c, 0x58, 0xbd, 0xd5, 0xc2, 0x97, 0xbe, 0x5b, 0x31, 0xce, 0xbe,
  0xa0, 0xac, 0xf5, 0x3c, 0x8c, 0x9c, 0xb2, 0xbe, 0xf6, 0x45, 0x97, 0xbd,
  0x9e, 0xfb, 0xff, 0xff, 0x04, 0x00, 0x00, 0x00, 0x70, 0x00, 0x00, 0x00,
  0xd2, 0xac, 0xae, 0xbe, 0x4e, 0x5c, 0x0a, 0xbe, 0x82, 0x68, 0x2a, 0x3d,
  0x50, 0x66, 0x5a, 0xbf, 0xea, 0x9d, 0x5d, 0xbf, 0x06, 0xdd, 0x92, 0x3e,
  0x85, 0xc3, 0xda, 0xbe, 0xaf, 0xdf, 0x22, 0x3e, 0x59, 0x39, 0xac, 0xbe,
  0x9f, 0xb6, 0xc9, 0xbe, 0xaf, 0x21, 0x1a, 0x3f, 0x1e, 0xf8, 0x8f, 0x3e,
  0xea, 0x4e, 0xde, 0x3e, 0x93, 0xfa, 0x0a, 0x3f, 0x84, 0xd1, 0x4b, 0xbf,
  0xcc, 0x97, 0x0b, 0x3e, 0x20, 0x0a, 0x69, 0xbe, 0x48, 0xa7, 0x36, 0xbe,
  0x0c, 0x1f, 0xa1, 0x3f, 0x2b, 0x23, 0x92, 0xbf, 0xcb, 0x2b, 0x70, 0xbf,
  0xda, 0xff, 0x30, 0x3e, 0x09, 0xf5, 0x08, 0xbf, 0x02, 0x34, 0x65, 0x3f,
  0x58, 0xe1, 0x57, 0x3e, 0x3b, 0x64, 0x50, 0x3f, 0xd9, 0x82, 0x49, 0xbd,
  0xdb, 0x74, 0xac, 0xbe, 0x1a, 0xfc, 0xff, 0xff, 0x04, 0x00, 0x00, 0x00,
  0xa0, 0x02, 0x00, 0x00, 0x2d, 0x64, 0xa6, 0x3e, 0xaf, 0xb5, 0xa7, 0xbf,
  0x21, 0xd2, 0x3b, 0xbf, 0x18, 0x0f, 0x4c, 0x3f, 0xfc, 0x30, 0xcb, 0xbd,
  0xdf, 0x9c, 0x16, 0x3f, 0xe6, 0x7c, 0x0d, 0x3d, 0xd2, 0x5e, 0x4a, 0x3f,
  0x04, 0xb7, 0x14, 0x3e, 0x7e, 0x9f, 0x8d, 0x3f, 0x8f, 0xcf, 0xc2, 0xbf,
  0x47, 0x44, 0x07, 0x3f, 0x8d, 0xb0, 0xc9, 0xbe, 0x4b, 0xa8, 0xae, 0xbe,
  0x00, 0x18, 0x4d, 0xba, 0x10, 0x59, 0x4f, 0x3d, 0x1c, 0x2c, 0xdb, 0xbe,
  0x56, 0xf9, 0xf1, 0xbe, 0xf9, 0x7d, 0xcd, 0xbe, 0x05, 0x7a, 0xe7, 0xbe,
  0x00, 0xaf, 0xb9, 0xba, 0x7e, 0x4c, 0xd0, 0xbe, 0x70, 0x4e, 0x2e, 0x3d,
  0xa0, 0xd3, 0xb5, 0x3c, 0x28, 0xfc, 0xf6, 0x3d, 0xba, 0xdb, 0x10, 0xbe,
  0x50, 0x17, 0x8b, 0x3d, 0xea, 0x07, 0xdc, 0x3e, 0x0a, 0x68, 0xac, 0xbe,
  0xf8, 0x25, 0x16, 0x40, 0xdd, 0x6d, 0xf2, 0x3f, 0x66, 0x57, 0x7b, 0x3f,
  0x08, 0x61, 0xa7, 0x3e, 0xc9, 0x3a, 0x12, 0xbf, 0x04, 0x5b, 0xf5, 0xbe,
  0x35, 0xdb, 0xb7, 0xbe, 0xc9, 0xd9, 0xd0, 0xbe, 0xfc, 0xe0, 0x49, 0x3f,
  0x70, 0x2b, 0xc4, 0x3f, 0x1e, 0x89, 0x61, 0x3e, 0x2a, 0x1d, 0x17, 0xbe,
  0x3f, 0xc0, 0xb2, 0xbe, 0x1b, 0x96, 0xca, 0x3e, 0x5a, 0x9e, 0x8f, 0x3f,
  0x7a, 0x94, 0xa8, 0x3f, 0x69, 0x5e, 0x0d, 0x3f, 0xf0, 0x3d, 0xa4, 0x3e,
  0xaa, 0x81, 0xd8, 0xbe, 0xc4, 0xc8, 0xd5, 0x3d, 0xca, 0x19, 0x50, 0xbf,
  0x74, 0xf2, 0x54, 0x3e, 0x76, 0x71, 0xe1, 0xbe, 0x88, 0xff, 0x9c, 0x3f,
  0xf9, 0xbe, 0xbd, 0x3e, 0x6b, 0x7d, 0x73, 0x3d, 0xb4, 0x6b, 0x91, 0x3e,
  0x78, 0x71, 0x7a, 0x3e, 0xf8, 0x75, 0xf1, 0xbe, 0xde, 0x7a, 0x18, 0xbf,
  0x32, 0xd9, 0x6f, 0xbf, 0x60, 0xb6, 0x7d, 0x3e, 0xcd, 0x0a, 0xb2, 0x3d,
  0x95, 0xd2, 0x12, 0x3f, 0xce, 0x86, 0x59, 0x3f, 0x30, 0x5c, 0xc5, 0xbc,
  0x4f, 0x3a, 0xac, 0xbf, 0x2b, 0x34, 0xf3, 0x3d, 0xc3, 0xc9, 0x97, 0xbe,
  0xd9, 0xf8, 0x33, 0x3f, 0xec, 0xa8, 0xb3, 0xbe, 0x9d, 0x3b, 0xea, 0xbd,
  0x66, 0x76, 0x06, 0xbf, 0xb5, 0x28, 0x2c, 0xbe, 0x80, 0x5a, 0x0d, 0x3e,
  0xab, 0x15, 0xd2, 0xbe, 0x02, 0xa5, 0x02, 0x3f, 0x7c, 0x7e, 0x8e, 0x3e,
  0x6e, 0x1f, 0x0f, 0x3f, 0x48, 0xaa, 0x55, 0x3e, 0xda, 0x73, 0x88, 0x3f,
  0x83, 0x48, 0x36, 0x3e, 0xc8, 0xaa, 0x2b, 0xbe, 0x5b, 0x3c, 0x56, 0x3e,
  0xb5, 0xe3, 0x00, 0xbf, 0x34, 0x87, 0x87, 0x3e, 0xb6, 0x49, 0x31, 0xbf,
  0x70, 0xff, 0xb5, 0xbd, 0xba, 0x58, 0x9b, 0x3d, 0xf8, 0xdf, 0x55, 0x3e,
  0xa2, 0x44, 0x0c, 0x3f, 0x92, 0x3a, 0x04, 0xbe, 0xe0, 0x29, 0xe0, 0xbc,
  0xd6, 0xc4, 0xa3, 0x3e, 0xca, 0xec, 0x96, 0x3f, 0xa5, 0xad, 0xac, 0xbe,
  0x10, 0xd8, 0x41, 0x3e, 0x5b, 0xce, 0xf3, 0xbe, 0x35, 0x30, 0xab, 0xbe,
  0x13, 0x3e, 0x71, 0xbe, 0x1e, 0x22, 0x40, 0x3f, 0x59, 0xfa, 0x3d, 0x3f,
  0x5f, 0x90, 0x6a, 0x3f, 0x2c, 0xb2, 0xbc, 0xbe, 0xc2, 0x58, 0x75, 0xbd,
  0x8b, 0xae, 0x5b, 0xbe, 0x96, 0x79, 0x0e, 0xbf, 0x28, 0x25, 0xe1, 0x3e,
  0xa2, 0xeb, 0x55, 0xbf, 0x57, 0x32, 0x72, 0x3f, 0x2a, 0x21, 0x82, 0x3f,
  0x40, 0x55, 0x20, 0x3f, 0xb3, 0xa0, 0x85, 0x3e, 0x49, 0x42, 0x9c, 0xbe,
  0x2c, 0x07, 0x69, 0xbf, 0x38, 0xac, 0x03, 0xbe, 0x52, 0x9d, 0x58, 0xbe,
  0xf4, 0xd5, 0x2f, 0x3e, 0xc1, 0x24, 0x70, 0x3e, 0x0a, 0x6d, 0xaf, 0xbe,
  0xaa, 0x5c, 0x1c, 0xbf, 0x3d, 0xb9, 0xe9, 0xbe, 0x01, 0x4d, 0x43, 0xbf,
  0xfc, 0x4d, 0x99, 0xbf, 0x8b, 0x4d, 0xda, 0x3f, 0x68, 0xc7, 0x8d, 0x3f,
  0xe1, 0xf3, 0xde, 0xbd, 0x50, 0x87, 0x9c, 0x3e, 0xa0, 0x48, 0x9c, 0xbe,
  0xde, 0x83, 0x03, 0xbe, 0xd6, 0x64, 0x8b, 0x3e, 0x0c, 0x6b, 0xa9, 0xbe,
  0x4c, 0x74, 0x88, 0xbe, 0x80, 0x1c, 0x31, 0xbb, 0x6c, 0xb6, 0x97, 0xbe,
  0x80, 0x22, 0x13, 0x3e, 0x34, 0xe2, 0x01, 0x3e, 0x0e, 0xe8, 0x95, 0xbe,
  0x2f, 0x71, 0xcc, 0xbe, 0xfc, 0xeb, 0xe7, 0xbd, 0x8e, 0x12, 0x07, 0xbe,
  0xa9, 0xcc, 0xd1, 0x3e, 0x74, 0xf1, 0x8b, 0xbe, 0x3b, 0x66, 0x02, 0x3f,
  0x50, 0x3d, 0x18, 0xbf, 0xf8, 0x7b, 0x83, 0xbe, 0x64, 0xf7, 0xdb, 0x3e,
  0x92, 0x09, 0xbe, 0x3e, 0x26, 0x01, 0x4e, 0xbf, 0x00, 0x9e, 0x65, 0xbd,
  0xfe, 0x64, 0x9d, 0x3e, 0xe3, 0x28, 0xc0, 0x3e, 0x23, 0x46, 0xc2, 0x3e,
  0xd1, 0x14, 0x00, 0x3f, 0x50, 0x57, 0x25, 0x3d, 0x60, 0x52, 0x0e, 0x3e,
  0x82, 0x0c, 0xce, 0x3e, 0x2e, 0xbf, 0x1e, 0x3e, 0xc0, 0x3d, 0x2a, 0x3e,
  0xe6, 0xf0, 0x16, 0xbe, 0xbd, 0x65, 0x87, 0xbd, 0x0e, 0x46, 0xed, 0xbd,
  0x98, 0x31, 0xa7, 0x3e, 0xfc, 0x28, 0x54, 0x3e, 0xcb, 0x5c, 0xe6, 0xbe,
  0x13, 0x62, 0xd4, 0xbe, 0xe4, 0x97, 0x1b, 0x3d, 0x87, 0x16, 0xfb, 0xbc,
  0xce, 0x26, 0xa4, 0xbe, 0xc6, 0xfe, 0xff, 0xff, 0x04, 0x00, 0x00, 0x00,
  0x0c, 0x00, 0x00, 0x00, 0xff, 0xff, 0xff, 0xff, 0x05, 0x00, 0x00, 0x00,
  0x0e, 0x00, 0x00, 0x00, 0xde, 0xfe, 0xff, 0xff, 0x04, 0x00, 0x00, 0x00,
  0x38, 0x00, 0x00, 0x00, 0xfd, 0x7b, 0x9e, 0xbc, 0x64, 0x30, 0xa8, 0x3e,
  0xdf, 0xf2, 0x4a, 0x3e, 0xbf, 0xa5, 0x47, 0x3e, 0x00, 0x00, 0x00, 0x00,
  0x02, 0x2b, 0x67, 0xbd, 0x2e, 0x7e, 0x9d, 0x3d, 0x06, 0x44, 0x03, 0xba,
  0x00, 0x00, 0x00, 0x00, 0x98, 0xc0, 0x49, 0x3d, 0xba, 0x5b, 0x9b, 0x3e,
  0x97, 0x99, 0xd1, 0xbd, 0x3e, 0x33, 0x03, 0x3e, 0x3e, 0xe0, 0x3e, 0xbd,
  0x22, 0xff, 0xff, 0xff, 0x04, 0x00, 0x00, 0x00, 0x30, 0x00, 0x00, 0x00,
  0xa2, 0xb0, 0x92, 0xbc, 0x00, 0x00, 0x00, 0x00, 0x71, 0xb5, 0xae, 0x3c,
  0x99, 0x91, 0x91, 0x3e, 0x27, 0x36, 0xbf, 0x3e, 0xea, 0xc6, 0x94, 0xbd,
  0x2b, 0x78, 0xd4, 0xbb, 0x4a, 0x51, 0x99, 0x3d, 0xe4, 0xfc, 0x00, 0x3e,
  0x00, 0x00, 0x00, 0x00, 0xed, 0x43, 0x00, 0xbd, 0x42, 0x3b, 0xa1, 0x3b,
  0xf8, 0xf3, 0xff, 0xff, 0xfc, 0xf3, 0xff, 0xff, 0x0f, 0x00, 0x00, 0x00,
  0x4d, 0x4c, 0x49, 0x52, 0x20, 0x43, 0x6f, 0x6e, 0x76, 0x65, 0x72, 0x74,
  0x65, 0x64, 0x2e, 0x00, 0x01, 0x00, 0x00, 0x00, 0x14, 0x00, 0x00, 0x00,
  0x00, 0x00, 0x0e, 0x00, 0x18, 0x00, 0x14, 0x00, 0x10, 0x00, 0x0c, 0x00,
  0x08, 0x00, 0x04, 0x00, 0x0e, 0x00, 0x00, 0x00, 0x14, 0x00, 0x00, 0x00,
  0x1c, 0x00, 0x00, 0x00, 0xb0, 0x02, 0x00, 0x00, 0xb4, 0x02, 0x00, 0x00,
  0xb8, 0x02, 0x00, 0x00, 0x04, 0x00, 0x00, 0x00, 0x6d, 0x61, 0x69, 0x6e,
  0x00, 0x00, 0x00, 0x00, 0x0b, 0x00, 0x00, 0x00, 0x68, 0x02, 0x00, 0x00,
  0x04, 0x02, 0x00, 0x00, 0xcc, 0x01, 0x00, 0x00, 0x90, 0x01, 0x00, 0x00,
  0x40, 0x01, 0x00, 0x00, 0x18, 0x01, 0x00, 0x00, 0xe8, 0x00, 0x00, 0x00,
  0xa0, 0x00, 0x00, 0x00, 0x78, 0x00, 0x00, 0x00, 0x40, 0x00, 0x00, 0x00,
  0x04, 0x00, 0x00, 0x00, 0x32, 0xfe, 0xff, 0xff, 0x1c, 0x00, 0x00, 0x00,
  0x00, 0x00, 0x00, 0x09, 0x1c, 0x00, 0x00, 0x00, 0x20, 0x00, 0x00, 0x00,
  0x05, 0x00, 0x00, 0x00, 0x00, 0x00, 0x06, 0x00, 0x08, 0x00, 0x04, 0x00,
  0x06, 0x00, 0x00, 0x00, 0x00, 0x00, 0x80, 0x3f, 0x01, 0x00, 0x00, 0x00,
  0x15, 0x00, 0x00, 0x00, 0x01, 0x00, 0x00, 0x00, 0x14, 0x00, 0x00, 0x00,
  0x6a, 0xfe, 0xff, 0xff, 0x14, 0x00, 0x00, 0x00, 0x00, 0x00, 0x00, 0x08,
  0x10, 0x00, 0x00, 0x00, 0x14, 0x00, 0x00, 0x00, 0x04, 0x00, 0x00, 0x00,
  0xd0, 0xf4, 0xff, 0xff, 0x01, 0x00, 0x00, 0x00, 0x14, 0x00, 0x00, 0x00,
  0x03, 0x00, 0x00, 0x00, 0x13, 0x00, 0x00, 0x00, 0x06, 0x00, 0x00, 0x00,
  0x07, 0x00, 0x00, 0x00, 0xce, 0xfe, 0xff, 0xff, 0x0c, 0x00, 0x00, 0x00,
  0x10, 0x00, 0x00, 0x00, 0x02, 0x00, 0x00, 0x00, 0x01, 0x00, 0x00, 0x00,
  0x13, 0x00, 0x00, 0x00, 0x02, 0x00, 0x00, 0x00, 0x12, 0x00, 0x00, 0x00,
  0x09, 0x00, 0x00, 0x00, 0xc2, 0xfe, 0xff, 0xff, 0x14, 0x00, 0x00, 0x00,
  0x00, 0x00, 0x00, 0x01, 0x20, 0x00, 0x00, 0x00, 0x24, 0x00, 0x00, 0x00,
  0x01, 0x00, 0x00, 0x00, 0xb4, 0xfe, 0xff, 0xff, 0x00, 0x00, 0x00, 0x01,
  0x01, 0x00, 0x00, 0x00, 0x01, 0x00, 0x00, 0x00, 0x00, 0x00, 0x00, 0x01,
  0x01, 0x00, 0x00, 0x00, 0x12, 0x00, 0x00, 0x00, 0x03, 0x00, 0x00, 0x00,
  0x11, 0x00, 0x00, 0x00, 0x04, 0x00, 0x00, 0x00, 0x01, 0x00, 0x00, 0x00,
  0xa6, 0xfe, 0xff, 0xff, 0x10, 0x00, 0x00, 0x00, 0x00, 0x00, 0x00, 0x34,
  0x0c, 0x00, 0x00, 0x00, 0x10, 0x00, 0x00, 0x00, 0x68, 0xf5, 0xff, 0xff,
  0x01, 0x00, 0x00, 0x00, 0x11, 0x00, 0x00, 0x00, 0x02, 0x00, 0x00, 0x00,
  0x10, 0x00, 0x00, 0x00, 0x0a, 0x00, 0x00, 0x00, 0x62, 0xff, 0xff, 0xff,
  0x0c, 0x00, 0x00, 0x00, 0x10, 0x00, 0x00, 0x00, 0x02, 0x00, 0x00, 0x00,
  0x01, 0x00, 0x00, 0x00, 0x10, 0x00, 0x00, 0x00, 0x02, 0x00, 0x00, 0x00,
  0x0f, 0x00, 0x00, 0x00, 0x03, 0x00, 0x00, 0x00, 0x56, 0xff, 0xff, 0xff,
  0x24, 0x00, 0x00, 0x00, 0x00, 0x00, 0x00, 0x05, 0x30, 0x00, 0x00, 0x00,
  0x34, 0x00, 0x00, 0x00, 0x03, 0x00, 0x00, 0x00, 0x00, 0x00, 0x0e, 0x00,
  0x14, 0x00, 0x00, 0x00, 0x10, 0x00, 0x0c, 0x00, 0x08, 0x00, 0x04, 0x00,
  0x0e, 0x00, 0x00, 0x00, 0x01, 0x00, 0x00, 0x00, 0x02, 0x00, 0x00, 0x00,
  0x01, 0x00, 0x00, 0x00, 0x01, 0x00, 0x00, 0x00, 0x01, 0x00, 0x00, 0x00,
  0x0f, 0x00, 0x00, 0x00, 0x01, 0x00, 0x00, 0x00, 0x0e, 0x00, 0x00, 0x00,
  0x42, 0xff, 0xff, 0xff, 0x10, 0x00, 0x00, 0x00, 0x00, 0x00, 0x00, 0x34,
  0x0c, 0x00, 0x00, 0x00, 0x10, 0x00, 0x00, 0x00, 0x04, 0xf6, 0xff, 0xff,
  0x01, 0x00, 0x00, 0x00, 0x0e, 0x00, 0x00, 0x00, 0x02, 0x00, 0x00, 0x00,
  0x0d, 0x00, 0x00, 0x00, 0x08, 0x00, 0x00, 0x00, 0x00, 0x00, 0x0a, 0x00,
  0x10, 0x00, 0x0c, 0x00, 0x08, 0x00, 0x04, 0x00, 0x0a, 0x00, 0x00, 0x00,
  0x0c, 0x00, 0x00, 0x00, 0x10, 0x00, 0x00, 0x00, 0x02, 0x00, 0x00, 0x00,
  0x01, 0x00, 0x00, 0x00, 0x0d, 0x00, 0x00, 0x00, 0x02, 0x00, 0x00, 0x00,
  0x0c, 0x00, 0x00, 0x00, 0x03, 0x00, 0x00, 0x00, 0x00, 0x00, 0x0e, 0x00,
  0x18, 0x00, 0x14, 0x00, 0x10, 0x00, 0x0c, 0x00, 0x0b, 0x00, 0x04, 0x00,
  0x0e, 0x00, 0x00, 0x00, 0x20, 0x00, 0x00, 0x00, 0x00, 0x00, 0x00, 0x01,
  0x2c, 0x00, 0x00, 0x00, 0x30, 0x00, 0x00, 0x00, 0x01, 0x00, 0x00, 0x00,
  0x0c, 0x00, 0x14, 0x00, 0x13, 0x00, 0x0c, 0x00, 0x08, 0x00, 0x07, 0x00,
  0x0c, 0x00, 0x00, 0x00, 0x00, 0x00, 0x00, 0x01, 0x01, 0x00, 0x00, 0x00,
  0x01, 0x00, 0x00, 0x00, 0x00, 0x00, 0x00, 0x01, 0x01, 0x00, 0x00, 0x00,
  0x0c, 0x00, 0x00, 0x00, 0x03, 0x00, 0x00, 0x00, 0x0b, 0x00, 0x00, 0x00,
  0x05, 0x00, 0x00, 0x00, 0x02, 0x00, 0x00, 0x00, 0x00, 0x00, 0x0e, 0x00,
  0x14, 0x00, 0x00, 0x00, 0x10, 0x00, 0x0c, 0x00, 0x0b, 0x00, 0x04, 0x00,
  0x0e, 0x00, 0x00, 0x00, 0x10, 0x00, 0x00, 0x00, 0x00, 0x00, 0x00, 0x34,
  0x0c, 0x00, 0x00, 0x00, 0x10, 0x00, 0x00, 0x00, 0xd0, 0xf6, 0xff, 0xff,
  0x01, 0x00, 0x00, 0x00, 0x0b, 0x00, 0x00, 0x00, 0x02, 0x00, 0x00, 0x00,
  0x00, 0x00, 0x00, 0x00, 0x0a, 0x00, 0x00, 0x00, 0x01, 0x00, 0x00, 0x00,
  0x15, 0x00, 0x00, 0x00, 0x01, 0x00, 0x00, 0x00, 0x00, 0x00, 0x00, 0x00,
  0x16, 0x00, 0x00, 0x00, 0xd8, 0x08, 0x00, 0x00, 0x84, 0x08, 0x00, 0x00,
  0x30, 0x08, 0x00, 0x00, 0xf0, 0x07, 0x00, 0x00, 0x90, 0x07, 0x00, 0x00,
  0x48, 0x07, 0x00, 0x00, 0x08, 0x07, 0x00, 0x00, 0xcc, 0x06, 0x00, 0x00,
  0x90, 0x06, 0x00, 0x00, 0x50, 0x06, 0x00, 0x00, 0x14, 0x06, 0x00, 0x00,
  0x94, 0x05, 0x00, 0x00, 0xbc, 0x04, 0x00, 0x00, 0x10, 0x04, 0x00, 0x00,
  0x8c, 0x03, 0x00, 0x00, 0x14, 0x03, 0x00, 0x00, 0x9c, 0x02, 0x00, 0x00,
  0x1c, 0x02, 0x00, 0x00, 0x3c, 0x01, 0x00, 0x00, 0xdc, 0x00, 0x00, 0x00,
  0x60, 0x00, 0x00, 0x00, 0x04, 0x00, 0x00, 0x00, 0x96, 0xf7, 0xff, 0xff,
  0x00, 0x00, 0x00, 0x01, 0x14, 0x00, 0x00, 0x00, 0x1c, 0x00, 0x00, 0x00,
  0x1c, 0x00, 0x00, 0x00, 0x16, 0x00, 0x00, 0x00, 0x34, 0x00, 0x00, 0x00,
  0x02, 0x00, 0x00, 0x00, 0xff, 0xff, 0xff, 0xff, 0x05, 0x00, 0x00, 0x00,
  0x7c, 0xf7, 0xff, 0xff, 0x1b, 0x00, 0x00, 0x00, 0x53, 0x74, 0x61, 0x74,
  0x65, 0x66, 0x75, 0x6c, 0x50, 0x61, 0x72, 0x74, 0x69, 0x74, 0x69, 0x6f,
  0x6e, 0x65, 0x64, 0x43, 0x61, 0x6c, 0x6c, 0x5f, 0x31, 0x3a, 0x30, 0x00,
  0x02, 0x00, 0x00, 0x00, 0x01, 0x00, 0x00, 0x00, 0x05, 0x00, 0x00, 0x00,
  0xee, 0xf7, 0xff, 0xff, 0x00, 0x00, 0x00, 0x01, 0x14, 0x00, 0x00, 0x00,
  0x1c, 0x00, 0x00, 0x00, 0x1c, 0x00, 0x00, 0x00, 0x15, 0x00, 0x00, 0x00,
  0x54, 0x00, 0x00, 0x00, 0x02, 0x00, 0x00, 0x00, 0xff, 0xff, 0xff, 0xff,
  0x05, 0x00, 0x00, 0x00, 0xd4, 0xf7, 0xff, 0xff, 0x38, 0x00, 0x00, 0x00,
  0x73, 0x65, 0x71, 0x75, 0x65, 0x6e, 0x74, 0x69, 0x61, 0x6c, 0x5f, 0x31,
  0x2f, 0x64, 0x65, 0x6e, 0x73, 0x65, 0x5f, 0x31, 0x2f, 0x4d, 0x61, 0x74,
  0x4d, 0x75, 0x6c, 0x3b, 0x73, 0x65, 0x71, 0x75, 0x65, 0x6e, 0x74, 0x69,
  0x61, 0x6c, 0x5f, 0x31, 0x2f, 0x64, 0x65, 0x6e, 0x73, 0x65, 0x5f, 0x31,
  0x2f, 0x42, 0x69, 0x61, 0x73, 0x41, 0x64, 0x64, 0x00, 0x00, 0x00, 0x00,
  0x02, 0x00, 0x00, 0x00, 0x01, 0x00, 0x00, 0x00, 0x05, 0x00, 0x00, 0x00,
  0x66, 0xf8, 0xff, 0xff, 0x00, 0x00, 0x00, 0x01, 0x14, 0x00, 0x00, 0x00,
  0x1c, 0x00, 0x00, 0x00, 0x1c, 0x00, 0x00, 0x00, 0x14, 0x00, 0x00, 0x00,
  0x38, 0x00, 0x00, 0x00, 0x02, 0x00, 0x00, 0x00, 0xff, 0xff, 0xff, 0xff,
  0x3c, 0x00, 0x00, 0x00, 0x4c, 0xf8, 0xff, 0xff, 0x1e, 0x00, 0x00, 0x00,
  0x73, 0x65, 0x71, 0x75, 0x65, 0x6e, 0x74, 0x69, 0x61, 0x6c, 0x5f, 0x31,
  0x2f, 0x66, 0x6c, 0x61, 0x74, 0x74, 0x65, 0x6e, 0x5f, 0x31, 0x2f, 0x52,
  0x65, 0x73, 0x68, 0x61, 0x70, 0x65, 0x00, 0x00, 0x02, 0x00, 0x00, 0x00,
  0x01, 0x00, 0x00, 0x00, 0x3c, 0x00, 0x00, 0x00, 0xc2, 0xf8, 0xff, 0xff,
  0x00, 0x00, 0x00, 0x01, 0x14, 0x00, 0x00, 0x00, 0x24, 0x00, 0x00, 0x00,
  0x24, 0x00, 0x00, 0x00, 0x13, 0x00, 0x00, 0x00, 0xb0, 0x00, 0x00, 0x00,
  0x04, 0x00, 0x00, 0x00, 0xff, 0xff, 0xff, 0xff, 0x01, 0x00, 0x00, 0x00,
  0x05, 0x00, 0x00, 0x00, 0x0c, 0x00, 0x00, 0x00, 0xb0, 0xf8, 0xff, 0xff,
  0x8d, 0x00, 0x00, 0x00, 0x73, 0x65, 0x71, 0x75, 0x65, 0x6e, 0x74, 0x69,
  0x61, 0x6c, 0x5f, 0x31, 0x2f, 0x63, 0x6f, 0x6e, 0x76, 0x31, 0x64, 0x5f,
  0x31, 0x5f, 0x32, 0x2f, 0x52, 0x65, 0x6c, 0x75, 0x3b, 0x73, 0x65, 0x71,
  0x75, 0x65, 0x6e, 0x74, 0x69, 0x61, 0x6c, 0x5f, 0x31, 0x2f, 0x63, 0x6f,
  0x6e, 0x76, 0x31, 0x64, 0x5f, 0x31, 0x5f, 0x32, 0x2f, 0x42, 0x69, 0x61,
  0x73, 0x41, 0x64, 0x64, 0x3b, 0x73, 0x65, 0x71, 0x75, 0x65, 0x6e, 0x74,
  0x69, 0x61, 0x6c, 0x5f, 0x31, 0x2f, 0x63, 0x6f, 0x6e, 0x76, 0x31, 0x64,
  0x5f, 0x31, 0x5f, 0x32, 0x2f, 0x63, 0x6f, 0x6e, 0x76, 0x6f, 0x6c, 0x75,
  0x74, 0x69, 0x6f, 0x6e, 0x2f, 0x53, 0x71, 0x75, 0x65, 0x65, 0x7a, 0x65,
  0x3b, 0x3b, 0x73, 0x65, 0x71, 0x75, 0x65, 0x6e, 0x74, 0x69, 0x61, 0x6c,
  0x5f, 0x31, 0x2f, 0x63, 0x6f, 0x6e, 0x76, 0x31, 0x64, 0x5f, 0x31, 0x5f,
  0x32, 0x2f, 0x63, 0x6f, 0x6e, 0x76, 0x6f, 0x6c, 0x75, 0x74, 0x69, 0x6f,
  0x6e, 0x00, 0x00, 0x00, 0x04, 0x00, 0x00, 0x00, 0x01, 0x00, 0x00, 0x00,
  0x01, 0x00, 0x00, 0x00, 0x05, 0x00, 0x00, 0x00, 0x0c, 0x00, 0x00, 0x00,
  0x9e, 0xf9, 0xff, 0xff, 0x00, 0x00, 0x00, 0x01, 0x14, 0x00, 0x00, 0x00,
  0x24, 0x00, 0x00, 0x00, 0x24, 0x00, 0x00, 0x00, 0x12, 0x00, 0x00, 0x00,
  0x50, 0x00, 0x00, 0x00, 0x04, 0x00, 0x00, 0x00, 0xff, 0xff, 0xff, 0xff,
  0x01, 0x00, 0x00, 0x00, 0x05, 0x00, 0x00, 0x00, 0x0e, 0x00, 0x00, 0x00,
  0x8c, 0xf9, 0xff, 0xff, 0x2e, 0x00, 0x00, 0x00, 0x73, 0x65, 0x71, 0x75,
  0x65, 0x6e, 0x74, 0x69, 0x61, 0x6c, 0x5f, 0x31, 0x2f, 0x63, 0x6f, 0x6e,
  0x76, 0x31, 0x64, 0x5f, 0x31, 0x5f, 0x32, 0x2f, 0x63, 0x6f, 0x6e, 0x76,
  0x6f, 0x6c, 0x75, 0x74, 0x69, 0x6f, 0x6e, 0x2f, 0x45, 0x78, 0x70, 0x61,
  0x6e, 0x64, 0x44, 0x69, 0x6d, 0x73, 0x00, 0x00, 0x04, 0x00, 0x00, 0x00,
  0x01, 0x00, 0x00, 0x00, 0x01, 0x00, 0x00, 0x00, 0x05, 0x00, 0x00, 0x00,
  0x0e, 0x00, 0x00, 0x00, 0x1a, 0xfa, 0xff, 0xff, 0x00, 0x00, 0x00, 0x01,
  0x14, 0x00, 0x00, 0x00, 0x20, 0x00, 0x00, 0x00, 0x20, 0x00, 0x00, 0x00,
  0x11, 0x00, 0x00, 0x00, 0x4c, 0x00, 0x00, 0x00, 0x03, 0x00, 0x00, 0x00,
  0xff, 0xff, 0xff, 0xff, 0x05, 0x00, 0x00, 0x00, 0x0e, 0x00, 0x00, 0x00,
  0x04, 0xfa, 0xff, 0xff, 0x2e, 0x00, 0x00, 0x00, 0x73, 0x65, 0x71, 0x75,
  0x65, 0x6e, 0x74, 0x69, 0x61, 0x6c, 0x5f, 0x31, 0x2f, 0x6d, 0x61, 0x78,
  0x5f, 0x70, 0x6f, 0x6f, 0x6c, 0x69, 0x6e, 0x67, 0x31, 0x64, 0x5f, 0x31,
  0x2f, 0x4d, 0x61, 0x78, 0x50, 0x6f, 0x6f, 0x6c, 0x31, 0x64, 0x2f, 0x53,
  0x71, 0x75, 0x65, 0x65, 0x7a, 0x65, 0x00, 0x00, 0x03, 0x00, 0x00, 0x00,
  0x01, 0x00, 0x00, 0x00, 0x05, 0x00, 0x00, 0x00, 0x0e, 0x00, 0x00, 0x00,
  0x8e, 0xfa, 0xff, 0xff, 0x00, 0x00, 0x00, 0x01, 0x14, 0x00, 0x00, 0x00,
  0x24, 0x00, 0x00, 0x00, 0x24, 0x00, 0x00, 0x00, 0x10, 0x00, 0x00, 0x00,
  0x48, 0x00, 0x00, 0x00, 0x04, 0x00, 0x00, 0x00, 0xff, 0xff, 0xff, 0xff,
  0x01, 0x00, 0x00, 0x00, 0x05, 0x00, 0x00, 0x00, 0x0e, 0x00, 0x00, 0x00,
  0x7c, 0xfa, 0xff, 0xff, 0x26, 0x00, 0x00, 0x00, 0x73, 0x65, 0x71, 0x75,
  0x65, 0x6e, 0x74, 0x69, 0x61, 0x6c, 0x5f, 0x31, 0x2f, 0x6d, 0x61, 0x78,
  0x5f, 0x70, 0x6f, 0x6f, 0x6c, 0x69, 0x6e, 0x67, 0x31, 0x64, 0x5f, 0x31,
  0x2f, 0x4d, 0x61, 0x78, 0x50, 0x6f, 0x6f, 0x6c, 0x31, 0x64, 0x00, 0x00,
  0x04, 0x00, 0x00, 0x00, 0x01, 0x00, 0x00, 0x00, 0x01, 0x00, 0x00, 0x00,
  0x05, 0x00, 0x00, 0x00, 0x0e, 0x00, 0x00, 0x00, 0x02, 0xfb, 0xff, 0xff,
  0x00, 0x00, 0x00, 0x01, 0x14, 0x00, 0x00, 0x00, 0x24, 0x00, 0x00, 0x00,
  0x24, 0x00, 0x00, 0x00, 0x0f, 0x00, 0x00, 0x00, 0x54, 0x00, 0x00, 0x00,
  0x04, 0x00, 0x00, 0x00, 0xff, 0xff, 0xff, 0xff, 0x01, 0x00, 0x00, 0x00,
  0x05, 0x00, 0x00, 0x00, 0x0e, 0x00, 0x00, 0x00, 0xf0, 0xfa, 0xff, 0xff,
  0x31, 0x00, 0x00, 0x00, 0x73, 0x65, 0x71, 0x75, 0x65, 0x6e, 0x74, 0x69,
  0x61, 0x6c, 0x5f, 0x31, 0x2f, 0x6d, 0x61, 0x78, 0x5f, 0x70, 0x6f, 0x6f,
  0x6c, 0x69, 0x6e, 0x67, 0x31, 0x64, 0x5f, 0x31, 0x2f, 0x4d, 0x61, 0x78,
  0x50, 0x6f, 0x6f, 0x6c, 0x31, 0x64, 0x2f, 0x45, 0x78, 0x70, 0x61, 0x6e,
  0x64, 0x44, 0x69, 0x6d, 0x73, 0x00, 0x00, 0x00, 0x04, 0x00, 0x00, 0x00,
  0x01, 0x00, 0x00, 0x00, 0x01, 0x00, 0x00, 0x00, 0x05, 0x00, 0x00, 0x00,
  0x0e, 0x00, 0x00, 0x00, 0x82, 0xfb, 0xff, 0xff, 0x00, 0x00, 0x00, 0x01,
  0x14, 0x00, 0x00, 0x00, 0x20, 0x00, 0x00, 0x00, 0x20, 0x00, 0x00, 0x00,
  0x0e, 0x00, 0x00, 0x00, 0x80, 0x00, 0x00, 0x00, 0x03, 0x00, 0x00, 0x00,
  0xff, 0xff, 0xff, 0xff, 0x05, 0x00, 0x00, 0x00, 0x0e, 0x00, 0x00, 0x00,
  0x6c, 0xfb, 0xff, 0xff, 0x63, 0x00, 0x00, 0x00, 0x73, 0x65, 0x71, 0x75,
  0x65, 0x6e, 0x74, 0x69, 0x61, 0x6c, 0x5f, 0x31, 0x2f, 0x63, 0x6f, 0x6e,
  0x76, 0x31, 0x64, 0x5f, 0x31, 0x2f, 0x52, 0x65, 0x6c, 0x75, 0x3b, 0x73,
  0x65, 0x71, 0x75, 0x65, 0x6e, 0x74, 0x69, 0x61, 0x6c, 0x5f, 0x31, 0x2f,
  0x63, 0x6f, 0x6e, 0x76, 0x31, 0x64, 0x5f, 0x31, 0x2f, 0x42, 0x69, 0x61,
  0x73, 0x41, 0x64, 0x64, 0x3b, 0x73, 0x65, 0x71, 0x75, 0x65, 0x6e, 0x74,
  0x69, 0x61, 0x6c, 0x5f, 0x31, 0x2f, 0x63, 0x6f, 0x6e, 0x76, 0x31, 0x64,
  0x5f, 0x31, 0x2f, 0x63, 0x6f, 0x6e, 0x76, 0x6f, 0x6c, 0x75, 0x74, 0x69,
  0x6f, 0x6e, 0x2f, 0x53, 0x71, 0x75, 0x65, 0x65, 0x7a, 0x65, 0x3b, 0x00,
  0x03, 0x00, 0x00, 0x00, 0x01, 0x00, 0x00, 0x00, 0x05, 0x00, 0x00, 0x00,
  0x0e, 0x00, 0x00, 0x00, 0x2a, 0xfc, 0xff, 0xff, 0x00, 0x00, 0x00, 0x01,
  0x14, 0x00, 0x00, 0x00, 0x24, 0x00, 0x00, 0x00, 0x24, 0x00, 0x00, 0x00,
  0x0d, 0x00, 0x00, 0x00, 0xa8, 0x00, 0x00, 0x00, 0x04, 0x00, 0x00, 0x00,
  0xff, 0xff, 0xff, 0xff, 0x01, 0x00, 0x00, 0x00, 0x05, 0x00, 0x00, 0x00,
  0x0e, 0x00, 0x00, 0x00, 0x18, 0xfc, 0xff, 0xff, 0x85, 0x00, 0x00, 0x00,
  0x73, 0x65, 0x71, 0x75, 0x65, 0x6e, 0x74, 0x69, 0x61, 0x6c, 0x5f, 0x31,
  0x2f, 0x63, 0x6f, 0x6e, 0x76, 0x31, 0x64, 0x5f, 0x31, 0x2f, 0x52, 0x65,
  0x6c, 0x75, 0x3b, 0x73, 0x65, 0x71, 0x75, 0x65, 0x6e, 0x74, 0x69, 0x61,
  0x6c, 0x5f, 0x31, 0x2f, 0x63, 0x6f, 0x6e, 0x76, 0x31, 0x64, 0x5f, 0x31,
  0x2f, 0x42, 0x69, 0x61, 0x73, 0x41, 0x64, 0x64, 0x3b, 0x73, 0x65, 0x71,
  0x75, 0x65, 0x6e, 0x74, 0x69, 0x61, 0x6c, 0x5f, 0x31, 0x2f, 0x63, 0x6f,
  0x6e, 0x76, 0x31, 0x64, 0x5f, 0x31, 0x2f, 0x63, 0x6f, 0x6e, 0x76, 0x6f,
  0x6c, 0x75, 0x74, 0x69, 0x6f, 0x6e, 0x2f, 0x53, 0x71, 0x75, 0x65, 0x65,
  0x7a, 0x65, 0x3b, 0x3b, 0x73, 0x65, 0x71, 0x75, 0x65, 0x6e, 0x74, 0x69,
  0x61, 0x6c, 0x5f, 0x31, 0x2f, 0x63, 0x6f, 0x6e, 0x76, 0x31, 0x64, 0x5f,
  0x31, 0x2f, 0x63, 0x6f, 0x6e, 0x76, 0x6f, 0x6c, 0x75, 0x74, 0x69, 0x6f,
  0x6e, 0x00, 0x00, 0x00, 0x04, 0x00, 0x00, 0x00, 0x01, 0x00, 0x00, 0x00,
  0x01, 0x00, 0x00, 0x00, 0x05, 0x00, 0x00, 0x00, 0x0e, 0x00, 0x00, 0x00,
  0xfe, 0xfc, 0xff, 0xff, 0x00, 0x00, 0x00, 0x01, 0x14, 0x00, 0x00, 0x00,
  0x24, 0x00, 0x00, 0x00, 0x24, 0x00, 0x00, 0x00, 0x0c, 0x00, 0x00, 0x00,
  0x50, 0x00, 0x00, 0x00, 0x04, 0x00, 0x00, 0x00, 0xff, 0xff, 0xff, 0xff,
  0x01, 0x00, 0x00, 0x00, 0x06, 0x00, 0x00, 0x00, 0x01, 0x00, 0x00, 0x00,
  0xec, 0xfc, 0xff, 0xff, 0x2c, 0x00, 0x00, 0x00, 0x73, 0x65, 0x71, 0x75,
  0x65, 0x6e, 0x74, 0x69, 0x61, 0x6c, 0x5f, 0x31, 0x2f, 0x63, 0x6f, 0x6e,
  0x76, 0x31, 0x64, 0x5f, 0x31, 0x2f, 0x63, 0x6f, 0x6e, 0x76, 0x6f, 0x6c,
  0x75, 0x74, 0x69, 0x6f, 0x6e, 0x2f, 0x45, 0x78, 0x70, 0x61, 0x6e, 0x64,
  0x44, 0x69, 0x6d, 0x73, 0x00, 0x00, 0x00, 0x00, 0x04, 0x00, 0x00, 0x00,
  0x01, 0x00, 0x00, 0x00, 0x01, 0x00, 0x00, 0x00, 0x06, 0x00, 0x00, 0x00,
  0x01, 0x00, 0x00, 0x00, 0x56, 0xfe, 0xff, 0xff, 0x00, 0x00, 0x00, 0x01,
  0x14, 0x00, 0x00, 0x00, 0x14, 0x00, 0x00, 0x00, 0x0b, 0x00, 0x00, 0x00,
  0x00, 0x00, 0x00, 0x02, 0x1c, 0x00, 0x00, 0x00, 0x54, 0xfd, 0xff, 0xff,
  0x0f, 0x00, 0x00, 0x00, 0x61, 0x72, 0x69, 0x74, 0x68, 0x2e, 0x63, 0x6f,
  0x6e, 0x73, 0x74, 0x61, 0x6e, 0x74, 0x39, 0x00, 0x00, 0x00, 0x00, 0x00,
  0x8e, 0xfe, 0xff, 0xff, 0x00, 0x00, 0x00, 0x01, 0x14, 0x00, 0x00, 0x00,
  0x14, 0x00, 0x00, 0x00, 0x0a, 0x00, 0x00, 0x00, 0x00, 0x00, 0x00, 0x02,
  0x1c, 0x00, 0x00, 0x00, 0x8c, 0xfd, 0xff, 0xff, 0x0f, 0x00, 0x00, 0x00,
  0x61, 0x72, 0x69, 0x74, 0x68, 0x2e, 0x63, 0x6f, 0x6e, 0x73, 0x74, 0x61,
  0x6e, 0x74, 0x38, 0x00, 0x01, 0x00, 0x00, 0x00, 0x02, 0x00, 0x00, 0x00,
  0xca, 0xfe, 0xff, 0xff, 0x00, 0x00, 0x00, 0x01, 0x14, 0x00, 0x00, 0x00,
  0x14, 0x00, 0x00, 0x00, 0x09, 0x00, 0x00, 0x00, 0x00, 0x00, 0x00, 0x02,
  0x1c, 0x00, 0x00, 0x00, 0xc8, 0xfd, 0xff, 0xff, 0x0f, 0x00, 0x00, 0x00,
  0x61, 0x72, 0x69, 0x74, 0x68, 0x2e, 0x63, 0x6f, 0x6e, 0x73, 0x74, 0x61,
  0x6e, 0x74, 0x37, 0x00, 0x00, 0x00, 0x00, 0x00, 0x76, 0xfe, 0xff, 0xff,
  0x00, 0x00, 0x00, 0x01, 0x10, 0x00, 0x00, 0x00, 0x10, 0x00, 0x00, 0x00,
  0x08, 0x00, 0x00, 0x00, 0x1c, 0x00, 0x00, 0x00, 0xfc, 0xfd, 0xff, 0xff,
  0x0f, 0x00, 0x00, 0x00, 0x61, 0x72, 0x69, 0x74, 0x68, 0x2e, 0x63, 0x6f,
  0x6e, 0x73, 0x74, 0x61, 0x6e, 0x74, 0x36, 0x00, 0x01, 0x00, 0x00, 0x00,
  0x05, 0x00, 0x00, 0x00, 0xae, 0xfe, 0xff, 0xff, 0x00, 0x00, 0x00, 0x01,
  0x10, 0x00, 0x00, 0x00, 0x10, 0x00, 0x00, 0x00, 0x07, 0x00, 0x00, 0x00,
  0x1c, 0x00, 0x00, 0x00, 0x34, 0xfe, 0xff, 0xff, 0x0f, 0x00, 0x00, 0x00,
  0x61, 0x72, 0x69, 0x74, 0x68, 0x2e, 0x63, 0x6f, 0x6e, 0x73, 0x74, 0x61,
  0x6e, 0x74, 0x35, 0x00, 0x02, 0x00, 0x00, 0x00, 0x05, 0x00, 0x00, 0x00,
  0x3c, 0x00, 0x00, 0x00, 0xea, 0xfe, 0xff, 0xff, 0x00, 0x00, 0x00, 0x01,
  0x10, 0x00, 0x00, 0x00, 0x10, 0x00, 0x00, 0x00, 0x06, 0x00, 0x00, 0x00,
  0x1c, 0x00, 0x00, 0x00, 0x70, 0xfe, 0xff, 0xff, 0x0f, 0x00, 0x00, 0x00,
  0x61, 0x72, 0x69, 0x74, 0x68, 0x2e, 0x63, 0x6f, 0x6e, 0x73, 0x74, 0x61,
  0x6e, 0x74, 0x34, 0x00, 0x04, 0x00, 0x00, 0x00, 0x0e, 0x00, 0x00, 0x00,
  0x01, 0x00, 0x00, 0x00, 0x02, 0x00, 0x00, 0x00, 0x01, 0x00, 0x00, 0x00,
  0x2e, 0xff, 0xff, 0xff, 0x00, 0x00, 0x00, 0x01, 0x10, 0x00, 0x00, 0x00,
  0x10, 0x00, 0x00, 0x00, 0x05, 0x00, 0x00, 0x00, 0x1c, 0x00, 0x00, 0x00,
  0xb4, 0xfe, 0xff, 0xff, 0x0f, 0x00, 0x00, 0x00, 0x61, 0x72, 0x69, 0x74,
  0x68, 0x2e, 0x63, 0x6f, 0x6e, 0x73, 0x74, 0x61, 0x6e, 0x74, 0x33, 0x00,
  0x04, 0x00, 0x00, 0x00, 0x0c, 0x00, 0x00, 0x00, 0x01, 0x00, 0x00, 0x00,
  0x01, 0x00, 0x00, 0x00, 0x0e, 0x00, 0x00, 0x00, 0x00, 0x00, 0x16, 0x00,
  0x1c, 0x00, 0x18, 0x00, 0x17, 0x00, 0x10, 0x00, 0x0c, 0x00, 0x08, 0x00,
  0x00, 0x00, 0x00, 0x00, 0x00, 0x00, 0x07, 0x00, 0x16, 0x00, 0x00, 0x00,
  0x00, 0x00, 0x00, 0x01, 0x14, 0x00, 0x00, 0x00, 0x14, 0x00, 0x00, 0x00,
  0x04, 0x00, 0x00, 0x00, 0x00, 0x00, 0x00, 0x02, 0x1c, 0x00, 0x00, 0x00,
  0x14, 0xff, 0xff, 0xff, 0x0f, 0x00, 0x00, 0x00, 0x61, 0x72, 0x69, 0x74,
  0x68, 0x2e, 0x63, 0x6f, 0x6e, 0x73, 0x74, 0x61, 0x6e, 0x74, 0x32, 0x00,
  0x01, 0x00, 0x00, 0x00, 0x03, 0x00, 0x00, 0x00, 0xc6, 0xff, 0xff, 0xff,
  0x00, 0x00, 0x00, 0x01, 0x10, 0x00, 0x00, 0x00, 0x10, 0x00, 0x00, 0x00,
  0x03, 0x00, 0x00, 0x00, 0x1c, 0x00, 0x00, 0x00, 0x4c, 0xff, 0xff, 0xff,
  0x0f, 0x00, 0x00, 0x00, 0x61, 0x72, 0x69, 0x74, 0x68, 0x2e, 0x63, 0x6f,
  0x6e, 0x73, 0x74, 0x61, 0x6e, 0x74, 0x31, 0x00, 0x01, 0x00, 0x00, 0x00,
  0x0e, 0x00, 0x00, 0x00, 0x00, 0x00, 0x16, 0x00, 0x18, 0x00, 0x14, 0x00,
  0x00, 0x00, 0x10, 0x00, 0x0c, 0x00, 0x08, 0x00, 0x00, 0x00, 0x00, 0x00,
  0x00, 0x00, 0x07, 0x00, 0x16, 0x00, 0x00, 0x00, 0x00, 0x00, 0x00, 0x01,
  0x10, 0x00, 0x00, 0x00, 0x10, 0x00, 0x00, 0x00, 0x02, 0x00, 0x00, 0x00,
  0x1c, 0x00, 0x00, 0x00, 0x9c, 0xff, 0xff, 0xff, 0x0e, 0x00, 0x00, 0x00,
  0x61, 0x72, 0x69, 0x74, 0x68, 0x2e, 0x63, 0x6f, 0x6e, 0x73, 0x74, 0x61,
  0x6e, 0x74, 0x00, 0x00, 0x01, 0x00, 0x00, 0x00, 0x0c, 0x00, 0x00, 0x00,
  0x00, 0x00, 0x16, 0x00, 0x1c, 0x00, 0x18, 0x00, 0x00, 0x00, 0x14, 0x00,
  0x10, 0x00, 0x0c, 0x00, 0x00, 0x00, 0x00, 0x00, 0x08, 0x00, 0x07, 0x00,
  0x16, 0x00, 0x00, 0x00, 0x00, 0x00, 0x00, 0x01, 0x14, 0x00, 0x00, 0x00,
  0x24, 0x00, 0x00, 0x00, 0x24, 0x00, 0x00, 0x00, 0x01, 0x00, 0x00, 0x00,
  0x40, 0x00, 0x00, 0x00, 0x03, 0x00, 0x00, 0x00, 0xff, 0xff, 0xff, 0xff,
  0x06, 0x00, 0x00, 0x00, 0x01, 0x00, 0x00, 0x00, 0x04, 0x00, 0x04, 0x00,
  0x04, 0x00, 0x00, 0x00, 0x1e, 0x00, 0x00, 0x00, 0x73, 0x65, 0x72, 0x76,
  0x69, 0x6e, 0x67, 0x5f, 0x64, 0x65, 0x66, 0x61, 0x75, 0x6c, 0x74, 0x5f,
  0x6b, 0x65, 0x72, 0x61, 0x73, 0x5f, 0x74, 0x65, 0x6e, 0x73, 0x6f, 0x72,
  0x3a, 0x30, 0x00, 0x00, 0x03, 0x00, 0x00, 0x00, 0x01, 0x00, 0x00, 0x00,
  0x06, 0x00, 0x00, 0x00, 0x01, 0x00, 0x00, 0x00, 0x06, 0x00, 0x00, 0x00,
  0x60, 0x00, 0x00, 0x00, 0x44, 0x00, 0x00, 0x00, 0x34, 0x00, 0x00, 0x00,
  0x24, 0x00, 0x00, 0x00, 0x14, 0x00, 0x00, 0x00, 0x04, 0x00, 0x00, 0x00,
  0xc4, 0xff, 0xff, 0xff, 0x19, 0x00, 0x00, 0x00, 0x00, 0x00, 0x00, 0x19,
  0xd0, 0xff, 0xff, 0xff, 0x09, 0x00, 0x00, 0x00, 0x00, 0x00, 0x00, 0x09,
  0xdc, 0xff, 0xff, 0xff, 0x11, 0x00, 0x00, 0x00, 0x00, 0x00, 0x00, 0x11,
  0xe8, 0xff, 0xff, 0xff, 0x16, 0x00, 0x00, 0x00, 0x00, 0x00, 0x00, 0x16,
  0xf4, 0xff, 0xff, 0xff, 0x03, 0x00, 0x00, 0x00, 0x00, 0x00, 0x00, 0x03,
  0x0c, 0x00, 0x0c, 0x00, 0x0b, 0x00, 0x00, 0x00, 0x00, 0x00, 0x04, 0x00,
  0x0c, 0x00, 0x00, 0x00, 0x46, 0x00, 0x00, 0x00, 0x00, 0x00, 0x00, 0x46
 
};

#endif //GESTURE_MODEL_H