#ifndef GESTURE_MODEL_H
#define GESTURE_MODEL_H


unsigned int gesture_model_len = 6208;
unsigned char gesture_model[] = {
 0x1c, 0x00, 0x00, 0x00, 0x54, 0x46, 0x4c, 0x33, 0x14, 0x00, 0x20, 0x00,
  0x1c, 0x00, 0x18, 0x00, 0x14, 0x00, 0x10, 0x00, 0x0c, 0x00, 0x00, 0x00,
  0x08, 0x00, 0x04, 0x00, 0x14, 0x00, 0x00, 0x00, 0x1c, 0x00, 0x00, 0x00,
  0x8c, 0x00, 0x00, 0x00, 0xe4, 0x00, 0x00, 0x00, 0xd8, 0x08, 0x00, 0x00,
  0xe8, 0x08, 0x00, 0x00, 0x9c, 0x17, 0x00, 0x00, 0x03, 0x00, 0x00, 0x00,
  0x01, 0x00, 0x00, 0x00, 0x04, 0x00, 0x00, 0x00, 0x8a, 0xf4, 0xff, 0xff,
  0x0c, 0x00, 0x00, 0x00, 0x1c, 0x00, 0x00, 0x00, 0x3c, 0x00, 0x00, 0x00,
  0x0f, 0x00, 0x00, 0x00, 0x73, 0x65, 0x72, 0x76, 0x69, 0x6e, 0x67, 0x5f,
  0x64, 0x65, 0x66, 0x61, 0x75, 0x6c, 0x74, 0x00, 0x01, 0x00, 0x00, 0x00,
  0x04, 0x00, 0x00, 0x00, 0x90, 0xff, 0xff, 0xff, 0x19, 0x00, 0x00, 0x00,
  0x04, 0x00, 0x00, 0x00, 0x08, 0x00, 0x00, 0x00, 0x6f, 0x75, 0x74, 0x70,
  0x75, 0x74, 0x5f, 0x30, 0x00, 0x00, 0x00, 0x00, 0x01, 0x00, 0x00, 0x00,
  0x04, 0x00, 0x00, 0x00, 0xea, 0xf6, 0xff, 0xff, 0x04, 0x00, 0x00, 0x00,
  0x0c, 0x00, 0x00, 0x00, 0x6b, 0x65, 0x72, 0x61, 0x73, 0x5f, 0x74, 0x65,
  0x6e, 0x73, 0x6f, 0x72, 0x00, 0x00, 0x00, 0x00, 0x02, 0x00, 0x00, 0x00,
  0x34, 0x00, 0x00, 0x00, 0x04, 0x00, 0x00, 0x00, 0xdc, 0xff, 0xff, 0xff,
  0x1c, 0x00, 0x00, 0x00, 0x04, 0x00, 0x00, 0x00, 0x13, 0x00, 0x00, 0x00,
  0x43, 0x4f, 0x4e, 0x56, 0x45, 0x52, 0x53, 0x49, 0x4f, 0x4e, 0x5f, 0x4d,
  0x45, 0x54, 0x41, 0x44, 0x41, 0x54, 0x41, 0x00, 0x08, 0x00, 0x0c, 0x00,
  0x08, 0x00, 0x04, 0x00, 0x08, 0x00, 0x00, 0x00, 0x1b, 0x00, 0x00, 0x00,
  0x04, 0x00, 0x00, 0x00, 0x13, 0x00, 0x00, 0x00, 0x6d, 0x69, 0x6e, 0x5f,
  0x72, 0x75, 0x6e, 0x74, 0x69, 0x6d, 0x65, 0x5f, 0x76, 0x65, 0x72, 0x73,
  0x69, 0x6f, 0x6e, 0x00, 0x1d, 0x00, 0x00, 0x00, 0xf0, 0x07, 0x00, 0x00,
  0xe8, 0x07, 0x00, 0x00, 0xb8, 0x07, 0x00, 0x00, 0x70, 0x07, 0x00, 0x00,
  0x54, 0x07, 0x00, 0x00, 0x38, 0x07, 0x00, 0x00, 0xa8, 0x03, 0x00, 0x00,
  0xb8, 0x02, 0x00, 0x00, 0x68, 0x01, 0x00, 0x00, 0x44, 0x01, 0x00, 0x00,
  0x30, 0x01, 0x00, 0x00, 0x18, 0x01, 0x00, 0x00, 0x04, 0x01, 0x00, 0x00,
  0xfc, 0x00, 0x00, 0x00, 0xf4, 0x00, 0x00, 0x00, 0xec, 0x00, 0x00, 0x00,
  0xe4, 0x00, 0x00, 0x00, 0xdc, 0x00, 0x00, 0x00, 0xd4, 0x00, 0x00, 0x00,
  0xcc, 0x00, 0x00, 0x00, 0xc4, 0x00, 0x00, 0x00, 0xbc, 0x00, 0x00, 0x00,
  0xb4, 0x00, 0x00, 0x00, 0xac, 0x00, 0x00, 0x00, 0xa4, 0x00, 0x00, 0x00,
  0x9c, 0x00, 0x00, 0x00, 0x94, 0x00, 0x00, 0x00, 0x74, 0x00, 0x00, 0x00,
  0x04, 0x00, 0x00, 0x00, 0xda, 0xf7, 0xff, 0xff, 0x04, 0x00, 0x00, 0x00,
  0x60, 0x00, 0x00, 0x00, 0x10, 0x00, 0x00, 0x00, 0x00, 0x00, 0x00, 0x00,
  0x08, 0x00, 0x0e, 0x00, 0x08, 0x00, 0x04, 0x00, 0x08, 0x00, 0x00, 0x00,
  0x10, 0x00, 0x00, 0x00, 0x24, 0x00, 0x00, 0x00, 0x00, 0x00, 0x06, 0x00,
  0x08, 0x00, 0x04, 0x00, 0x06, 0x00, 0x00, 0x00, 0x04, 0x00, 0x00, 0x00,
  0x00, 0x00, 0x00, 0x00, 0x0c, 0x00, 0x18, 0x00, 0x14, 0x00, 0x10, 0x00,
  0x0c, 0x00, 0x04, 0x00, 0x0c, 0x00, 0x00, 0x00, 0x0f, 0x6e, 0xbf, 0x34,
  0xa3, 0xa2, 0x2a, 0x59, 0x02, 0x00, 0x00, 0x00, 0x02, 0x00, 0x00, 0x00,
  0x04, 0x00, 0x00, 0x00, 0x06, 0x00, 0x00, 0x00, 0x32, 0x2e, 0x31, 0x39,
  0x2e, 0x30, 0x00, 0x00, 0x46, 0xf8, 0xff, 0xff, 0x04, 0x00, 0x00, 0x00,
  0x10, 0x00, 0x00, 0x00, 0x31, 0x2e, 0x31, 0x30, 0x2e, 0x30, 0x00, 0x00,
  0x00, 0x00, 0x00, 0x00, 0x00, 0x00, 0x00, 0x00, 0x78, 0xea, 0xff, 0xff,
  0x7c, 0xea, 0xff, 0xff, 0x80, 0xea, 0xff, 0xff, 0x84, 0xea, 0xff, 0xff,
  0x88, 0xea, 0xff, 0xff, 0x8c, 0xea, 0xff, 0xff, 0x90, 0xea, 0xff, 0xff,
  0x94, 0xea, 0xff, 0xff, 0x98, 0xea, 0xff, 0xff, 0x9c, 0xea, 0xff, 0xff,
  0xa0, 0xea, 0xff, 0xff, 0xa4, 0xea, 0xff, 0xff, 0xa8, 0xea, 0xff, 0xff,
  0xac, 0xea, 0xff, 0xff, 0x9a, 0xf8, 0xff, 0xff, 0x04, 0x00, 0x00, 0x00,
  0x04, 0x00, 0x00, 0x00, 0xfd, 0xff, 0xff, 0xff, 0xaa, 0xf8, 0xff, 0xff,
  0x04, 0x00, 0x00, 0x00, 0x08, 0x00, 0x00, 0x00, 0xff, 0xff, 0xff, 0xff,
  0x10, 0x00, 0x00, 0x00, 0xbe, 0xf8, 0xff, 0xff, 0x04, 0x00, 0x00, 0x00,
  0x04, 0x00, 0x00, 0x00, 0x01, 0x00, 0x00, 0x00, 0xce, 0xf8, 0xff, 0xff,
  0x04, 0x00, 0x00, 0x00, 0x14, 0x00, 0x00, 0x00, 0xa8, 0x37, 0x3b, 0xbc,
  0x30, 0xdf, 0x0d, 0xbf, 0x4c, 0xcc, 0x95, 0x3e, 0x1f, 0x23, 0x78, 0x3e,
  0xfc, 0x84, 0x4b, 0x3e, 0xee, 0xf8, 0xff, 0xff, 0x04, 0x00, 0x00, 0x00,
  0x40, 0x01, 0x00, 0x00, 0x26, 0xf4, 0xb9, 0x3f, 0xcf, 0x0d, 0x64, 0xbf,
  0xc2, 0x1c, 0xaa, 0xbe, 0x29, 0xd4, 0x48, 0x3f, 0xa0, 0xe1, 0x8a, 0x3e,
  0x38, 0x39, 0x01, 0x40, 0x4a, 0x48, 0x04, 0xbe, 0x44, 0xb5, 0x4e, 0xbf,
  0x49, 0x0f, 0x70, 0xbe, 0xe7, 0x0a, 0xa0, 0x3f, 0x28, 0xe3, 0xbb, 0xbe,
  0xbc, 0x17, 0x27, 0xbf, 0xac, 0x25, 0xbc, 0xbe, 0xc1, 0xe6, 0x8f, 0x3f,
  0x86, 0xe8, 0x88, 0xbe, 0x24, 0x0c, 0x1b, 0x3f, 0xbe, 0x1b, 0x60, 0x3e,
  0x96, 0x51, 0xeb, 0x3f, 0xc0, 0x0b, 0xbd, 0xbd, 0xc5, 0xff, 0x2e, 0x3f,
  0x68, 0xaf, 0x63, 0x3e, 0x91, 0xc0, 0x05, 0xc0, 0x26, 0xda, 0xd8, 0x3e,
  0xc6, 0x31, 0x3f, 0xbf, 0x9d, 0x23, 0x0a, 0x3f, 0xf4, 0x73, 0xbb, 0xbf,
  0xce, 0x0a, 0xd2, 0x3e, 0x6e, 0x0c, 0xb6, 0x3f, 0x2c, 0x0b, 0x29, 0xbe,
  0x7e, 0x6b, 0x0c, 0xc0, 0xc3, 0x60, 0xf8, 0xbe, 0xf9, 0x9f, 0xba, 0xbc,
  0x4d, 0x6f, 0xb1, 0xbe, 0xc4, 0x5c, 0x1b, 0xc0, 0x53, 0x0a, 0xff, 0x3e,
  0x0a, 0x60, 0x58, 0xc0, 0x70, 0x0b, 0x4a, 0xbe, 0xe3, 0x29, 0xd2, 0xbf,
  0x72, 0xdb, 0xf9, 0x3d, 0x65, 0x80, 0x23, 0x3f, 0x14, 0xdc, 0x10, 0xbe,
  0x0b, 0x27, 0xcb, 0xbf, 0x60, 0xd4, 0x9e, 0xbe, 0x83, 0xcd, 0xf7, 0xbf,
  0x30, 0x9a, 0x9c, 0xbd, 0x63, 0x2f, 0x13, 0xc0, 0x85, 0x22, 0xaa, 0x3e,
  0xb7, 0xc5, 0x7d, 0x3d, 0x1f, 0x80, 0x7f, 0xbf, 0x55, 0x21, 0xc5, 0x3f,
  0x2d, 0x41, 0x1f, 0xbe, 0xa4, 0x40, 0x10, 0x3f, 0xb0, 0x5d, 0xff, 0x3d,
  0x2d, 0x48, 0x11, 0xc0, 0x57, 0xe4, 0xcd, 0xbe, 0x00, 0x32, 0x33, 0x3f,
  0xdd, 0x43, 0xfe, 0xbf, 0x49, 0x80, 0xf4, 0x3f, 0x94, 0x51, 0x39, 0x3e,
  0x74, 0xc2, 0x02, 0xc0, 0x12, 0xd0, 0xca, 0xbe, 0x46, 0x33, 0xfb, 0xbf,
  0x58, 0xf6, 0x4a, 0x3e, 0x11, 0x9a, 0x84, 0xbe, 0x3f, 0x5f, 0x0c, 0xc0,
  0x7e, 0x9a, 0x47, 0xbf, 0xbd, 0x75, 0x81, 0x3e, 0x8a, 0x03, 0x41, 0xbf,
  0x14, 0xb5, 0xbe, 0xbe, 0x69, 0x3d, 0x11, 0x40, 0x3f, 0x00, 0x34, 0xbe,
  0xe6, 0x5c, 0xf2, 0x3e, 0x7f, 0xd9, 0x3d, 0xbf, 0xc2, 0x42, 0xb2, 0x3e,
  0xd6, 0xf4, 0xb1, 0x3e, 0xa6, 0xca, 0x54, 0x3f, 0xa0, 0x7f, 0x1b, 0xbd,
  0x03, 0x3d, 0x01, 0x40, 0xfd, 0xcb, 0xa1, 0x3d, 0x9d, 0x6f, 0x71, 0x3e,
  0x3a, 0xfa, 0xff, 0xff, 0x04, 0x00, 0x00, 0x00, 0xe0, 0x00, 0x00, 0x00,
  0x08, 0x9c, 0x63, 0xbe, 0xcc, 0xbc, 0x9f, 0xbe, 0x40, 0x44, 0xd3, 0xbc,
  0x2d, 0x57, 0x00, 0xbe, 0xbb, 0x49, 0x1f, 0x3f, 0x30, 0x06, 0x43, 0x3d,
  0x06, 0xf6, 0xcc, 0xbe, 0x64, 0x3b, 0x92, 0x3d, 0x3a, 0xb8, 0xef, 0xbd,
  0x90, 0xa0, 0xcc, 0x3c, 0x58, 0x56, 0x28, 0xbd, 0x08, 0xda, 0x62, 0xbd,
  0xec, 0x5a, 0x0b, 0xbd, 0x25, 0x4f, 0x96, 0x3f, 0x24, 0x78, 0x64, 0x3f,
  0xfd, 0x3d, 0xd7, 0xbd, 0x10, 0xd0, 0x7c, 0xbe, 0x10, 0x45, 0xbb, 0xbc,
  0x12, 0xc0, 0x5e, 0x3e, 0x1c, 0xa1, 0x94, 0xbe, 0x4f, 0xdf, 0x1d, 0xbf,
  0xc4, 0xc1, 0x08, 0xbd, 0x9c, 0x8f, 0xd5, 0x3e, 0xdc, 0x87, 0xec, 0x3e,
  0x45, 0x4c, 0x97, 0xbf, 0x84, 0x1f, 0x02, 0x3f, 0xc1, 0x65, 0xe8, 0x3e,
  0xc5, 0x83, 0x14, 0xbb, 0x00, 0xb5, 0x14, 0x3d, 0x75, 0xfe, 0xf1, 0xbc,
  0xc7, 0x42, 0xc9, 0xbd, 0x54, 0x1e, 0xcb, 0xbc, 0xa0, 0x26, 0x1c, 0xbc,
  0xc0, 0x44, 0xbb, 0x3b, 0x62, 0xae, 0x96, 0xbe, 0xc0, 0x2e, 0xe4, 0xbb,
  0xa5, 0x43, 0x71, 0xbf, 0xaa, 0x87, 0xba, 0xbd, 0xaa, 0xdf, 0x1a, 0x3e,
  0x3c, 0x36, 0x07, 0x3f, 0x23, 0xcb, 0xc1, 0x3e, 0x26, 0x72, 0xbd, 0x3e,
  0xc9, 0x9a, 0x31, 0x3f, 0x4c, 0xaa, 0xae, 0x3e, 0x25, 0x45, 0x71, 0x3f,
  0xc7, 0xbe, 0xab, 0xbe, 0x93, 0x18, 0xea, 0xbd, 0x09, 0xea, 0x88, 0xbc,
  0xa6, 0x3f, 0xad, 0x3f, 0x4a, 0xc6, 0x20, 0xbf, 0x11, 0x99, 0x03, 0xbe,
  0xaf, 0xc2, 0xfb, 0x3d, 0x10, 0xb2, 0x94, 0xbc, 0xb6, 0xae, 0xf7, 0xbd,
  0x66, 0x85, 0x94, 0xbe, 0x68, 0x97, 0x91, 0xbe, 0x26, 0xfb, 0xff, 0xff,
  0x04, 0x00, 0x00, 0x00, 0x80, 0x03, 0x00, 0x00, 0x08, 0xa7, 0xb9, 0xbe,
  0x12, 0x08, 0xec, 0x3e, 0xa9, 0x2f, 0x95, 0x3e, 0x33, 0x7f, 0x5c, 0x3f,
  0x49, 0xb6, 0x41, 0xbe, 0x0b, 0x80, 0xa6, 0x3d, 0x38, 0x8c, 0x1b, 0x40,
  0x63, 0xc7, 0xd7, 0x3d, 0x17, 0xac, 0x96, 0x3e, 0x91, 0x49, 0xab, 0xbf,
  0xd1, 0x41, 0xb7, 0xbd, 0x39, 0xb1, 0x3c, 0x3e, 0xb1, 0x4f, 0xb7, 0xbe,
  0xb8, 0x7a, 0x11, 0x3d, 0x39, 0xa3, 0x88, 0x3e, 0x0f, 0x14, 0xb1, 0x3f,
  0x82, 0xf4, 0x7e, 0x3e, 0x51, 0xd9, 0xd5, 0xbc, 0x34, 0xb3, 0x58, 0xbe,
  0xa8, 0x0e, 0x0b, 0xbe, 0xde, 0xd6, 0x49, 0x40, 0x70, 0xa5, 0x49, 0xbd,
  0x88, 0xb2, 0x5f, 0x3d, 0xe0, 0x42, 0x52, 0x3f, 0xa7, 0xe5, 0xe2, 0xbb,
  0x86, 0x0a, 0x79, 0x3f, 0x4d, 0x22, 0x1a, 0x3f, 0x97, 0xb2, 0x14, 0xbe,
  0x80, 0xcd, 0xc9, 0xbc, 0x8f, 0xf4, 0x13, 0xc0, 0x2a, 0x99, 0x63, 0xbe,
  0x54, 0xaf, 0xcf, 0xbe, 0x2a, 0xf9, 0x1d, 0x3e, 0x37, 0xc0, 0x0c, 0x3f,
  0x40, 0xcc, 0x79, 0x3f, 0xfa, 0x4a, 0x6f, 0xbe, 0x80, 0x48, 0x50, 0xbb,
  0x33, 0x68, 0xa9, 0x3f, 0x17, 0x44, 0x2e, 0x3e, 0xf3, 0xdf, 0xfe, 0xbf,
  0x72, 0xb6, 0xe5, 0xbf, 0x98, 0xc4, 0x70, 0xbe, 0xa3, 0xe5, 0x4b, 0xbe,
  0xc1, 0x52, 0x6d, 0xbf, 0xa0, 0x4d, 0x82, 0x3d, 0x77, 0xcf, 0x12, 0x3f,
  0x11, 0x34, 0x12, 0xbe, 0xc3, 0x0c, 0x17, 0x3e, 0x72, 0x5b, 0x73, 0xbf,
  0xe2, 0x5b, 0x37, 0x3d, 0x9b, 0xf2, 0xba, 0x3e, 0x54, 0xb4, 0x0b, 0xbe,
  0x1a, 0xe0, 0xa7, 0x3e, 0x05, 0xc0, 0xcc, 0xbd, 0xd4, 0xac, 0x3a, 0x3e,
  0xde, 0xc6, 0x8e, 0xbe, 0x11, 0xbe, 0xa1, 0xbe, 0x9a, 0xcf, 0x37, 0x3e,
  0xd0, 0x8d, 0xab, 0xbe, 0xce, 0x3b, 0x75, 0xbe, 0xe1, 0x1f, 0xb6, 0xbe,
  0x1a, 0xd4, 0x8e, 0xbe, 0xd6, 0xe5, 0x9c, 0xbe, 0xd5, 0x52, 0x9b, 0x3e,
  0x6c, 0x29, 0xac, 0x3d, 0x2f, 0xab, 0x13, 0x3e, 0x3e, 0x0e, 0x77, 0xbd,
  0x99, 0xf3, 0x5c, 0x3e, 0xb0, 0x9d, 0x16, 0xbc, 0x07, 0xa5, 0x9e, 0x3e,
  0x42, 0x79, 0x3e, 0x3e, 0x61, 0x9d, 0xd7, 0xbd, 0xa4, 0xb5, 0x05, 0x3e,
  0xb5, 0x97, 0x8e, 0xbe, 0xa7, 0xad, 0x89, 0x3e, 0xfe, 0xd4, 0xd6, 0xbb,
  0x3f, 0xca, 0x45, 0x3e, 0xbb, 0x50, 0x91, 0xbe, 0x61, 0x25, 0x5b, 0xbe,
  0xaf, 0x66, 0xf9, 0xbc, 0xd2, 0x7c, 0xb8, 0xbc, 0xea, 0x7e, 0xd4, 0xbc,
  0x09, 0xcf, 0x6c, 0x3e, 0x98, 0x7c, 0xba, 0xbd, 0xd5, 0x39, 0xa5, 0x3e,
  0xf6, 0xb9, 0xb7, 0x3e, 0x69, 0x0c, 0xbb, 0xbe, 0x2b, 0xf2, 0xd9, 0x3e,
  0x85, 0xe1, 0x9b, 0x3e, 0xdf, 0xd1, 0x52, 0xbf, 0x04, 0x46, 0xc8, 0xbe,
  0xb9, 0x60, 0x4f, 0x3e, 0x3b, 0x36, 0x53, 0xbe, 0x1a, 0x9c, 0x30, 0xc0,
  0x4b, 0xe1, 0xc9, 0xbd, 0xd9, 0x3a, 0x13, 0x3f, 0xfa, 0x02, 0xf8, 0x3d,
  0x15, 0x02, 0xa2, 0x3e, 0x50, 0x77, 0xe5, 0xbd, 0x8e, 0x19, 0x4c, 0x3f,
  0x54, 0xfc, 0x9a, 0x3d, 0xed, 0xa4, 0xb1, 0xbe, 0x4c, 0x1c, 0xce, 0xbd,
  0x0b, 0x30, 0x3a, 0xbe, 0xb5, 0x6c, 0x06, 0xc0, 0xc6, 0xfe, 0x05, 0xbc,
  0xf2, 0x8a, 0x15, 0x3e, 0x6e, 0xeb, 0xa1, 0xbf, 0x6b, 0x63, 0xfc, 0x3d,
  0xb9, 0xa1, 0xa0, 0x3f, 0x15, 0xad, 0x7a, 0x3f, 0x7c, 0x43, 0xbc, 0xbd,
  0x01, 0xe4, 0x80, 0x3e, 0xac, 0xe4, 0xc2, 0xbd, 0xec, 0xff, 0xb8, 0xbe,
  0xa6, 0x2b, 0xa2, 0xbe, 0xbb, 0x0f, 0xa1, 0x3e, 0x78, 0x2f, 0x4f, 0xbe,
  0xae, 0x73, 0x0b, 0xbe, 0xe2, 0xd4, 0x96, 0xbe, 0x3a, 0xb8, 0x38, 0x3e,
  0x02, 0x8f, 0x58, 0x3e, 0xb8, 0x1a, 0xcc, 0xbd, 0xa2, 0xf1, 0x26, 0xbe,
  0x50, 0x02, 0xa0, 0x3c, 0xca, 0xdf, 0x51, 0x3e, 0xaf, 0x0b, 0xb8, 0xbe,
  0xd4, 0x73, 0x58, 0xbe, 0xf6, 0xf1, 0x13, 0x3e, 0xf7, 0x2c, 0x9d, 0x3e,
  0x96, 0x4f, 0x67, 0x3e, 0x38, 0x0f, 0x4a, 0xbd, 0xff, 0xed, 0xaf, 0xbe,
  0xf4, 0xe3, 0xf8, 0x3d, 0xcc, 0x05, 0x8e, 0xbd, 0x4b, 0xcd, 0x42, 0xbe,
  0x2f, 0x67, 0x83, 0xbe, 0x01, 0x37, 0x87, 0x3e, 0xd0, 0x60, 0x22, 0xbe,
  0x1a, 0xde, 0x5b, 0x3e, 0x47, 0x9b, 0x8f, 0x3e, 0x03, 0xf2, 0x2e, 0x3e,
  0xf0, 0x3d, 0x43, 0xbd, 0x35, 0x6e, 0xe4, 0xbe, 0xb8, 0xd9, 0x8e, 0x3d,
  0x16, 0x11, 0xa5, 0xbc, 0x51, 0x1f, 0x3e, 0xc0, 0x9b, 0x43, 0x67, 0x3e,
  0x42, 0x2d, 0x35, 0x3e, 0xad, 0x72, 0xba, 0xbf, 0x37, 0x09, 0xb5, 0x3e,
  0xb3, 0x2f, 0x95, 0x3e, 0x88, 0x4e, 0x64, 0x3d, 0x08, 0x75, 0x1e, 0xbe,
  0xb3, 0x09, 0x98, 0x3e, 0x97, 0x6f, 0x97, 0x3e, 0xc3, 0x0b, 0xbc, 0x3e,
  0xc8, 0xcd, 0x17, 0x3e, 0x1b, 0x24, 0x61, 0xbe, 0xb1, 0x5c, 0x89, 0xbe,
  0xf2, 0x30, 0xe8, 0xbf, 0x9b, 0x5a, 0x3c, 0xbe, 0x73, 0x6c, 0xa8, 0x3e,
  0xdc, 0x91, 0xa4, 0xbe, 0x2a, 0xcf, 0x1e, 0x3e, 0x08, 0x0b, 0xac, 0x3d,
  0xfc, 0x9f, 0x52, 0x3e, 0x80, 0x0f, 0x3d, 0x3d, 0xa6, 0xae, 0x2d, 0x3e,
  0x26, 0x70, 0x36, 0xbe, 0xb0, 0xac, 0xc6, 0x3d, 0x3f, 0x7d, 0x58, 0x3d,
  0x7b, 0x78, 0xb4, 0x3e, 0xdc, 0x26, 0x1e, 0xbd, 0x85, 0xfa, 0x36, 0xbe,
  0x9f, 0xd5, 0xc2, 0xbe, 0x41, 0x52, 0xae, 0x3e, 0x34, 0x8c, 0x87, 0xbd,
  0x93, 0xe3, 0x9e, 0x3e, 0x43, 0x36, 0x42, 0xbe, 0xa1, 0x73, 0x8c, 0xbe,
  0x4a, 0x9b, 0x57, 0x3e, 0xa0, 0xff, 0x57, 0x3d, 0x7d, 0x56, 0x76, 0x3e,
  0x63, 0xe0, 0x9c, 0x3e, 0xf8, 0xaa, 0xcf, 0x3d, 0x4a, 0xbb, 0x1b, 0x3e,
  0xfa, 0x80, 0x28, 0x3e, 0x74, 0x86, 0x54, 0x3d, 0x41, 0x1a, 0x28, 0xbe,
  0x70, 0xc3, 0x97, 0xbe, 0x97, 0x8e, 0x5f, 0xbe, 0xf4, 0x12, 0xce, 0xbe,
  0x78, 0xa6, 0x7c, 0xbe, 0x47, 0xa5, 0xbd, 0xbe, 0x45, 0x07, 0x0f, 0xbe,
  0xc0, 0xbe, 0xad, 0x3c, 0x27, 0xf8, 0x72, 0x3e, 0x89, 0xf1, 0x03, 0xbe,
  0x80, 0xea, 0x95, 0x3d, 0x00, 0xae, 0x8a, 0xbd, 0x66, 0x70, 0x94, 0x3e,
  0x30, 0x1f, 0x92, 0xbe, 0x0d, 0x67, 0x2e, 0x3e, 0xa5, 0x9a, 0x28, 0xbe,
  0xc6, 0xac, 0x99, 0x3f, 0x42, 0x6e, 0x79, 0x3f, 0x33, 0xab, 0xb7, 0x3f,
  0x28, 0xbf, 0xbf, 0x3f, 0x9a, 0x73, 0x9b, 0xbe, 0x1c, 0x24, 0xb7, 0x3d,
  0xb8, 0x5a, 0x2a, 0xbf, 0x4a, 0x60, 0x72, 0xbe, 0xff, 0xc0, 0x80, 0x3f,
  0xce, 0x2e, 0x12, 0xbe, 0x04, 0x75, 0xec, 0x3e, 0xa7, 0x5e, 0x95, 0xbf,
  0x87, 0x8b, 0xb8, 0xbe, 0xc3, 0x2b, 0x0e, 0xbe, 0x99, 0x73, 0x30, 0xbf,
  0x22, 0x0f, 0x03, 0x3f, 0x2f, 0xef, 0xbb, 0xbe, 0x77, 0xe3, 0x4a, 0xbf,
  0xee, 0x92, 0x64, 0x3e, 0xb2, 0xfe, 0xff, 0xff, 0x04, 0x00, 0x00, 0x00,
  0x0c, 0x00, 0x00, 0x00, 0xff, 0xff, 0xff, 0xff, 0x03, 0x00, 0x00, 0x00,
  0x0e, 0x00, 0x00, 0x00, 0xca, 0xfe, 0xff, 0xff, 0x04, 0x00, 0x00, 0x00,
  0x0c, 0x00, 0x00, 0x00, 0xff, 0xff, 0xff, 0xff, 0x02, 0x00, 0x00, 0x00,
  0x08, 0x00, 0x00, 0x00, 0xe2, 0xfe, 0xff, 0xff, 0x04, 0x00, 0x00, 0x00,
  0x38, 0x00, 0x00, 0x00, 0x00, 0x00, 0x00, 0x00, 0x30, 0x7e, 0x5e, 0xbe,
  0x00, 0x00, 0x00, 0x00, 0x23, 0x43, 0x15, 0xbe, 0x00, 0x00, 0x00, 0x00,
  0xda, 0x86, 0x69, 0x3e, 0x01, 0x06, 0xc9, 0x3d, 0x58, 0x2b, 0x8d, 0xbc,
  0x00, 0x00, 0x00, 0x00, 0x7d, 0x5e, 0xbc, 0x3e, 0x0f, 0x13, 0x89, 0x3e,
  0xa1, 0x71, 0x00, 0xbe, 0xe9, 0xb4, 0x2b, 0xbe, 0x00, 0x00, 0x00, 0x00,
  0x26, 0xff, 0xff, 0xff, 0x04, 0x00, 0x00, 0x00, 0x20, 0x00, 0x00, 0x00,
  0xe4, 0x89, 0xae, 0xbd, 0xc1, 0x2f, 0x0b, 0x3e, 0x63, 0xa4, 0xfb, 0xbc,
  0x91, 0xa1, 0x05, 0xbe, 0x00, 0x00, 0x00, 0x00, 0xcf, 0x12, 0x1d, 0x3c,
  0x87, 0x17, 0x37, 0xbd, 0x2a, 0x91, 0x91, 0x3e, 0x68, 0xf1, 0xff, 0xff,
  0x6c, 0xf1, 0xff, 0xff, 0x0f, 0x00, 0x00, 0x00, 0x4d, 0x4c, 0x49, 0x52,
  0x20, 0x43, 0x6f, 0x6e, 0x76, 0x65, 0x72, 0x74, 0x65, 0x64, 0x2e, 0x00,
  0x01, 0x00, 0x00, 0x00, 0x14, 0x00, 0x00, 0x00, 0x00, 0x00, 0x0e, 0x00,
  0x18, 0x00, 0x14, 0x00, 0x10, 0x00, 0x0c, 0x00, 0x08, 0x00, 0x04, 0x00,
  0x0e, 0x00, 0x00, 0x00, 0x14, 0x00, 0x00, 0x00, 0x1c, 0x00, 0x00, 0x00,
  0x48, 0x03, 0x00, 0x00, 0x4c, 0x03, 0x00, 0x00, 0x50, 0x03, 0x00, 0x00,
  0x04, 0x00, 0x00, 0x00, 0x6d, 0x61, 0x69, 0x6e, 0x00, 0x00, 0x00, 0x00,
  0x0e, 0x00, 0x00, 0x00, 0x00, 0x03, 0x00, 0x00, 0x9c, 0x02, 0x00, 0x00,
  0x64, 0x02, 0x00, 0x00, 0x28, 0x02, 0x00, 0x00, 0xd8, 0x01, 0x00, 0x00,
  0xb0, 0x01, 0x00, 0x00, 0x80, 0x01, 0x00, 0x00, 0x38, 0x01, 0x00, 0x00,
  0x10, 0x01, 0x00, 0x00, 0xe0, 0x00, 0x00, 0x00, 0xa0, 0x00, 0x00, 0x00,
  0x78, 0x00, 0x00, 0x00, 0x40, 0x00, 0x00, 0x00, 0x04, 0x00, 0x00, 0x00,
  0xa6, 0xfd, 0xff, 0xff, 0x1c, 0x00, 0x00, 0x00, 0x00, 0x00, 0x00, 0x09,
  0x1c, 0x00, 0x00, 0x00, 0x20, 0x00, 0x00, 0x00, 0x05, 0x00, 0x00, 0x00,
  0x00, 0x00, 0x06, 0x00, 0x08, 0x00, 0x04, 0x00, 0x06, 0x00, 0x00, 0x00,
  0x00, 0x00, 0x80, 0x3f, 0x01, 0x00, 0x00, 0x00, 0x19, 0x00, 0x00, 0x00,
  0x01, 0x00, 0x00, 0x00, 0x18, 0x00, 0x00, 0x00, 0xde, 0xfd, 0xff, 0xff,
  0x14, 0x00, 0x00, 0x00, 0x00, 0x00, 0x00, 0x08, 0x10, 0x00, 0x00, 0x00,
  0x14, 0x00, 0x00, 0x00, 0x04, 0x00, 0x00, 0x00, 0x4c, 0xf2, 0xff, 0xff,
  0x01, 0x00, 0x00, 0x00, 0x18, 0x00, 0x00, 0x00, 0x03, 0x00, 0x00, 0x00,
  0x17, 0x00, 0x00, 0x00, 0x07, 0x00, 0x00, 0x00, 0x08, 0x00, 0x00, 0x00,
  0x42, 0xfe, 0xff, 0xff, 0x0c, 0x00, 0x00, 0x00, 0x10, 0x00, 0x00, 0x00,
  0x02, 0x00, 0x00, 0x00, 0x01, 0x00, 0x00, 0x00, 0x17, 0x00, 0x00, 0x00,
  0x02, 0x00, 0x00, 0x00, 0x16, 0x00, 0x00, 0x00, 0x0a, 0x00, 0x00, 0x00,
  0x36, 0xfe, 0xff, 0xff, 0x14, 0x00, 0x00, 0x00, 0x00, 0x00, 0x00, 0x05,
  0x20, 0x00, 0x00, 0x00, 0x24, 0x00, 0x00, 0x00, 0x03, 0x00, 0x00, 0x00,
  0xde, 0xfe, 0xff, 0xff, 0x01, 0x00, 0x00, 0x00, 0x02, 0x00, 0x00, 0x00,
  0x01, 0x00, 0x00, 0x00, 0x01, 0x00, 0x00, 0x00, 0x01, 0x00, 0x00, 0x00,
  0x16, 0x00, 0x00, 0x00, 0x01, 0x00, 0x00, 0x00, 0x15, 0x00, 0x00, 0x00,
  0x12, 0xfe, 0xff, 0xff, 0x10, 0x00, 0x00, 0x00, 0x00, 0x00, 0x00, 0x34,
  0x0c, 0x00, 0x00, 0x00, 0x10, 0x00, 0x00, 0x00, 0xdc, 0xf2, 0xff, 0xff,
  0x01, 0x00, 0x00, 0x00, 0x15, 0x00, 0x00, 0x00, 0x02, 0x00, 0x00, 0x00,
  0x14, 0x00, 0x00, 0x00, 0x09, 0x00, 0x00, 0x00, 0xce, 0xfe, 0xff, 0xff,
  0x0c, 0x00, 0x00, 0x00, 0x10, 0x00, 0x00, 0x00, 0x02, 0x00, 0x00, 0x00,
  0x01, 0x00, 0x00, 0x00, 0x14, 0x00, 0x00, 0x00, 0x02, 0x00, 0x00, 0x00,
  0x13, 0x00, 0x00, 0x00, 0x03, 0x00, 0x00, 0x00, 0xc2, 0xfe, 0xff, 0xff,
  0x14, 0x00, 0x00, 0x00, 0x00, 0x00, 0x00, 0x01, 0x20, 0x00, 0x00, 0x00,
  0x24, 0x00, 0x00, 0x00, 0x01, 0x00, 0x00, 0x00, 0xb4, 0xfe, 0xff, 0xff,
  0x00, 0x00, 0x00, 0x01, 0x01, 0x00, 0x00, 0x00, 0x01, 0x00, 0x00, 0x00,
  0x00, 0x00, 0x00, 0x01, 0x01, 0x00, 0x00, 0x00, 0x13, 0x00, 0x00, 0x00,
  0x03, 0x00, 0x00, 0x00, 0x12, 0x00, 0x00, 0x00, 0x05, 0x00, 0x00, 0x00,
  0x01, 0x00, 0x00, 0x00, 0xa6, 0xfe, 0xff, 0xff, 0x10, 0x00, 0x00, 0x00,
  0x00, 0x00, 0x00, 0x34, 0x0c, 0x00, 0x00, 0x00, 0x10, 0x00, 0x00, 0x00,
  0x70, 0xf3, 0xff, 0xff, 0x01, 0x00, 0x00, 0x00, 0x12, 0x00, 0x00, 0x00,
  0x02, 0x00, 0x00, 0x00, 0x11, 0x00, 0x00, 0x00, 0x0b, 0x00, 0x00, 0x00,
  0x62, 0xff, 0xff, 0xff, 0x0c, 0x00, 0x00, 0x00, 0x10, 0x00, 0x00, 0x00,
  0x02, 0x00, 0x00, 0x00, 0x01, 0x00, 0x00, 0x00, 0x11, 0x00, 0x00, 0x00,
  0x02, 0x00, 0x00, 0x00, 0x10, 0x00, 0x00, 0x00, 0x04, 0x00, 0x00, 0x00,
  0x56, 0xff, 0xff, 0xff, 0x24, 0x00, 0x00, 0x00, 0x00, 0x00, 0x00, 0x05,
  0x30, 0x00, 0x00, 0x00, 0x34, 0x00, 0x00, 0x00, 0x03, 0x00, 0x00, 0x00,
  0x00, 0x00, 0x0e, 0x00, 0x14, 0x00, 0x00, 0x00, 0x10, 0x00, 0x0c, 0x00,
  0x08, 0x00, 0x04, 0x00, 0x0e, 0x00, 0x00, 0x00, 0x01, 0x00, 0x00, 0x00,
  0x02, 0x00, 0x00, 0x00, 0x01, 0x00, 0x00, 0x00, 0x01, 0x00, 0x00, 0x00,
  0x01, 0x00, 0x00, 0x00, 0x10, 0x00, 0x00, 0x00, 0x01, 0x00, 0x00, 0x00,
  0x0f, 0x00, 0x00, 0x00, 0x42, 0xff, 0xff, 0xff, 0x10, 0x00, 0x00, 0x00,
  0x00, 0x00, 0x00, 0x34, 0x0c, 0x00, 0x00, 0x00, 0x10, 0x00, 0x00, 0x00,
  0x0c, 0xf4, 0xff, 0xff, 0x01, 0x00, 0x00, 0x00, 0x0f, 0x00, 0x00, 0x00,
  0x02, 0x00, 0x00, 0x00, 0x0e, 0x00, 0x00, 0x00, 0x09, 0x00, 0x00, 0x00,
  0x00, 0x00, 0x0a, 0x00, 0x10, 0x00, 0x0c, 0x00, 0x08, 0x00, 0x04, 0x00,
  0x0a, 0x00, 0x00, 0x00, 0x0c, 0x00, 0x00, 0x00, 0x10, 0x00, 0x00, 0x00,
  0x02, 0x00, 0x00, 0x00, 0x01, 0x00, 0x00, 0x00, 0x0e, 0x00, 0x00, 0x00,
  0x02, 0x00, 0x00, 0x00, 0x0d, 0x00, 0x00, 0x00, 0x04, 0x00, 0x00, 0x00,
  0x00, 0x00, 0x0e, 0x00, 0x18, 0x00, 0x14, 0x00, 0x10, 0x00, 0x0c, 0x00,
  0x0b, 0x00, 0x04, 0x00, 0x0e, 0x00, 0x00, 0x00, 0x20, 0x00, 0x00, 0x00,
  0x00, 0x00, 0x00, 0x01, 0x2c, 0x00, 0x00, 0x00, 0x30, 0x00, 0x00, 0x00,
  0x01, 0x00, 0x00, 0x00, 0x0c, 0x00, 0x14, 0x00, 0x13, 0x00, 0x0c, 0x00,
  0x08, 0x00, 0x07, 0x00, 0x0c, 0x00, 0x00, 0x00, 0x00, 0x00, 0x00, 0x01,
  0x01, 0x00, 0x00, 0x00, 0x01, 0x00, 0x00, 0x00, 0x00, 0x00, 0x00, 0x01,
  0x01, 0x00, 0x00, 0x00, 0x0d, 0x00, 0x00, 0x00, 0x03, 0x00, 0x00, 0x00,
  0x0c, 0x00, 0x00, 0x00, 0x06, 0x00, 0x00, 0x00, 0x02, 0x00, 0x00, 0x00,
  0x00, 0x00, 0x0e, 0x00, 0x14, 0x00, 0x00, 0x00, 0x10, 0x00, 0x0c, 0x00,
  0x0b, 0x00, 0x04, 0x00, 0x0e, 0x00, 0x00, 0x00, 0x10, 0x00, 0x00, 0x00,
  0x00, 0x00, 0x00, 0x34, 0x0c, 0x00, 0x00, 0x00, 0x10, 0x00, 0x00, 0x00,
  0xd8, 0xf4, 0xff, 0xff, 0x01, 0x00, 0x00, 0x00, 0x0c, 0x00, 0x00, 0x00,
  0x02, 0x00, 0x00, 0x00, 0x00, 0x00, 0x00, 0x00, 0x0b, 0x00, 0x00, 0x00,
  0x01, 0x00, 0x00, 0x00, 0x19, 0x00, 0x00, 0x00, 0x01, 0x00, 0x00, 0x00,
  0x00, 0x00, 0x00, 0x00, 0x1a, 0x00, 0x00, 0x00, 0xd0, 0x0a, 0x00, 0x00,
  0x7c, 0x0a, 0x00, 0x00, 0x28, 0x0a, 0x00, 0x00, 0xe8, 0x09, 0x00, 0x00,
  0x90, 0x09, 0x00, 0x00, 0x48, 0x09, 0x00, 0x00, 0x00, 0x09, 0x00, 0x00,
  0xc0, 0x08, 0x00, 0x00, 0x84, 0x08, 0x00, 0x00, 0x48, 0x08, 0x00, 0x00,
  0x08, 0x08, 0x00, 0x00, 0xc8, 0x07, 0x00, 0x00, 0x48, 0x07, 0x00, 0x00,
  0x70, 0x06, 0x00, 0x00, 0xc4, 0x05, 0x00, 0x00, 0x40, 0x05, 0x00, 0x00,
  0xc8, 0x04, 0x00, 0x00, 0x50, 0x04, 0x00, 0x00, 0xd0, 0x03, 0x00, 0x00,
  0xf0, 0x02, 0x00, 0x00, 0x3c, 0x02, 0x00, 0x00, 0xb8, 0x01, 0x00, 0x00,
  0x3c, 0x01, 0x00, 0x00, 0xdc, 0x00, 0x00, 0x00, 0x60, 0x00, 0x00, 0x00,
  0x04, 0x00, 0x00, 0x00, 0xae, 0xf5, 0xff, 0xff, 0x00, 0x00, 0x00, 0x01,
  0x14, 0x00, 0x00, 0x00, 0x1c, 0x00, 0x00, 0x00, 0x1c, 0x00, 0x00, 0x00,
  0x1a, 0x00, 0x00, 0x00, 0x34, 0x00, 0x00, 0x00, 0x02, 0x00, 0x00, 0x00,
  0xff, 0xff, 0xff, 0xff, 0x05, 0x00, 0x00, 0x00, 0x94, 0xf5, 0xff, 0xff,
  0x1b, 0x00, 0x00, 0x00, 0x53, 0x74, 0x61, 0x74, 0x65, 0x66, 0x75, 0x6c,
  0x50, 0x61, 0x72, 0x74, 0x69, 0x74, 0x69, 0x6f, 0x6e, 0x65, 0x64, 0x43,
  0x61, 0x6c, 0x6c, 0x5f, 0x31, 0x3a, 0x30, 0x00, 0x02, 0x00, 0x00, 0x00,
  0x01, 0x00, 0x00, 0x00, 0x05, 0x00, 0x00, 0x00, 0x06, 0xf6, 0xff, 0xff,
  0x00, 0x00, 0x00, 0x01, 0x14, 0x00, 0x00, 0x00, 0x1c, 0x00, 0x00, 0x00,
  0x1c, 0x00, 0x00, 0x00, 0x19, 0x00, 0x00, 0x00, 0x54, 0x00, 0x00, 0x00,
  0x02, 0x00, 0x00, 0x00, 0xff, 0xff, 0xff, 0xff, 0x05, 0x00, 0x00, 0x00,
  0xec, 0xf5, 0xff, 0xff, 0x38, 0x00, 0x00, 0x00, 0x73, 0x65, 0x71, 0x75,
  0x65, 0x6e, 0x74, 0x69, 0x61, 0x6c, 0x5f, 0x31, 0x2f, 0x64, 0x65, 0x6e,
  0x73, 0x65, 0x5f, 0x31, 0x2f, 0x4d, 0x61, 0x74, 0x4d, 0x75, 0x6c, 0x3b,
  0x73, 0x65, 0x71, 0x75, 0x65, 0x6e, 0x74, 0x69, 0x61, 0x6c, 0x5f, 0x31,
  0x2f, 0x64, 0x65, 0x6e, 0x73, 0x65, 0x5f, 0x31, 0x2f, 0x42, 0x69, 0x61,
  0x73, 0x41, 0x64, 0x64, 0x00, 0x00, 0x00, 0x00, 0x02, 0x00, 0x00, 0x00,
  0x01, 0x00, 0x00, 0x00, 0x05, 0x00, 0x00, 0x00, 0x7e, 0xf6, 0xff, 0xff,
  0x00, 0x00, 0x00, 0x01, 0x14, 0x00, 0x00, 0x00, 0x1c, 0x00, 0x00, 0x00,
  0x1c, 0x00, 0x00, 0x00, 0x18, 0x00, 0x00, 0x00, 0x38, 0x00, 0x00, 0x00,
  0x02, 0x00, 0x00, 0x00, 0xff, 0xff, 0xff, 0xff, 0x10, 0x00, 0x00, 0x00,
  0x64, 0xf6, 0xff, 0xff, 0x1e, 0x00, 0x00, 0x00, 0x73, 0x65, 0x71, 0x75,
  0x65, 0x6e, 0x74, 0x69, 0x61, 0x6c, 0x5f, 0x31, 0x2f, 0x66, 0x6c, 0x61,
  0x74, 0x74, 0x65, 0x6e, 0x5f, 0x31, 0x2f, 0x52, 0x65, 0x73, 0x68, 0x61,
  0x70, 0x65, 0x00, 0x00, 0x02, 0x00, 0x00, 0x00, 0x01, 0x00, 0x00, 0x00,
  0x10, 0x00, 0x00, 0x00, 0xda, 0xf6, 0xff, 0xff, 0x00, 0x00, 0x00, 0x01,
  0x14, 0x00, 0x00, 0x00, 0x24, 0x00, 0x00, 0x00, 0x24, 0x00, 0x00, 0x00,
  0x17, 0x00, 0x00, 0x00, 0x4c, 0x00, 0x00, 0x00, 0x04, 0x00, 0x00, 0x00,
  0xff, 0xff, 0xff, 0xff, 0x01, 0x00, 0x00, 0x00, 0x02, 0x00, 0x00, 0x00,
  0x08, 0x00, 0x00, 0x00, 0xc8, 0xf6, 0xff, 0xff, 0x28, 0x00, 0x00, 0x00,
  0x73, 0x65, 0x71, 0x75, 0x65, 0x6e, 0x74, 0x69, 0x61, 0x6c, 0x5f, 0x31,
  0x2f, 0x6d, 0x61, 0x78, 0x5f, 0x70, 0x6f, 0x6f, 0x6c, 0x69, 0x6e, 0x67,
  0x31, 0x64, 0x5f, 0x31, 0x5f, 0x32, 0x2f, 0x4d, 0x61, 0x78, 0x50, 0x6f,
  0x6f, 0x6c, 0x31, 0x64, 0x00, 0x00, 0x00, 0x00, 0x04, 0x00, 0x00, 0x00,
  0x01, 0x00, 0x00, 0x00, 0x01, 0x00, 0x00, 0x00, 0x02, 0x00, 0x00, 0x00,
  0x08, 0x00, 0x00, 0x00, 0x52, 0xf7, 0xff, 0xff, 0x00, 0x00, 0x00, 0x01,
  0x14, 0x00, 0x00, 0x00, 0x24, 0x00, 0x00, 0x00, 0x24, 0x00, 0x00, 0x00,
  0x16, 0x00, 0x00, 0x00, 0x54, 0x00, 0x00, 0x00, 0x04, 0x00, 0x00, 0x00,
  0xff, 0xff, 0xff, 0xff, 0x01, 0x00, 0x00, 0x00, 0x02, 0x00, 0x00, 0x00,
  0x08, 0x00, 0x00, 0x00, 0x40, 0xf7, 0xff, 0xff, 0x33, 0x00, 0x00, 0x00,
  0x73, 0x65, 0x71, 0x75, 0x65, 0x6e, 0x74, 0x69, 0x61, 0x6c, 0x5f, 0x31,
  0x2f, 0x6d, 0x61, 0x78, 0x5f, 0x70, 0x6f, 0x6f, 0x6c, 0x69, 0x6e, 0x67,
  0x31, 0x64, 0x5f, 0x31, 0x5f, 0x32, 0x2f, 0x4d, 0x61, 0x78, 0x50, 0x6f,
  0x6f, 0x6c, 0x31, 0x64, 0x2f, 0x45, 0x78, 0x70, 0x61, 0x6e, 0x64, 0x44,
  0x69, 0x6d, 0x73, 0x00, 0x04, 0x00, 0x00, 0x00, 0x01, 0x00, 0x00, 0x00,
  0x01, 0x00, 0x00, 0x00, 0x02, 0x00, 0x00, 0x00, 0x08, 0x00, 0x00, 0x00,
  0xd2, 0xf7, 0xff, 0xff, 0x00, 0x00, 0x00, 0x01, 0x14, 0x00, 0x00, 0x00,
  0x20, 0x00, 0x00, 0x00, 0x20, 0x00, 0x00, 0x00, 0x15, 0x00, 0x00, 0x00,
  0x88, 0x00, 0x00, 0x00, 0x03, 0x00, 0x00, 0x00, 0xff, 0xff, 0xff, 0xff,
  0x02, 0x00, 0x00, 0x00, 0x08, 0x00, 0x00, 0x00, 0xbc, 0xf7, 0xff, 0xff,
  0x69, 0x00, 0x00, 0x00, 0x73, 0x65, 0x71, 0x75, 0x65, 0x6e, 0x74, 0x69,
  0x61, 0x6c, 0x5f, 0x31, 0x2f, 0x63, 0x6f, 0x6e, 0x76, 0x31, 0x64, 0x5f,
  0x31, 0x5f, 0x32, 0x2f, 0x52, 0x65, 0x6c, 0x75, 0x3b, 0x73, 0x65, 0x71,
  0x75, 0x65, 0x6e, 0x74, 0x69, 0x61, 0x6c, 0x5f, 0x31, 0x2f, 0x63, 0x6f,
  0x6e, 0x76, 0x31, 0x64, 0x5f, 0x31, 0x5f, 0x32, 0x2f, 0x42, 0x69, 0x61,
  0x73, 0x41, 0x64, 0x64, 0x3b, 0x73, 0x65, 0x71, 0x75, 0x65, 0x6e, 0x74,
  0x69, 0x61, 0x6c, 0x5f, 0x31, 0x2f, 0x63, 0x6f, 0x6e, 0x76, 0x31, 0x64,
  0x5f, 0x31, 0x5f, 0x32, 0x2f, 0x63, 0x6f, 0x6e, 0x76, 0x6f, 0x6c, 0x75,
  0x74, 0x69, 0x6f, 0x6e, 0x2f, 0x53, 0x71, 0x75, 0x65, 0x65, 0x7a, 0x65,
  0x3b, 0x00, 0x00, 0x00, 0x03, 0x00, 0x00, 0x00, 0x01, 0x00, 0x00, 0x00,
  0x02, 0x00, 0x00, 0x00, 0x08, 0x00, 0x00, 0x00, 0x82, 0xf8, 0xff, 0xff,
  0x00, 0x00, 0x00, 0x01, 0x14, 0x00, 0x00, 0x00, 0x24, 0x00, 0x00, 0x00,
  0x24, 0x00, 0x00, 0x00, 0x14, 0x00, 0x00, 0x00, 0xb0, 0x00, 0x00, 0x00,
  0x04, 0x00, 0x00, 0x00, 0xff, 0xff, 0xff, 0xff, 0x01, 0x00, 0x00, 0x00,
  0x02, 0x00, 0x00, 0x00, 0x08, 0x00, 0x00, 0x00, 0x70, 0xf8, 0xff, 0xff,
  0x8d, 0x00, 0x00, 0x00, 0x73, 0x65, 0x71, 0x75, 0x65, 0x6e, 0x74, 0x69,
  0x61, 0x6c, 0x5f, 0x31, 0x2f, 0x63, 0x6f, 0x6e, 0x76, 0x31, 0x64, 0x5f,
  0x31, 0x5f, 0x32, 0x2f, 0x52, 0x65, 0x6c, 0x75, 0x3b, 0x73, 0x65, 0x71,
  0x75, 0x65, 0x6e, 0x74, 0x69, 0x61, 0x6c, 0x5f, 0x31, 0x2f, 0x63, 0x6f,
  0x6e, 0x76, 0x31, 0x64, 0x5f, 0x31, 0x5f, 0x32, 0x2f, 0x42, 0x69, 0x61,
  0x73, 0x41, 0x64, 0x64, 0x3b, 0x73, 0x65, 0x71, 0x75, 0x65, 0x6e, 0x74,
  0x69, 0x61, 0x6c, 0x5f, 0x31, 0x2f, 0x63, 0x6f, 0x6e, 0x76, 0x31, 0x64,
  0x5f, 0x31, 0x5f, 0x32, 0x2f, 0x63, 0x6f, 0x6e, 0x76, 0x6f, 0x6c, 0x75,
  0x74, 0x69, 0x6f, 0x6e, 0x2f, 0x53, 0x71, 0x75, 0x65, 0x65, 0x7a, 0x65,
  0x3b, 0x3b, 0x73, 0x65, 0x71, 0x75, 0x65, 0x6e, 0x74, 0x69, 0x61, 0x6c,
  0x5f, 0x31, 0x2f, 0x63, 0x6f, 0x6e, 0x76, 0x31, 0x64, 0x5f, 0x31, 0x5f,
  0x32, 0x2f, 0x63, 0x6f, 0x6e, 0x76, 0x6f, 0x6c, 0x75, 0x74, 0x69, 0x6f,
  0x6e, 0x00, 0x00, 0x00, 0x04, 0x00, 0x00, 0x00, 0x01, 0x00, 0x00, 0x00,
  0x01, 0x00, 0x00, 0x00, 0x02, 0x00, 0x00, 0x00, 0x08, 0x00, 0x00, 0x00,
  0x5e, 0xf9, 0xff, 0xff, 0x00, 0x00, 0x00, 0x01, 0x14, 0x00, 0x00, 0x00,
  0x24, 0x00, 0x00, 0x00, 0x24, 0x00, 0x00, 0x00, 0x13, 0x00, 0x00, 0x00,
  0x50, 0x00, 0x00, 0x00, 0x04, 0x00, 0x00, 0x00, 0xff, 0xff, 0xff, 0xff,
  0x01, 0x00, 0x00, 0x00, 0x03, 0x00, 0x00, 0x00, 0x0e, 0x00, 0x00, 0x00,
  0x4c, 0xf9, 0xff, 0xff, 0x2e, 0x00, 0x00, 0x00, 0x73, 0x65, 0x71, 0x75,
  0x65, 0x6e, 0x74, 0x69, 0x61, 0x6c, 0x5f, 0x31, 0x2f, 0x63, 0x6f, 0x6e,
  0x76, 0x31, 0x64, 0x5f, 0x31, 0x5f, 0x32, 0x2f, 0x63, 0x6f, 0x6e, 0x76,
  0x6f, 0x6c, 0x75, 0x74, 0x69, 0x6f, 0x6e, 0x2f, 0x45, 0x78, 0x70, 0x61,
  0x6e, 0x64, 0x44, 0x69, 0x6d, 0x73, 0x00, 0x00, 0x04, 0x00, 0x00, 0x00,
  0x01, 0x00, 0x00, 0x00, 0x01, 0x00, 0x00, 0x00, 0x03, 0x00, 0x00, 0x00,
  0x0e, 0x00, 0x00, 0x00, 0xda, 0xf9, 0xff, 0xff, 0x00, 0x00, 0x00, 0x01,
  0x14, 0x00, 0x00, 0x00, 0x20, 0x00, 0x00, 0x00, 0x20, 0x00, 0x00, 0x00,
  0x12, 0x00, 0x00, 0x00, 0x4c, 0x00, 0x00, 0x00, 0x03, 0x00, 0x00, 0x00,
  0xff, 0xff, 0xff, 0xff, 0x03, 0x00, 0x00, 0x00, 0x0e, 0x00, 0x00, 0x00,
  0xc4, 0xf9, 0xff, 0xff, 0x2e, 0x00, 0x00, 0x00, 0x73, 0x65, 0x71, 0x75,
  0x65, 0x6e, 0x74, 0x69, 0x61, 0x6c, 0x5f, 0x31, 0x2f, 0x6d, 0x61, 0x78,
  0x5f, 0x70, 0x6f, 0x6f, 0x6c, 0x69, 0x6e, 0x67, 0x31, 0x64, 0x5f, 0x31,
  0x2f, 0x4d, 0x61, 0x78, 0x50, 0x6f, 0x6f, 0x6c, 0x31, 0x64, 0x2f, 0x53,
  0x71, 0x75, 0x65, 0x65, 0x7a, 0x65, 0x00, 0x00, 0x03, 0x00, 0x00, 0x00,
  0x01, 0x00, 0x00, 0x00, 0x03, 0x00, 0x00, 0x00, 0x0e, 0x00, 0x00, 0x00,
  0x4e, 0xfa, 0xff, 0xff, 0x00, 0x00, 0x00, 0x01, 0x14, 0x00, 0x00, 0x00,
  0x24, 0x00, 0x00, 0x00, 0x24, 0x00, 0x00, 0x00, 0x11, 0x00, 0x00, 0x00,
  0x48, 0x00, 0x00, 0x00, 0x04, 0x00, 0x00, 0x00, 0xff, 0xff, 0xff, 0xff,
  0x01, 0x00, 0x00, 0x00, 0x03, 0x00, 0x00, 0x00, 0x0e, 0x00, 0x00, 0x00,
  0x3c, 0xfa, 0xff, 0xff, 0x26, 0x00, 0x00, 0x00, 0x73, 0x65, 0x71, 0x75,
  0x65, 0x6e, 0x74, 0x69, 0x61, 0x6c, 0x5f, 0x31, 0x2f, 0x6d, 0x61, 0x78,
  0x5f, 0x70, 0x6f, 0x6f, 0x6c, 0x69, 0x6e, 0x67, 0x31, 0x64, 0x5f, 0x31,
  0x2f, 0x4d, 0x61, 0x78, 0x50, 0x6f, 0x6f, 0x6c, 0x31, 0x64, 0x00, 0x00,
  0x04, 0x00, 0x00, 0x00, 0x01, 0x00, 0x00, 0x00, 0x01, 0x00, 0x00, 0x00,
  0x03, 0x00, 0x00, 0x00, 0x0e, 0x00, 0x00, 0x00, 0xc2, 0xfa, 0xff, 0xff,
  0x00, 0x00, 0x00, 0x01, 0x14, 0x00, 0x00, 0x00, 0x24, 0x00, 0x00, 0x00,
  0x24, 0x00, 0x00, 0x00, 0x10, 0x00, 0x00, 0x00, 0x54, 0x00, 0x00, 0x00,
  0x04, 0x00, 0x00, 0x00, 0xff, 0xff, 0xff, 0xff, 0x01, 0x00, 0x00, 0x00,
  0x03, 0x00, 0x00, 0x00, 0x0e, 0x00, 0x00, 0x00, 0xb0, 0xfa, 0xff, 0xff,
  0x31, 0x00, 0x00, 0x00, 0x73, 0x65, 0x71, 0x75, 0x65, 0x6e, 0x74, 0x69,
  0x61, 0x6c, 0x5f, 0x31, 0x2f, 0x6d, 0x61, 0x78, 0x5f, 0x70, 0x6f, 0x6f,
  0x6c, 0x69, 0x6e, 0x67, 0x31, 0x64, 0x5f, 0x31, 0x2f, 0x4d, 0x61, 0x78,
  0x50, 0x6f, 0x6f, 0x6c, 0x31, 0x64, 0x2f, 0x45, 0x78, 0x70, 0x61, 0x6e,
  0x64, 0x44, 0x69, 0x6d, 0x73, 0x00, 0x00, 0x00, 0x04, 0x00, 0x00, 0x00,
  0x01, 0x00, 0x00, 0x00, 0x01, 0x00, 0x00, 0x00, 0x03, 0x00, 0x00, 0x00,
  0x0e, 0x00, 0x00, 0x00, 0x42, 0xfb, 0xff, 0xff, 0x00, 0x00, 0x00, 0x01,
  0x14, 0x00, 0x00, 0x00, 0x20, 0x00, 0x00, 0x00, 0x20, 0x00, 0x00, 0x00,
  0x0f, 0x00, 0x00, 0x00, 0x80, 0x00, 0x00, 0x00, 0x03, 0x00, 0x00, 0x00,
  0xff, 0xff, 0xff, 0xff, 0x03, 0x00, 0x00, 0x00, 0x0e, 0x00, 0x00, 0x00,
  0x2c, 0xfb, 0xff, 0xff, 0x63, 0x00, 0x00, 0x00, 0x73, 0x65, 0x71, 0x75,
  0x65, 0x6e, 0x74, 0x69, 0x61, 0x6c, 0x5f, 0x31, 0x2f, 0x63, 0x6f, 0x6e,
  0x76, 0x31, 0x64, 0x5f, 0x31, 0x2f, 0x52, 0x65, 0x6c, 0x75, 0x3b, 0x73,
  0x65, 0x71, 0x75, 0x65, 0x6e, 0x74, 0x69, 0x61, 0x6c, 0x5f, 0x31, 0x2f,
  0x63, 0x6f, 0x6e, 0x76, 0x31, 0x64, 0x5f, 0x31, 0x2f, 0x42, 0x69, 0x61,
  0x73, 0x41, 0x64, 0x64, 0x3b, 0x73, 0x65, 0x71, 0x75, 0x65, 0x6e, 0x74,
  0x69, 0x61, 0x6c, 0x5f, 0x31, 0x2f, 0x63, 0x6f, 0x6e, 0x76, 0x31, 0x64,
  0x5f, 0x31, 0x2f, 0x63, 0x6f, 0x6e, 0x76, 0x6f, 0x6c, 0x75, 0x74, 0x69,
  0x6f, 0x6e, 0x2f, 0x53, 0x71, 0x75, 0x65, 0x65, 0x7a, 0x65, 0x3b, 0x00,
  0x03, 0x00, 0x00, 0x00, 0x01, 0x00, 0x00, 0x00, 0x03, 0x00, 0x00, 0x00,
  0x0e, 0x00, 0x00, 0x00, 0xea, 0xfb, 0xff, 0xff, 0x00, 0x00, 0x00, 0x01,
  0x14, 0x00, 0x00, 0x00, 0x24, 0x00, 0x00, 0x00, 0x24, 0x00, 0x00, 0x00,
  0x0e, 0x00, 0x00, 0x00, 0xa8, 0x00, 0x00, 0x00, 0x04, 0x00, 0x00, 0x00,
  0xff, 0xff, 0xff, 0xff, 0x01, 0x00, 0x00, 0x00, 0x03, 0x00, 0x00, 0x00,
  0x0e, 0x00, 0x00, 0x00, 0xd8, 0xfb, 0xff, 0xff, 0x85, 0x00, 0x00, 0x00,
  0x73, 0x65, 0x71, 0x75, 0x65, 0x6e, 0x74, 0x69, 0x61, 0x6c, 0x5f, 0x31,
  0x2f, 0x63, 0x6f, 0x6e, 0x76, 0x31, 0x64, 0x5f, 0x31, 0x2f, 0x52, 0x65,
  0x6c, 0x75, 0x3b, 0x73, 0x65, 0x71, 0x75, 0x65, 0x6e, 0x74, 0x69, 0x61,
  0x6c, 0x5f, 0x31, 0x2f, 0x63, 0x6f, 0x6e, 0x76, 0x31, 0x64, 0x5f, 0x31,
  0x2f, 0x42, 0x69, 0x61, 0x73, 0x41, 0x64, 0x64, 0x3b, 0x73, 0x65, 0x71,
  0x75, 0x65, 0x6e, 0x74, 0x69, 0x61, 0x6c, 0x5f, 0x31, 0x2f, 0x63, 0x6f,
  0x6e, 0x76, 0x31, 0x64, 0x5f, 0x31, 0x2f, 0x63, 0x6f, 0x6e, 0x76, 0x6f,
  0x6c, 0x75, 0x74, 0x69, 0x6f, 0x6e, 0x2f, 0x53, 0x71, 0x75, 0x65, 0x65,
  0x7a, 0x65, 0x3b, 0x3b, 0x73, 0x65, 0x71, 0x75, 0x65, 0x6e, 0x74, 0x69,
  0x61, 0x6c, 0x5f, 0x31, 0x2f, 0x63, 0x6f, 0x6e, 0x76, 0x31, 0x64, 0x5f,
  0x31, 0x2f, 0x63, 0x6f, 0x6e, 0x76, 0x6f, 0x6c, 0x75, 0x74, 0x69, 0x6f,
  0x6e, 0x00, 0x00, 0x00, 0x04, 0x00, 0x00, 0x00, 0x01, 0x00, 0x00, 0x00,
  0x01, 0x00, 0x00, 0x00, 0x03, 0x00, 0x00, 0x00, 0x0e, 0x00, 0x00, 0x00,
  0xbe, 0xfc, 0xff, 0xff, 0x00, 0x00, 0x00, 0x01, 0x14, 0x00, 0x00, 0x00,
  0x24, 0x00, 0x00, 0x00, 0x24, 0x00, 0x00, 0x00, 0x0d, 0x00, 0x00, 0x00,
  0x50, 0x00, 0x00, 0x00, 0x04, 0x00, 0x00, 0x00, 0xff, 0xff, 0xff, 0xff,
  0x01, 0x00, 0x00, 0x00, 0x06, 0x00, 0x00, 0x00, 0x01, 0x00, 0x00, 0x00,
  0xac, 0xfc, 0xff, 0xff, 0x2c, 0x00, 0x00, 0x00, 0x73, 0x65, 0x71, 0x75,
  0x65, 0x6e, 0x74, 0x69, 0x61, 0x6c, 0x5f, 0x31, 0x2f, 0x63, 0x6f, 0x6e,
  0x76, 0x31, 0x64, 0x5f, 0x31, 0x2f, 0x63, 0x6f, 0x6e, 0x76, 0x6f, 0x6c,
  0x75, 0x74, 0x69, 0x6f, 0x6e, 0x2f, 0x45, 0x78, 0x70, 0x61, 0x6e, 0x64,
  0x44, 0x69, 0x6d, 0x73, 0x00, 0x00, 0x00, 0x00, 0x04, 0x00, 0x00, 0x00,
  0x01, 0x00, 0x00, 0x00, 0x01, 0x00, 0x00, 0x00, 0x06, 0x00, 0x00, 0x00,
  0x01, 0x00, 0x00, 0x00, 0x16, 0xfe, 0xff, 0xff, 0x00, 0x00, 0x00, 0x01,
  0x14, 0x00, 0x00, 0x00, 0x14, 0x00, 0x00, 0x00, 0x0c, 0x00, 0x00, 0x00,
  0x00, 0x00, 0x00, 0x02, 0x20, 0x00, 0x00, 0x00, 0x14, 0xfd, 0xff, 0xff,
  0x10, 0x00, 0x00, 0x00, 0x61, 0x72, 0x69, 0x74, 0x68, 0x2e, 0x63, 0x6f,
  0x6e, 0x73, 0x74, 0x61, 0x6e, 0x74, 0x31, 0x30, 0x00, 0x00, 0x00, 0x00,
  0x00, 0x00, 0x00, 0x00, 0x52, 0xfe, 0xff, 0xff, 0x00, 0x00, 0x00, 0x01,
  0x14, 0x00, 0x00, 0x00, 0x14, 0x00, 0x00, 0x00, 0x0b, 0x00, 0x00, 0x00,
  0x00, 0x00, 0x00, 0x02, 0x1c, 0x00, 0x00, 0x00, 0x50, 0xfd, 0xff, 0xff,
  0x0f, 0x00, 0x00, 0x00, 0x61, 0x72, 0x69, 0x74, 0x68, 0x2e, 0x63, 0x6f,
  0x6e, 0x73, 0x74, 0x61, 0x6e, 0x74, 0x39, 0x00, 0x01, 0x00, 0x00, 0x00,
  0x02, 0x00, 0x00, 0x00, 0x8e, 0xfe, 0xff, 0xff, 0x00, 0x00, 0x00, 0x01,
  0x14, 0x00, 0x00, 0x00, 0x14, 0x00, 0x00, 0x00, 0x0a, 0x00, 0x00, 0x00,
  0x00, 0x00, 0x00, 0x02, 0x1c, 0x00, 0x00, 0x00, 0x8c, 0xfd, 0xff, 0xff,
  0x0f, 0x00, 0x00, 0x00, 0x61, 0x72, 0x69, 0x74, 0x68, 0x2e, 0x63, 0x6f,
  0x6e, 0x73, 0x74, 0x61, 0x6e, 0x74, 0x38, 0x00, 0x00, 0x00, 0x00, 0x00,
  0x3a, 0xfe, 0xff, 0xff, 0x00, 0x00, 0x00, 0x01, 0x10, 0x00, 0x00, 0x00,
  0x10, 0x00, 0x00, 0x00, 0x09, 0x00, 0x00, 0x00, 0x1c, 0x00, 0x00, 0x00,
  0xc0, 0xfd, 0xff, 0xff, 0x0f, 0x00, 0x00, 0x00, 0x61, 0x72, 0x69, 0x74,
  0x68, 0x2e, 0x63, 0x6f, 0x6e, 0x73, 0x74, 0x61, 0x6e, 0x74, 0x37, 0x00,
  0x01, 0x00, 0x00, 0x00, 0x05, 0x00, 0x00, 0x00, 0x72, 0xfe, 0xff, 0xff,
  0x00, 0x00, 0x00, 0x01, 0x10, 0x00, 0x00, 0x00, 0x10, 0x00, 0x00, 0x00,
  0x08, 0x00, 0x00, 0x00, 0x1c, 0x00, 0x00, 0x00, 0xf8, 0xfd, 0xff, 0xff,
  0x0f, 0x00, 0x00, 0x00, 0x61, 0x72, 0x69, 0x74, 0x68, 0x2e, 0x63, 0x6f,
  0x6e, 0x73, 0x74, 0x61, 0x6e, 0x74, 0x36, 0x00, 0x02, 0x00, 0x00, 0x00,
  0x05, 0x00, 0x00, 0x00, 0x10, 0x00, 0x00, 0x00, 0xae, 0xfe, 0xff, 0xff,
  0x00, 0x00, 0x00, 0x01, 0x10, 0x00, 0x00, 0x00, 0x10, 0x00, 0x00, 0x00,
  0x07, 0x00, 0x00, 0x00, 0x1c, 0x00, 0x00, 0x00, 0x34, 0xfe, 0xff, 0xff,
  0x0f, 0x00, 0x00, 0x00, 0x61, 0x72, 0x69, 0x74, 0x68, 0x2e, 0x63, 0x6f,
  0x6e, 0x73, 0x74, 0x61, 0x6e, 0x74, 0x35, 0x00, 0x04, 0x00, 0x00, 0x00,
  0x0e, 0x00, 0x00, 0x00, 0x01, 0x00, 0x00, 0x00, 0x04, 0x00, 0x00, 0x00,
  0x01, 0x00, 0x00, 0x00, 0xf2, 0xfe, 0xff, 0xff, 0x00, 0x00, 0x00, 0x01,
  0x10, 0x00, 0x00, 0x00, 0x10, 0x00, 0x00, 0x00, 0x06, 0x00, 0x00, 0x00,
  0x1c, 0x00, 0x00, 0x00, 0x78, 0xfe, 0xff, 0xff, 0x0f, 0x00, 0x00, 0x00,
  0x61, 0x72, 0x69, 0x74, 0x68, 0x2e, 0x63, 0x6f, 0x6e, 0x73, 0x74, 0x61,
  0x6e, 0x74, 0x34, 0x00, 0x04, 0x00, 0x00, 0x00, 0x08, 0x00, 0x00, 0x00,
  0x01, 0x00, 0x00, 0x00, 0x02, 0x00, 0x00, 0x00, 0x0e, 0x00, 0x00, 0x00,
  0xc2, 0xff, 0xff, 0xff, 0x00, 0x00, 0x00, 0x01, 0x14, 0x00, 0x00, 0x00,
  0x14, 0x00, 0x00, 0x00, 0x05, 0x00, 0x00, 0x00, 0x00, 0x00, 0x00, 0x02,
  0x1c, 0x00, 0x00, 0x00, 0xc0, 0xfe, 0xff, 0xff, 0x0f, 0x00, 0x00, 0x00,
  0x61, 0x72, 0x69, 0x74, 0x68, 0x2e, 0x63, 0x6f, 0x6e, 0x73, 0x74, 0x61,
  0x6e, 0x74, 0x33, 0x00, 0x01, 0x00, 0x00, 0x00, 0x03, 0x00, 0x00, 0x00,
  0x00, 0x00, 0x16, 0x00, 0x1c, 0x00, 0x18, 0x00, 0x17, 0x00, 0x10, 0x00,
  0x0c, 0x00, 0x08, 0x00, 0x00, 0x00, 0x00, 0x00, 0x00, 0x00, 0x07, 0x00,
  0x16, 0x00, 0x00, 0x00, 0x00, 0x00, 0x00, 0x01, 0x14, 0x00, 0x00, 0x00,
  0x14, 0x00, 0x00, 0x00, 0x04, 0x00, 0x00, 0x00, 0x00, 0x00, 0x00, 0x02,
  0x1c, 0x00, 0x00, 0x00, 0x14, 0xff, 0xff, 0xff, 0x0f, 0x00, 0x00, 0x00,
  0x61, 0x72, 0x69, 0x74, 0x68, 0x2e, 0x63, 0x6f, 0x6e, 0x73, 0x74, 0x61,
  0x6e, 0x74, 0x32, 0x00, 0x01, 0x00, 0x00, 0x00, 0x03, 0x00, 0x00, 0x00,
  0xc6, 0xff, 0xff, 0xff, 0x00, 0x00, 0x00, 0x01, 0x10, 0x00, 0x00, 0x00,
  0x10, 0x00, 0x00, 0x00, 0x03, 0x00, 0x00, 0x00, 0x1c, 0x00, 0x00, 0x00,
  0x4c, 0xff, 0xff, 0xff, 0x0f, 0x00, 0x00, 0x00, 0x61, 0x72, 0x69, 0x74,
  0x68, 0x2e, 0x63, 0x6f, 0x6e, 0x73, 0x74, 0x61, 0x6e, 0x74, 0x31, 0x00,
  0x01, 0x00, 0x00, 0x00, 0x0e, 0x00, 0x00, 0x00, 0x00, 0x00, 0x16, 0x00,
  0x18, 0x00, 0x14, 0x00, 0x00, 0x00, 0x10, 0x00, 0x0c, 0x00, 0x08, 0x00,
  0x00, 0x00, 0x00, 0x00, 0x00, 0x00, 0x07, 0x00, 0x16, 0x00, 0x00, 0x00,
  0x00, 0x00, 0x00, 0x01, 0x10, 0x00, 0x00, 0x00, 0x10, 0x00, 0x00, 0x00,
  0x02, 0x00, 0x00, 0x00, 0x1c, 0x00, 0x00, 0x00, 0x9c, 0xff, 0xff, 0xff,
  0x0e, 0x00, 0x00, 0x00, 0x61, 0x72, 0x69, 0x74, 0x68, 0x2e, 0x63, 0x6f,
  0x6e, 0x73, 0x74, 0x61, 0x6e, 0x74, 0x00, 0x00, 0x01, 0x00, 0x00, 0x00,
  0x08, 0x00, 0x00, 0x00, 0x00, 0x00, 0x16, 0x00, 0x1c, 0x00, 0x18, 0x00,
  0x00, 0x00, 0x14, 0x00, 0x10, 0x00, 0x0c, 0x00, 0x00, 0x00, 0x00, 0x00,
  0x08, 0x00, 0x07, 0x00, 0x16, 0x00, 0x00, 0x00, 0x00, 0x00, 0x00, 0x01,
  0x14, 0x00, 0x00, 0x00, 0x24, 0x00, 0x00, 0x00, 0x24, 0x00, 0x00, 0x00,
  0x01, 0x00, 0x00, 0x00, 0x40, 0x00, 0x00, 0x00, 0x03, 0x00, 0x00, 0x00,
  0xff, 0xff, 0xff, 0xff, 0x06, 0x00, 0x00, 0x00, 0x01, 0x00, 0x00, 0x00,
  0x04, 0x00, 0x04, 0x00, 0x04, 0x00, 0x00, 0x00, 0x1e, 0x00, 0x00, 0x00,
  0x73, 0x65, 0x72, 0x76, 0x69, 0x6e, 0x67, 0x5f, 0x64, 0x65, 0x66, 0x61,
  0x75, 0x6c, 0x74, 0x5f, 0x6b, 0x65, 0x72, 0x61, 0x73, 0x5f, 0x74, 0x65,
  0x6e, 0x73, 0x6f, 0x72, 0x3a, 0x30, 0x00, 0x00, 0x03, 0x00, 0x00, 0x00,
  0x01, 0x00, 0x00, 0x00, 0x06, 0x00, 0x00, 0x00, 0x01, 0x00, 0x00, 0x00,
  0x06, 0x00, 0x00, 0x00, 0x60, 0x00, 0x00, 0x00, 0x44, 0x00, 0x00, 0x00,
  0x34, 0x00, 0x00, 0x00, 0x24, 0x00, 0x00, 0x00, 0x14, 0x00, 0x00, 0x00,
  0x04, 0x00, 0x00, 0x00, 0xc4, 0xff, 0xff, 0xff, 0x19, 0x00, 0x00, 0x00,
  0x00, 0x00, 0x00, 0x19, 0xd0, 0xff, 0xff, 0xff, 0x09, 0x00, 0x00, 0x00,
  0x00, 0x00, 0x00, 0x09, 0xdc, 0xff, 0xff, 0xff, 0x11, 0x00, 0x00, 0x00,
  0x00, 0x00, 0x00, 0x11, 0xe8, 0xff, 0xff, 0xff, 0x16, 0x00, 0x00, 0x00,
  0x00, 0x00, 0x00, 0x16, 0xf4, 0xff, 0xff, 0xff, 0x03, 0x00, 0x00, 0x00,
  0x00, 0x00, 0x00, 0x03, 0x0c, 0x00, 0x0c, 0x00, 0x0b, 0x00, 0x00, 0x00,
  0x00, 0x00, 0x04, 0x00, 0x0c, 0x00, 0x00, 0x00, 0x46, 0x00, 0x00, 0x00,
  0x00, 0x00, 0x00, 0x46
};

#endif //GESTURE_MODEL_H