#ifndef GESTURE_MODEL_H
#define GESTURE_MODEL_H


unsigned int gesture_model_len = 8932;
unsigned char gesture_model[] = {
 0x1c, 0x00, 0x00, 0x00, 0x54, 0x46, 0x4c, 0x33, 0x14, 0x00, 0x20, 0x00,
  0x1c, 0x00, 0x18, 0x00, 0x14, 0x00, 0x10, 0x00, 0x0c, 0x00, 0x00, 0x00,
  0x08, 0x00, 0x04, 0x00, 0x14, 0x00, 0x00, 0x00, 0x1c, 0x00, 0x00, 0x00,
  0x8c, 0x00, 0x00, 0x00, 0xe4, 0x00, 0x00, 0x00, 0xb4, 0x11, 0x00, 0x00,
  0xc4, 0x11, 0x00, 0x00, 0x34, 0x22, 0x00, 0x00, 0x03, 0x00, 0x00, 0x00,
  0x01, 0x00, 0x00, 0x00, 0x04, 0x00, 0x00, 0x00, 0x26, 0xeb, 0xff, 0xff,
  0x0c, 0x00, 0x00, 0x00, 0x1c, 0x00, 0x00, 0x00, 0x3c, 0x00, 0x00, 0x00,
  0x0f, 0x00, 0x00, 0x00, 0x73, 0x65, 0x72, 0x76, 0x69, 0x6e, 0x67, 0x5f,
  0x64, 0x65, 0x66, 0x61, 0x75, 0x6c, 0x74, 0x00, 0x01, 0x00, 0x00, 0x00,
  0x04, 0x00, 0x00, 0x00, 0x90, 0xff, 0xff, 0xff, 0x20, 0x00, 0x00, 0x00,
  0x04, 0x00, 0x00, 0x00, 0x08, 0x00, 0x00, 0x00, 0x6f, 0x75, 0x74, 0x70,
  0x75, 0x74, 0x5f, 0x30, 0x00, 0x00, 0x00, 0x00, 0x01, 0x00, 0x00, 0x00,
  0x04, 0x00, 0x00, 0x00, 0xfe, 0xed, 0xff, 0xff, 0x04, 0x00, 0x00, 0x00,
  0x0f, 0x00, 0x00, 0x00, 0x6b, 0x65, 0x72, 0x61, 0x73, 0x5f, 0x74, 0x65,
  0x6e, 0x73, 0x6f, 0x72, 0x5f, 0x36, 0x34, 0x00, 0x02, 0x00, 0x00, 0x00,
  0x34, 0x00, 0x00, 0x00, 0x04, 0x00, 0x00, 0x00, 0xdc, 0xff, 0xff, 0xff,
  0x23, 0x00, 0x00, 0x00, 0x04, 0x00, 0x00, 0x00, 0x13, 0x00, 0x00, 0x00,
  0x43, 0x4f, 0x4e, 0x56, 0x45, 0x52, 0x53, 0x49, 0x4f, 0x4e, 0x5f, 0x4d,
  0x45, 0x54, 0x41, 0x44, 0x41, 0x54, 0x41, 0x00, 0x08, 0x00, 0x0c, 0x00,
  0x08, 0x00, 0x04, 0x00, 0x08, 0x00, 0x00, 0x00, 0x22, 0x00, 0x00, 0x00,
  0x04, 0x00, 0x00, 0x00, 0x13, 0x00, 0x00, 0x00, 0x6d, 0x69, 0x6e, 0x5f,
  0x72, 0x75, 0x6e, 0x74, 0x69, 0x6d, 0x65, 0x5f, 0x76, 0x65, 0x72, 0x73,
  0x69, 0x6f, 0x6e, 0x00, 0x24, 0x00, 0x00, 0x00, 0xcc, 0x10, 0x00, 0x00,
  0xc4, 0x10, 0x00, 0x00, 0xa8, 0x10, 0x00, 0x00, 0x8c, 0x10, 0x00, 0x00,
  0xec, 0x0e, 0x00, 0x00, 0x7c, 0x05, 0x00, 0x00, 0x44, 0x05, 0x00, 0x00,
  0x44, 0x04, 0x00, 0x00, 0xe4, 0x03, 0x00, 0x00, 0x44, 0x02, 0x00, 0x00,
  0x0c, 0x02, 0x00, 0x00, 0xd4, 0x01, 0x00, 0x00, 0x74, 0x01, 0x00, 0x00,
  0x50, 0x01, 0x00, 0x00, 0x38, 0x01, 0x00, 0x00, 0x24, 0x01, 0x00, 0x00,
  0x1c, 0x01, 0x00, 0x00, 0x14, 0x01, 0x00, 0x00, 0x0c, 0x01, 0x00, 0x00,
  0x04, 0x01, 0x00, 0x00, 0xfc, 0x00, 0x00, 0x00, 0xf4, 0x00, 0x00, 0x00,
  0xec, 0x00, 0x00, 0x00, 0xe4, 0x00, 0x00, 0x00, 0xdc, 0x00, 0x00, 0x00,
  0xd4, 0x00, 0x00, 0x00, 0xcc, 0x00, 0x00, 0x00, 0xc4, 0x00, 0x00, 0x00,
  0xbc, 0x00, 0x00, 0x00, 0xb4, 0x00, 0x00, 0x00, 0xac, 0x00, 0x00, 0x00,
  0xa4, 0x00, 0x00, 0x00, 0x9c, 0x00, 0x00, 0x00, 0x94, 0x00, 0x00, 0x00,
  0x74, 0x00, 0x00, 0x00, 0x04, 0x00, 0x00, 0x00, 0x0a, 0xef, 0xff, 0xff,
  0x04, 0x00, 0x00, 0x00, 0x60, 0x00, 0x00, 0x00, 0x10, 0x00, 0x00, 0x00,
  0x00, 0x00, 0x00, 0x00, 0x08, 0x00, 0x0e, 0x00, 0x08, 0x00, 0x04, 0x00,
  0x08, 0x00, 0x00, 0x00, 0x10, 0x00, 0x00, 0x00, 0x24, 0x00, 0x00, 0x00,
  0x00, 0x00, 0x06, 0x00, 0x08, 0x00, 0x04, 0x00, 0x06, 0x00, 0x00, 0x00,
  0x04, 0x00, 0x00, 0x00, 0x00, 0x00, 0x00, 0x00, 0x0c, 0x00, 0x18, 0x00,
  0x14, 0x00, 0x10, 0x00, 0x0c, 0x00, 0x04, 0x00, 0x0c, 0x00, 0x00, 0x00,
  0x81, 0xcb, 0xb8, 0xdc, 0x3a, 0x4f, 0x92, 0x77, 0x02, 0x00, 0x00, 0x00,
  0x02, 0x00, 0x00, 0x00, 0x04, 0x00, 0x00, 0x00, 0x06, 0x00, 0x00, 0x00,
  0x32, 0x2e, 0x31, 0x37, 0x2e, 0x30, 0x00, 0x00, 0x76, 0xef, 0xff, 0xff,
  0x04, 0x00, 0x00, 0x00, 0x10, 0x00, 0x00, 0x00, 0x31, 0x2e, 0x31, 0x34,
  0x2e, 0x30, 0x00, 0x00, 0x00, 0x00, 0x00, 0x00, 0x00, 0x00, 0x00, 0x00,
  0x7c, 0xdf, 0xff, 0xff, 0x80, 0xdf, 0xff, 0xff, 0x84, 0xdf, 0xff, 0xff,
  0x88, 0xdf, 0xff, 0xff, 0x8c, 0xdf, 0xff, 0xff, 0x90, 0xdf, 0xff, 0xff,
  0x94, 0xdf, 0xff, 0xff, 0x98, 0xdf, 0xff, 0xff, 0x9c, 0xdf, 0xff, 0xff,
  0xa0, 0xdf, 0xff, 0xff, 0xa4, 0xdf, 0xff, 0xff, 0xa8, 0xdf, 0xff, 0xff,
  0xac, 0xdf, 0xff, 0xff, 0xb0, 0xdf, 0xff, 0xff, 0xb4, 0xdf, 0xff, 0xff,
  0xb8, 0xdf, 0xff, 0xff, 0xbc, 0xdf, 0xff, 0xff, 0xc0, 0xdf, 0xff, 0xff,
  0xda, 0xef, 0xff, 0xff, 0x04, 0x00, 0x00, 0x00, 0x04, 0x00, 0x00, 0x00,
  0xfd, 0xff, 0xff, 0xff, 0xea, 0xef, 0xff, 0xff, 0x04, 0x00, 0x00, 0x00,
  0x08, 0x00, 0x00, 0x00, 0xff, 0xff, 0xff, 0xff, 0x14, 0x00, 0x00, 0x00,
  0xfe, 0xef, 0xff, 0xff, 0x04, 0x00, 0x00, 0x00, 0x14, 0x00, 0x00, 0x00,
  0x12, 0x3d, 0xc5, 0x3d, 0x3a, 0x67, 0x9f, 0xbd, 0xd3, 0x9b, 0x66, 0xbc,
  0xfb, 0x35, 0x37, 0xbe, 0x1d, 0xaa, 0x49, 0x3e, 0x1e, 0xf0, 0xff, 0xff,
  0x04, 0x00, 0x00, 0x00, 0x50, 0x00, 0x00, 0x00, 0x25, 0x71, 0x25, 0x3f,
  0xd8, 0xc4, 0x13, 0x3f, 0xff, 0xf9, 0x02, 0xbf, 0xc8, 0x1f, 0x11, 0xbf,
  0xdb, 0x40, 0x6a, 0xbf, 0xd1, 0xf2, 0xda, 0xbe, 0x44, 0x60, 0xfe, 0xbe,
  0xcf, 0x86, 0x18, 0xbf, 0x93, 0xfc, 0x5a, 0x3e, 0xf6, 0x6b, 0xc2, 0x3e,
  0x01, 0x25, 0x96, 0x3c, 0xaf, 0x43, 0xcb, 0x3e, 0xa0, 0x5a, 0x97, 0xbe,
  0x90, 0xfa, 0xfc, 0xbe, 0x03, 0x07, 0x08, 0xbf, 0xd8, 0x61, 0x1f, 0x3f,
  0x75, 0xbf, 0x5e, 0x3f, 0x53, 0x47, 0xe5, 0xbe, 0xee, 0xae, 0x11, 0xbf,
  0xd4, 0x73, 0xb9, 0x3e, 0x7a, 0xf0, 0xff, 0xff, 0x04, 0x00, 0x00, 0x00,
  0x28, 0x00, 0x00, 0x00, 0x1b, 0x75, 0x76, 0x3d, 0x42, 0xab, 0x5b, 0x3d,
  0x88, 0x0f, 0xff, 0x3c, 0xf4, 0x65, 0xb2, 0x3d, 0xde, 0xb2, 0x6a, 0xbd,
  0x09, 0x5e, 0x9a, 0xbb, 0x8b, 0xa2, 0x0f, 0xbc, 0x04, 0x00, 0x11, 0x3d,
  0xb3, 0x9e, 0x25, 0x3d, 0x15, 0x6b, 0x6b, 0xbc, 0xae, 0xf0, 0xff, 0xff,
  0x04, 0x00, 0x00, 0x00, 0x28, 0x00, 0x00, 0x00, 0x85, 0x82, 0xec, 0xbd,
  0x55, 0x42, 0x04, 0xbe, 0x71, 0x81, 0xd6, 0x3e, 0x1b, 0x59, 0x92, 0x3e,
  0xda, 0xfd, 0x73, 0x3e, 0x9d, 0x8b, 0xe2, 0xbe, 0x3f, 0x5a, 0x68, 0x3e,
  0x05, 0x50, 0x91, 0x3d, 0xae, 0x36, 0x82, 0xbe, 0xab, 0x1e, 0xe1, 0xbd,
  0xe2, 0xf0, 0xff, 0xff, 0x04, 0x00, 0x00, 0x00, 0x90, 0x01, 0x00, 0x00,
  0x60, 0x21, 0x12, 0xbf, 0xaa, 0x7d, 0x19, 0xbe, 0x88, 0x39, 0x99, 0xbf,
  0x5a, 0x27, 0xb3, 0x3e, 0x6a, 0xdd, 0x4e, 0xbf, 0x63, 0xff, 0xef, 0x3f,
  0x5f, 0x03, 0x35, 0x3f, 0x4f, 0x13, 0x10, 0xbf, 0x6a, 0x92, 0xa4, 0x3f,
  0xb1, 0xaf, 0x8c, 0x3f, 0x41, 0x62, 0x08, 0x3e, 0xa2, 0xf9, 0x5e, 0x3f,
  0xdc, 0x07, 0x80, 0x3f, 0x43, 0x8d, 0x8d, 0xbe, 0x63, 0x00, 0xcc, 0x3e,
  0x47, 0x84, 0xca, 0xbe, 0x19, 0xcf, 0x3b, 0xbe, 0x18, 0x56, 0xe4, 0xbe,
  0xcc, 0x43, 0xd6, 0xbe, 0x0a, 0x69, 0x89, 0xbe, 0xc0, 0x59, 0x67, 0x3e,
  0x4d, 0x6b, 0xa1, 0xbd, 0xc9, 0x2d, 0x03, 0xbe, 0xb2, 0xc8, 0x87, 0x3f,
  0xc1, 0x2a, 0xd1, 0xbe, 0x9c, 0x0a, 0x9d, 0xbf, 0xdb, 0xbc, 0x14, 0x3f,
  0x49, 0xdf, 0x9e, 0xbe, 0x24, 0x17, 0x57, 0x3f, 0x65, 0x25, 0x6a, 0x3f,
  0xb0, 0x90, 0xf9, 0x3e, 0x8d, 0x12, 0x75, 0xbf, 0x48, 0x91, 0xf1, 0x3e,
  0xb2, 0x8c, 0x43, 0xbf, 0xa7, 0x66, 0x82, 0xbf, 0xff, 0x44, 0x6a, 0x3f,
  0x9d, 0x4c, 0x75, 0x3d, 0xe9, 0xfd, 0x52, 0x3f, 0xe8, 0x56, 0x36, 0xbf,
  0xc9, 0x50, 0x50, 0xbe, 0x08, 0x1e, 0x92, 0xbe, 0x00, 0xd9, 0x0a, 0x3e,
  0xaa, 0x4c, 0x25, 0x3e, 0xdb, 0x83, 0x8e, 0xbe, 0xd8, 0x88, 0xaf, 0xbe,
  0xf6, 0x82, 0xf1, 0xbf, 0x2b, 0xa8, 0xb0, 0xbd, 0x30, 0x09, 0xbc, 0x3e,
  0x8e, 0x21, 0xf4, 0xbf, 0x07, 0x66, 0x4a, 0xbf, 0x81, 0xb1, 0x7b, 0x3e,
  0xb7, 0xac, 0xd0, 0xbe, 0x90, 0xfd, 0x73, 0xc0, 0xf1, 0x7a, 0xb3, 0x3e,
  0x73, 0xfe, 0x1c, 0xbe, 0x36, 0xb6, 0x9c, 0x3f, 0xb7, 0x8c, 0x89, 0x3e,
  0xbb, 0x30, 0x31, 0xbe, 0x1a, 0x37, 0x0d, 0xbe, 0xbf, 0x2e, 0xe2, 0x3e,
  0x27, 0x34, 0x8c, 0xbe, 0xc6, 0xe0, 0x28, 0x3e, 0x64, 0x70, 0xf0, 0x3e,
  0x5a, 0x4f, 0x1e, 0xc0, 0x75, 0xb4, 0x4b, 0x3f, 0x46, 0x79, 0x8b, 0xbf,
  0x79, 0xcb, 0x08, 0xc0, 0x00, 0x01, 0x41, 0xbe, 0x97, 0x15, 0xa7, 0xbf,
  0xa0, 0xbf, 0x09, 0xc0, 0x83, 0x9b, 0x2f, 0xbf, 0x23, 0xf8, 0xb3, 0x3e,
  0x5c, 0x98, 0xae, 0x3f, 0x02, 0x7f, 0xf1, 0x3e, 0x9a, 0xbf, 0x1f, 0x3f,
  0xa0, 0x76, 0xf0, 0xbf, 0x58, 0xb3, 0xbf, 0x3e, 0xfc, 0x3b, 0x88, 0x3d,
  0x93, 0xa6, 0xd3, 0xbe, 0xc2, 0x3a, 0xf8, 0x3e, 0x97, 0xb5, 0xa5, 0x3e,
  0x8f, 0x9d, 0xc2, 0x3e, 0xa8, 0x0a, 0x87, 0x3f, 0x19, 0xa2, 0x07, 0xc0,
  0x50, 0x1e, 0x82, 0x3d, 0x2a, 0x9c, 0x97, 0xbf, 0xd6, 0xbc, 0xaf, 0xbf,
  0xa9, 0x71, 0xb7, 0x3e, 0xde, 0x65, 0x27, 0xc0, 0x3c, 0x0d, 0x1c, 0xc0,
  0x58, 0xb9, 0x2c, 0x3e, 0xb9, 0x5a, 0xf5, 0xbd, 0x96, 0x9b, 0xa1, 0xbf,
  0x15, 0x85, 0xeb, 0xbc, 0x71, 0x65, 0x65, 0xbe, 0xdd, 0xef, 0x07, 0x3d,
  0xba, 0x1e, 0xaf, 0xbd, 0x2e, 0x2e, 0x20, 0x3e, 0x66, 0x60, 0xc0, 0x3e,
  0x28, 0x65, 0x88, 0x3e, 0x7e, 0xf2, 0xff, 0xff, 0x04, 0x00, 0x00, 0x00,
  0x50, 0x00, 0x00, 0x00, 0x00, 0x00, 0x00, 0x00, 0x00, 0x00, 0x00, 0x00,
  0x00, 0x00, 0x00, 0x00, 0x00, 0x00, 0x00, 0x00, 0x00, 0x00, 0x00, 0x00,
  0x00, 0x00, 0x00, 0x00, 0x00, 0x00, 0x00, 0x00, 0x00, 0x00, 0x00, 0x00,
  0x00, 0x00, 0x00, 0x00, 0x00, 0x00, 0x00, 0x00, 0x00, 0x00, 0x00, 0x00,
  0x00, 0x00, 0x00, 0x00, 0x00, 0x00, 0x00, 0x00, 0x00, 0x00, 0x00, 0x00,
  0x00, 0x00, 0x00, 0x00, 0x00, 0x00, 0x00, 0x00, 0x00, 0x00, 0x00, 0x00,
  0x00, 0x00, 0x00, 0x00, 0x00, 0x00, 0x00, 0x00, 0x00, 0x00, 0x00, 0x00,
  0xda, 0xf2, 0xff, 0xff, 0x04, 0x00, 0x00, 0x00, 0xf0, 0x00, 0x00, 0x00,
  0xa8, 0x82, 0x28, 0xc0, 0x9b, 0xec, 0xb7, 0x3e, 0xc4, 0xd2, 0x8e, 0xbe,
  0x79, 0x77, 0x3a, 0xc0, 0xcc, 0x11, 0x11, 0x3f, 0x5a, 0xca, 0xa3, 0x3c,
  0xb7, 0xa0, 0x13, 0x40, 0x1e, 0xfa, 0x2b, 0xbf, 0x7a, 0x24, 0x0d, 0x3f,
  0x96, 0xfd, 0x51, 0x3f, 0x71, 0x3e, 0x72, 0x3b, 0x58, 0xfb, 0xa7, 0x3f,
  0x6b, 0x66, 0x2b, 0x40, 0x87, 0xa1, 0xd7, 0xbe, 0xdd, 0xd6, 0x11, 0x3f,
  0x37, 0x9e, 0x30, 0x3e, 0x50, 0x5f, 0xe3, 0x3f, 0xaf, 0x92, 0x00, 0x3e,
  0xf3, 0xfa, 0x13, 0x40, 0x78, 0x11, 0x4d, 0xbe, 0x20, 0xe3, 0xd4, 0x3d,
  0x06, 0x3c, 0xd7, 0x3f, 0xf4, 0x1b, 0xff, 0x3e, 0x65, 0xb9, 0x04, 0x3f,
  0x55, 0x61, 0xda, 0xbf, 0x94, 0xba, 0xa3, 0xbe, 0x48, 0xae, 0xd3, 0xbd,
  0x99, 0x60, 0x1c, 0xc0, 0x1e, 0x6e, 0x30, 0x3f, 0xa1, 0x94, 0x94, 0xbe,
  0x22, 0xf5, 0x26, 0xc0, 0x9e, 0x44, 0x09, 0x40, 0x39, 0xc5, 0x84, 0xbe,
  0x95, 0xa2, 0x23, 0xc0, 0xf7, 0xc6, 0x58, 0x3f, 0x27, 0x3b, 0x99, 0xbe,
  0x93, 0x66, 0x01, 0x3f, 0x99, 0xb7, 0xb2, 0xbf, 0xaf, 0xe8, 0x7e, 0x3f,
  0xda, 0x76, 0x0d, 0x40, 0xba, 0xf0, 0xae, 0xbd, 0x1b, 0x01, 0xfb, 0x3d,
  0xe7, 0x25, 0x0b, 0x40, 0x6f, 0x46, 0x9d, 0xbf, 0x64, 0xd9, 0x4b, 0x3f,
  0x83, 0x84, 0x16, 0xc0, 0x0f, 0x7a, 0x81, 0xbd, 0x99, 0xc2, 0x99, 0xbe,
  0x53, 0xa6, 0x2a, 0xc0, 0x69, 0x19, 0x35, 0x3f, 0xcb, 0xb6, 0x5e, 0xbf,
  0xd8, 0x61, 0x07, 0xbf, 0xab, 0xc9, 0x6c, 0x40, 0x04, 0x84, 0xb4, 0xbf,
  0x9d, 0x34, 0x7a, 0x3f, 0x71, 0xf7, 0x93, 0x3f, 0x3e, 0xd9, 0xd4, 0x3e,
  0x2f, 0x2b, 0x07, 0xc0, 0xbe, 0x06, 0x44, 0xbe, 0x84, 0xc4, 0xbb, 0x3d,
  0xd6, 0xf3, 0xff, 0xff, 0x04, 0x00, 0x00, 0x00, 0x28, 0x00, 0x00, 0x00,
  0x00, 0x00, 0x00, 0x00, 0x00, 0x00, 0x00, 0x00, 0x00, 0x00, 0x00, 0x00,
  0x00, 0x00, 0x00, 0x00, 0x00, 0x00, 0x00, 0x00, 0x00, 0x00, 0x00, 0x00,
  0x00, 0x00, 0x00, 0x00, 0x00, 0x00, 0x00, 0x00, 0x00, 0x00, 0x00, 0x00,
  0x00, 0x00, 0x00, 0x00, 0x0a, 0xf4, 0xff, 0xff, 0x04, 0x00, 0x00, 0x00,
  0x60, 0x09, 0x00, 0x00, 0xd1, 0x93, 0xf8, 0x3f, 0x9f, 0x42, 0x0a, 0x40,
  0x5c, 0xbc, 0x74, 0xbf, 0x61, 0x7e, 0x19, 0xbe, 0xa5, 0xe2, 0x95, 0xbf,
  0xd8, 0xf8, 0x4f, 0xbe, 0xd1, 0x82, 0x85, 0xbf, 0xe7, 0x91, 0xdf, 0xbe,
  0xa7, 0x8a, 0x6a, 0x3f, 0xe1, 0x37, 0xe2, 0x3f, 0x31, 0xf6, 0x59, 0x3f,
  0x6b, 0x87, 0x02, 0x40, 0x1f, 0xc4, 0x94, 0x3d, 0xfa, 0xec, 0x75, 0xbf,
  0x3e, 0x38, 0x85, 0xbf, 0xa6, 0xeb, 0xe7, 0x3f, 0x5a, 0xa1, 0x07, 0x40,
  0xc7, 0x99, 0x2d, 0xbe, 0x3c, 0x3a, 0x12, 0xbf, 0x90, 0x3e, 0xb6, 0x3f,
  0x44, 0xfc, 0x1d, 0x3f, 0x81, 0xfa, 0x11, 0x3f, 0xc2, 0x65, 0xeb, 0xbe,
  0x69, 0xb6, 0x1e, 0x3e, 0xc7, 0xe7, 0xc8, 0xbe, 0xc1, 0x34, 0xf6, 0xbc,
  0x85, 0xdd, 0x2e, 0xbb, 0xdd, 0xa3, 0x1c, 0x3d, 0xab, 0xaa, 0xff, 0xbc,
  0x24, 0x21, 0x8f, 0x3e, 0x74, 0x3e, 0x86, 0x3e, 0x01, 0x9c, 0xd2, 0x3e,
  0x34, 0xb8, 0xd7, 0xbc, 0xdd, 0xac, 0xa3, 0xbe, 0x2a, 0x9d, 0xaf, 0xbc,
  0x27, 0xbd, 0x6d, 0x3e, 0xbe, 0xf5, 0x81, 0x3e, 0x6d, 0xfd, 0x92, 0x3e,
  0x55, 0x58, 0x14, 0x3c, 0xf2, 0x55, 0x9f, 0x3e, 0x83, 0xb2, 0xd4, 0xbd,
  0x0d, 0x26, 0x58, 0x3c, 0x2b, 0x77, 0x25, 0x3d, 0x7f, 0x92, 0x10, 0xbe,
  0x8c, 0xfa, 0xb0, 0xba, 0x27, 0x39, 0x81, 0x3d, 0xcc, 0x56, 0xf5, 0xbc,
  0xbf, 0xe2, 0xf4, 0x3d, 0xc2, 0xd5, 0xba, 0xbe, 0x58, 0x68, 0xbc, 0xbe,
  0x85, 0xf7, 0xf3, 0xbe, 0x26, 0xd6, 0x29, 0xbd, 0xe5, 0x6b, 0x99, 0x3c,
  0x07, 0x63, 0x9c, 0xba, 0x11, 0x2a, 0x0a, 0x3e, 0x56, 0x79, 0x93, 0xbd,
  0x06, 0xc3, 0xa6, 0xbe, 0x68, 0xc0, 0x78, 0x3e, 0xd2, 0x0a, 0xd7, 0xbd,
  0x3c, 0x07, 0x4b, 0xbe, 0xfb, 0x3e, 0x56, 0x3f, 0x01, 0xa8, 0x9f, 0x3f,
  0xdd, 0xaa, 0xb6, 0xbe, 0x46, 0xbe, 0x94, 0xbe, 0xf6, 0x62, 0x53, 0xbf,
  0xe2, 0x74, 0x53, 0xbe, 0xed, 0x75, 0xc7, 0xbe, 0x5d, 0x7a, 0xaf, 0xbd,
  0x5e, 0xb7, 0x96, 0x3e, 0xdf, 0x4e, 0x88, 0x3f, 0xf9, 0xf0, 0x84, 0x3e,
  0xc1, 0x64, 0x86, 0x3f, 0x4c, 0x60, 0x06, 0xbf, 0xa1, 0x0d, 0x14, 0xbf,
  0x3c, 0x38, 0x29, 0xbf, 0x62, 0x55, 0x39, 0x3f, 0x77, 0x72, 0xc8, 0x3f,
  0x6b, 0x96, 0x5f, 0x3e, 0xd7, 0x12, 0x09, 0xbe, 0x72, 0xde, 0x2f, 0x3f,
  0x22, 0x51, 0xf2, 0xbd, 0x48, 0xe7, 0x72, 0xbe, 0xeb, 0x1c, 0x38, 0xbd,
  0xb8, 0x27, 0x92, 0x3e, 0x4b, 0xed, 0x92, 0x3e, 0x5f, 0xfb, 0xa9, 0xbe,
  0x28, 0x92, 0x02, 0xbe, 0xb2, 0x4c, 0xb1, 0xbd, 0xaf, 0xd2, 0xa2, 0x3c,
  0xc6, 0xd7, 0x31, 0x3d, 0xaf, 0x1a, 0x47, 0xbf, 0xfe, 0xfc, 0x96, 0xbd,
  0x52, 0xa2, 0x46, 0x3d, 0x57, 0x4c, 0x22, 0xbe, 0xf8, 0xad, 0x09, 0x3f,
  0x9f, 0x6c, 0x84, 0xbd, 0x95, 0x48, 0x73, 0xbe, 0xd3, 0x8b, 0x11, 0xbf,
  0xc9, 0x3c, 0x76, 0xbd, 0x22, 0x8a, 0x1e, 0xbe, 0xfd, 0x6a, 0x6b, 0x3f,
  0x43, 0xfb, 0x37, 0x3f, 0x4f, 0x7c, 0x19, 0xbe, 0x17, 0x67, 0x45, 0xbe,
  0x5c, 0x4e, 0x21, 0xbf, 0x88, 0x58, 0x5a, 0xbd, 0x4f, 0xa6, 0xdd, 0xbd,
  0x82, 0x17, 0xc2, 0xbe, 0xcd, 0x0a, 0xb7, 0x3e, 0x25, 0x53, 0x3d, 0x3f,
  0xab, 0x9b, 0xfd, 0x3e, 0xa1, 0xc1, 0x06, 0x3f, 0xb9, 0xdb, 0x8c, 0xbe,
  0x4b, 0xab, 0xff, 0xbe, 0x15, 0x81, 0xf0, 0xbe, 0x0b, 0xcc, 0x0b, 0x3f,
  0x86, 0x82, 0xdc, 0x3e, 0x5c, 0x6c, 0x70, 0x3e, 0xa4, 0x5c, 0x53, 0x3d,
  0x22, 0xc1, 0x4d, 0x3f, 0xd6, 0x21, 0xf1, 0xbc, 0xad, 0x38, 0x2a, 0x3e,
  0xb7, 0xc3, 0x28, 0x3e, 0x62, 0xff, 0x87, 0xbe, 0x5f, 0xfe, 0xb3, 0xbe,
  0x56, 0x60, 0x10, 0xbf, 0xd7, 0x54, 0x9c, 0x3d, 0xd5, 0xec, 0xca, 0xbe,
  0xa6, 0x49, 0xd0, 0x3e, 0x9f, 0xe4, 0xd7, 0xbe, 0xba, 0x40, 0x99, 0xbf,
  0xdf, 0xd1, 0xa0, 0xbe, 0xe6, 0x93, 0x4a, 0x3e, 0x96, 0x66, 0x07, 0xbc,
  0xd3, 0x67, 0x71, 0x3e, 0xf8, 0xe5, 0x82, 0x3e, 0x8d, 0xa3, 0x06, 0x3e,
  0x6c, 0x40, 0xa6, 0xbf, 0x3f, 0x0a, 0xbf, 0xbe, 0x0e, 0xfa, 0xcf, 0x3e,
  0xc6, 0xbf, 0xeb, 0x3f, 0xbc, 0x9e, 0xfc, 0x3f, 0x95, 0x6b, 0x83, 0xbf,
  0x51, 0x36, 0x69, 0xbe, 0x27, 0x62, 0x9c, 0xbf, 0xd0, 0x95, 0x44, 0xbe,
  0xd6, 0x7c, 0x88, 0xbf, 0x3c, 0x16, 0x52, 0xbf, 0x65, 0xe1, 0xa6, 0x3f,
  0x93, 0xf2, 0xae, 0x3f, 0x52, 0xa3, 0x95, 0x3f, 0x84, 0x7b, 0xbb, 0x3f,
  0xb2, 0x4d, 0x66, 0x3d, 0xb6, 0x78, 0x71, 0xbf, 0x24, 0x5d, 0x45, 0xbf,
  0x0a, 0x28, 0xf4, 0x3f, 0xc7, 0x11, 0xeb, 0x3f, 0xf7, 0x63, 0xd5, 0xbd,
  0xf2, 0x4d, 0x14, 0xbf, 0xc6, 0xd1, 0xde, 0x3f, 0x17, 0x03, 0xe2, 0x3e,
  0xb1, 0x8f, 0x90, 0x3e, 0xb5, 0x02, 0xc7, 0xbe, 0x65, 0xf6, 0x20, 0x3e,
  0x56, 0xc9, 0x1e, 0xbe, 0xa1, 0x08, 0x65, 0x3e, 0xea, 0x4b, 0xde, 0xbe,
  0x72, 0x0e, 0xba, 0xbd, 0x5d, 0x0d, 0x1b, 0x3e, 0x79, 0x2d, 0x0b, 0x3f,
  0xf2, 0xc2, 0xb8, 0x3d, 0x33, 0x1d, 0x24, 0x3e, 0xc8, 0xa7, 0x04, 0xbe,
  0xa7, 0x12, 0x7e, 0xbe, 0xd8, 0x5d, 0x83, 0xbe, 0xc7, 0xee, 0x11, 0x3f,
  0xd4, 0x89, 0xd8, 0x3e, 0x49, 0x86, 0x74, 0xbd, 0xc7, 0x2f, 0x15, 0x3e,
  0xa1, 0x29, 0x05, 0x3f, 0x57, 0x9b, 0x94, 0x3f, 0x9d, 0x2d, 0x9d, 0x3f,
  0x61, 0xe6, 0xb5, 0xbe, 0xf4, 0xef, 0x04, 0xbf, 0x07, 0x49, 0x4e, 0xbf,
  0x48, 0xa6, 0x1f, 0xbd, 0xe9, 0x2a, 0xc0, 0xbe, 0x16, 0x6a, 0xb6, 0xbe,
  0x76, 0x9f, 0x29, 0x3e, 0x61, 0x9a, 0x39, 0x3f, 0x6e, 0x5d, 0x93, 0xbe,
  0x8d, 0x1e, 0x66, 0x3f, 0x2f, 0xb0, 0xc1, 0x3d, 0xb9, 0xce, 0x10, 0xbf,
  0xed, 0x6c, 0x55, 0xbe, 0x73, 0x9b, 0x4c, 0x3f, 0xb7, 0xce, 0x98, 0x3f,
  0xac, 0xf1, 0xa6, 0xbe, 0x0c, 0xf1, 0x0c, 0xbf, 0x0c, 0x28, 0x1f, 0x3f,
  0x40, 0xcc, 0x80, 0x3f, 0xbe, 0x17, 0x78, 0x3f, 0x01, 0xa4, 0x78, 0xbe,
  0x33, 0xcb, 0xb4, 0xbb, 0x89, 0x4c, 0xb5, 0xbe, 0x98, 0x55, 0xa2, 0xbe,
  0x5d, 0x9d, 0x48, 0xbe, 0xcb, 0x8b, 0x21, 0xbe, 0x47, 0xc8, 0xc3, 0x3e,
  0x52, 0xcf, 0x2d, 0x3f, 0x34, 0x77, 0xe0, 0x3d, 0xf2, 0x77, 0xe0, 0x3e,
  0x23, 0xd7, 0x9d, 0x3e, 0x50, 0xe5, 0x0e, 0xbf, 0xe4, 0x92, 0xbc, 0xbd,
  0xc2, 0xc6, 0x85, 0x3f, 0xaa, 0x94, 0x40, 0x3f, 0x7b, 0x05, 0xc2, 0xbe,
  0x6e, 0xae, 0x76, 0xbe, 0x20, 0xb5, 0x2f, 0x3f, 0xe6, 0xdb, 0x6d, 0x3f,
  0xdb, 0x82, 0x51, 0x3f, 0xf5, 0x40, 0x14, 0xbf, 0x26, 0x18, 0xdc, 0x3d,
  0x36, 0xa0, 0x2f, 0xbf, 0x23, 0x50, 0x6c, 0x3e, 0xa8, 0xc2, 0xf8, 0xbe,
  0x47, 0xb2, 0xb9, 0xbd, 0xba, 0x23, 0xec, 0x3e, 0xe4, 0xbc, 0x23, 0x3f,
  0x6a, 0x86, 0x01, 0x3f, 0xbc, 0x31, 0x7e, 0x3f, 0x12, 0x86, 0x30, 0x3e,
  0x01, 0x82, 0xb3, 0xbe, 0xf0, 0x5c, 0x57, 0xbe, 0xf6, 0xa6, 0x2b, 0x3f,
  0x53, 0x7b, 0x2e, 0x3f, 0x56, 0x6c, 0x90, 0x3c, 0x64, 0x40, 0xc7, 0x3d,
  0x3b, 0x19, 0xea, 0x3e, 0x5e, 0x52, 0xc7, 0xbf, 0x5a, 0xdf, 0xc8, 0xbf,
  0x11, 0x1b, 0x44, 0x3f, 0x9d, 0xa8, 0x9d, 0x3e, 0x7f, 0x4d, 0x0f, 0x3f,
  0xec, 0x76, 0xd6, 0x3e, 0x51, 0xbf, 0x0b, 0x3f, 0x6e, 0x16, 0x14, 0x3f,
  0x10, 0x80, 0xc4, 0xbe, 0xc4, 0x2c, 0x9a, 0xbf, 0x87, 0x54, 0xc1, 0xbe,
  0xa1, 0x87, 0xac, 0xbf, 0xc4, 0x68, 0xe3, 0xbd, 0xe1, 0xec, 0x2f, 0x3f,
  0x6c, 0x93, 0x73, 0x3e, 0xb3, 0x52, 0x82, 0xbf, 0xf1, 0x5d, 0xca, 0xbf,
  0x35, 0x79, 0x8b, 0x3c, 0x2e, 0xc0, 0xdb, 0x3e, 0x27, 0xde, 0x56, 0xbf,
  0xec, 0x0e, 0x3c, 0xbf, 0x23, 0x80, 0x94, 0xbf, 0x78, 0x35, 0x3f, 0x3e,
  0xd2, 0xd9, 0xcd, 0x3e, 0x2c, 0xd4, 0x0f, 0x3f, 0x4e, 0xbe, 0xe4, 0x3d,
  0x2f, 0xf1, 0x1d, 0x3f, 0x22, 0xc0, 0x08, 0x3f, 0x74, 0xc0, 0x41, 0xbf,
  0xb6, 0x3f, 0x5d, 0xbf, 0x39, 0x97, 0x83, 0x3c, 0x33, 0xb5, 0x25, 0xbf,
  0x43, 0xf5, 0x4d, 0xbc, 0x5a, 0x03, 0x6a, 0x3e, 0xde, 0xb4, 0x13, 0x3e,
  0xf9, 0x52, 0x94, 0xbf, 0x55, 0x56, 0x13, 0xbf, 0x16, 0xb7, 0x0e, 0xbe,
  0xc1, 0x0c, 0x85, 0x3e, 0xeb, 0x3c, 0x74, 0xbf, 0xbf, 0xe9, 0xd0, 0xbe,
  0x72, 0xa5, 0x50, 0xbf, 0x69, 0xbf, 0xff, 0x3e, 0xd1, 0xed, 0x21, 0xbe,
  0x10, 0xaa, 0xf1, 0x3d, 0x8c, 0x6b, 0x15, 0x3e, 0xb5, 0x4c, 0xf9, 0x3e,
  0xc8, 0xa6, 0xd0, 0x3a, 0x7f, 0xb9, 0xce, 0xbe, 0x09, 0x8a, 0x21, 0xbf,
  0x20, 0x1b, 0xba, 0xbe, 0x15, 0xd2, 0x24, 0xbf, 0x7b, 0x1f, 0xb2, 0x3b,
  0xef, 0x93, 0x1c, 0x3e, 0x69, 0x06, 0x11, 0x3d, 0x59, 0x2f, 0x21, 0xbf,
  0xa3, 0x16, 0xf0, 0xbe, 0x0a, 0x2e, 0xae, 0x3c, 0xfe, 0xef, 0x68, 0x3e,
  0xc0, 0xdd, 0xc2, 0xbe, 0x5e, 0x59, 0x97, 0xbf, 0xb2, 0xe8, 0xa5, 0xbf,
  0xa5, 0x23, 0x71, 0x3f, 0x0e, 0x68, 0x21, 0x3f, 0x26, 0xa3, 0x5b, 0x3f,
  0xe5, 0xb0, 0xca, 0xbd, 0x27, 0xb5, 0x12, 0x3f, 0x68, 0x68, 0xed, 0x3e,
  0x79, 0x4c, 0xb5, 0xbe, 0x19, 0x7a, 0xaf, 0xbf, 0x40, 0x62, 0x4d, 0xbf,
  0x7f, 0xf1, 0x9b, 0xbf, 0x28, 0xbb, 0xb3, 0x3e, 0xe6, 0x9e, 0x8a, 0x3e,
  0x01, 0x1c, 0x58, 0x3f, 0x8b, 0x85, 0x8a, 0xbf, 0x9c, 0x15, 0xe1, 0xbf,
  0xbd, 0xc4, 0xe0, 0xbe, 0xea, 0xfa, 0x94, 0x3d, 0xf7, 0x84, 0xf2, 0xbe,
  0xc7, 0xcd, 0x87, 0x3e, 0xc4, 0x6f, 0x0c, 0x3f, 0x9f, 0x5b, 0x23, 0xbe,
  0x87, 0x43, 0x14, 0xbe, 0x6e, 0x62, 0xad, 0xbe, 0x96, 0x16, 0x04, 0x3f,
  0xa2, 0x18, 0x58, 0xbe, 0xfe, 0xdf, 0x4e, 0x3d, 0xdf, 0xac, 0x2c, 0x3e,
  0xaa, 0x7f, 0x0e, 0x3f, 0xb0, 0xaf, 0x96, 0x3f, 0x0e, 0xce, 0x60, 0x3f,
  0xf8, 0x71, 0xc4, 0xbe, 0xea, 0x53, 0x7f, 0xbd, 0xc1, 0x19, 0x09, 0xbf,
  0xb6, 0x7c, 0xfe, 0x3d, 0xde, 0xa9, 0x09, 0x3f, 0xb0, 0x46, 0x4d, 0x3f,
  0x23, 0x10, 0xe9, 0x3d, 0xa3, 0x77, 0x96, 0x3e, 0x30, 0xda, 0x47, 0xbf,
  0x7d, 0xf7, 0x86, 0xbf, 0x10, 0xbd, 0xe6, 0x3e, 0x4d, 0x7d, 0xbb, 0x3e,
  0x41, 0x4c, 0x01, 0x3f, 0x44, 0x9e, 0x83, 0x3e, 0xd1, 0x3a, 0x1c, 0x3f,
  0xd3, 0x42, 0xb4, 0x3e, 0xf7, 0x95, 0x0b, 0xbf, 0x4b, 0x3a, 0x35, 0xbf,
  0x3b, 0x9b, 0x3c, 0xbf, 0xd7, 0xfe, 0x3e, 0xbf, 0xb1, 0x17, 0x71, 0x3e,
  0xa8, 0x40, 0x0a, 0x3f, 0x90, 0xe0, 0x22, 0x3f, 0x64, 0xb5, 0x89, 0xbf,
  0x0f, 0xb0, 0x7b, 0xbf, 0x3d, 0x3d, 0x63, 0xbe, 0xc1, 0x9c, 0x23, 0x3e,
  0x40, 0x2f, 0x21, 0xbf, 0xce, 0x24, 0xb6, 0xbf, 0x28, 0x72, 0xb7, 0xbf,
  0xe9, 0x66, 0x69, 0x3f, 0x38, 0x4b, 0x13, 0x3f, 0xa7, 0x1a, 0x74, 0x3f,
  0x80, 0x99, 0x3f, 0x3e, 0x01, 0xa5, 0x2e, 0x3f, 0x87, 0xff, 0x0c, 0x3f,
  0x39, 0xe6, 0xc1, 0xbd, 0xbe, 0x80, 0xb0, 0xbf, 0xf5, 0x1f, 0x4a, 0xbf,
  0xf3, 0xf7, 0xc8, 0xbf, 0x29, 0xa2, 0x1e, 0x3f, 0x62, 0x50, 0x54, 0x3f,
  0x27, 0xb0, 0x88, 0x3f, 0x01, 0x84, 0xb1, 0xbf, 0xad, 0xa3, 0xe6, 0xbf,
  0xd1, 0xbb, 0x38, 0xbf, 0x01, 0xc2, 0x38, 0x3e, 0x97, 0x54, 0x20, 0xbf,
  0x3d, 0x26, 0xc1, 0x3e, 0x2b, 0x4e, 0x4b, 0x3f, 0xde, 0x29, 0x8a, 0xbe,
  0xac, 0xa6, 0x11, 0x3e, 0x7c, 0x32, 0xbe, 0xbe, 0xf2, 0xe2, 0x61, 0x3e,
  0x51, 0xa6, 0x18, 0xbe, 0x62, 0xcd, 0x4f, 0x3e, 0x58, 0x04, 0xbf, 0x3c,
  0x59, 0x15, 0x00, 0x3f, 0xb0, 0xab, 0x90, 0x3f, 0x1a, 0x16, 0x0a, 0x3f,
  0x8f, 0x63, 0x1a, 0xbe, 0x72, 0xf5, 0x9f, 0xbe, 0x14, 0x9e, 0x1e, 0xbf,
  0x75, 0xb4, 0x7f, 0x3d, 0x07, 0xcc, 0x63, 0x3f, 0x65, 0xb4, 0xfc, 0x3e,
  0xe4, 0x87, 0xb1, 0x3e, 0xe8, 0xac, 0x84, 0x3e, 0x5d, 0x82, 0x9b, 0xbf,
  0x22, 0x82, 0x9d, 0xbf, 0xa6, 0x65, 0x4a, 0x3f, 0xc3, 0x6d, 0x4f, 0x3d,
  0x77, 0x12, 0x33, 0x3f, 0x29, 0xe2, 0x01, 0xbe, 0x15, 0x8c, 0xb3, 0x3e,
  0x90, 0x34, 0x0e, 0x3f, 0x84, 0x66, 0x2c, 0xbf, 0x90, 0xff, 0x83, 0xbf,
  0x56, 0x92, 0x1a, 0xbf, 0x7a, 0xa5, 0x82, 0xbf, 0x0f, 0xff, 0xaa, 0x3e,
  0x7f, 0x22, 0x18, 0x3f, 0xeb, 0x57, 0x39, 0x3f, 0xa2, 0xc5, 0x44, 0xbf,
  0x02, 0xd8, 0x82, 0xbf, 0x56, 0xf9, 0x3a, 0x3b, 0x4d, 0xc4, 0x7d, 0x3d,
  0xe2, 0x05, 0x16, 0xbf, 0x42, 0x4d, 0xb9, 0x3f, 0xca, 0xc0, 0xdb, 0x3f,
  0x3b, 0x97, 0x19, 0xbf, 0x72, 0x82, 0xe9, 0xbd, 0x41, 0x6a, 0x1e, 0xbf,
  0x13, 0x66, 0xa9, 0xbe, 0x11, 0xd2, 0x35, 0xbf, 0xc0, 0x11, 0xb0, 0xbe,
  0x4d, 0xf7, 0x02, 0x3f, 0x57, 0x14, 0x9a, 0x3f, 0x0d, 0x08, 0xf7, 0x3e,
  0x7a, 0xa4, 0x9d, 0x3f, 0x71, 0x4c, 0x06, 0xbe, 0x00, 0xd8, 0x0b, 0xbf,
  0x42, 0x92, 0x1a, 0xbf, 0x2d, 0x95, 0x8d, 0x3f, 0x77, 0x1c, 0x84, 0x3f,
  0xbf, 0x1e, 0x19, 0xbf, 0xc5, 0xf5, 0x56, 0xbe, 0x8e, 0x08, 0x95, 0x3f,
  0xb9, 0xac, 0xa7, 0x3f, 0xa3, 0xd6, 0xc3, 0x3f, 0xaa, 0x8a, 0x3b, 0xbf,
  0x68, 0xa2, 0x8e, 0xbd, 0x9c, 0xb0, 0xea, 0xbe, 0x93, 0x1e, 0x17, 0x3e,
  0xa6, 0xf1, 0xe7, 0xbe, 0xcf, 0x79, 0x88, 0xbe, 0x81, 0x1b, 0x29, 0x3f,
  0xab, 0xf1, 0x50, 0x3f, 0x54, 0x96, 0x78, 0x3f, 0x46, 0xec, 0x9b, 0x3f,
  0x5d, 0x2a, 0xc2, 0xbe, 0x1d, 0x92, 0x2d, 0xbf, 0xe1, 0x7a, 0x3f, 0xbf,
  0xe8, 0xc4, 0x8d, 0x3f, 0x46, 0x50, 0x58, 0x3f, 0xf8, 0xcb, 0xe0, 0x3e,
  0xf1, 0xfd, 0x4e, 0xbe, 0x92, 0xf1, 0x81, 0x3f, 0xb6, 0x9d, 0xaf, 0xbe,
  0x5a, 0x5c, 0xfd, 0xbe, 0xd7, 0x3a, 0x27, 0x3e, 0xf3, 0x87, 0x8e, 0x3e,
  0x0a, 0x67, 0xa7, 0x3e, 0xb1, 0x40, 0x3e, 0xbd, 0x1a, 0x30, 0x89, 0xbd,
  0xa1, 0xad, 0x17, 0xbd, 0x28, 0x65, 0x1a, 0x3d, 0xbd, 0x76, 0x9a, 0xbe,
  0x5d, 0x8d, 0xe0, 0xbe, 0x23, 0x41, 0xf6, 0xbd, 0xbd, 0x84, 0x88, 0xbc,
  0x3a, 0xe7, 0x4b, 0x3e, 0x6b, 0x57, 0xe9, 0x3e, 0x8d, 0xb8, 0xd5, 0xbe,
  0x58, 0x82, 0x0f, 0xbe, 0x85, 0x15, 0x68, 0x3e, 0xef, 0xd9, 0xde, 0xbd,
  0x92, 0x79, 0x9f, 0x3d, 0xa1, 0xa7, 0x47, 0x3e, 0x7a, 0x31, 0xb0, 0x3e,
  0x75, 0xf0, 0xc2, 0xbe, 0x7a, 0x65, 0x82, 0xbd, 0x8d, 0xef, 0xd3, 0xbe,
  0x33, 0xb1, 0xb7, 0x3e, 0x46, 0x18, 0x74, 0xbe, 0xd8, 0x9a, 0x3f, 0xbe,
  0x1f, 0x8c, 0x64, 0x3c, 0x55, 0xcb, 0xdf, 0x3e, 0xab, 0xa6, 0x14, 0x3f,
  0x2e, 0x6a, 0xcc, 0x3e, 0xe0, 0x6b, 0x57, 0xbe, 0x44, 0xbd, 0x68, 0xbe,
  0x77, 0x68, 0xa4, 0xbe, 0x76, 0x88, 0x19, 0x3e, 0x90, 0x53, 0x2c, 0x3f,
  0x87, 0x2c, 0x23, 0x3f, 0x2a, 0xbf, 0x25, 0xbc, 0xfc, 0xdb, 0xc0, 0xbd,
  0xe0, 0x08, 0x71, 0xbf, 0x0d, 0x56, 0x4e, 0xbf, 0x4f, 0xf5, 0x10, 0x3f,
  0xe8, 0x45, 0xe9, 0x3d, 0x01, 0xc9, 0xc7, 0x3e, 0x7c, 0xe0, 0x9f, 0xbe,
  0xae, 0xfc, 0x67, 0x3e, 0x7e, 0xd7, 0xee, 0xbc, 0xec, 0x2a, 0xc2, 0xbe,
  0x74, 0xaf, 0x76, 0xbf, 0x83, 0xe0, 0x8f, 0xbf, 0xb5, 0xf5, 0x76, 0xbf,
  0xca, 0x7c, 0x0f, 0x3f, 0x80, 0xe3, 0x28, 0x3e, 0x11, 0x10, 0x06, 0x3f,
  0xb2, 0xe1, 0xc4, 0xbe, 0x50, 0xef, 0x61, 0xbf, 0xa1, 0xa9, 0x02, 0xbf,
  0xa9, 0x71, 0x2d, 0x3e, 0x3c, 0x2e, 0x2a, 0xbe, 0x43, 0x6a, 0x4f, 0x3f,
  0x3e, 0x88, 0x83, 0x3f, 0xe6, 0x61, 0xf4, 0xbe, 0x89, 0x12, 0xdc, 0xbd,
  0xad, 0xcf, 0x20, 0xbf, 0xe3, 0x79, 0x27, 0x3e, 0x2c, 0xaf, 0x17, 0xbf,
  0xd7, 0xc8, 0x7b, 0xbe, 0xc1, 0x5f, 0x36, 0x3f, 0xf4, 0x73, 0x7a, 0x3f,
  0xb6, 0x6f, 0xe7, 0x3e, 0x66, 0x9c, 0x5f, 0x3f, 0x42, 0x5b, 0x4c, 0x3d,
  0xc8, 0x74, 0x1f, 0xbf, 0xdb, 0xd4, 0xfe, 0xbe, 0x71, 0xeb, 0x41, 0x3f,
  0xbf, 0xec, 0x7c, 0x3f, 0x0c, 0x1e, 0xa1, 0x3e, 0x1c, 0xd6, 0xcf, 0xbe,
  0x34, 0xd3, 0x10, 0x3f, 0xf6, 0x46, 0x72, 0x3f, 0xf7, 0x24, 0x9f, 0x3f,
  0x37, 0xe3, 0x85, 0xbe, 0x39, 0xba, 0x9f, 0xbe, 0xf2, 0x17, 0xee, 0xbe,
  0xb8, 0x7c, 0x1f, 0xbe, 0x22, 0xe7, 0xd8, 0xbe, 0x58, 0xb8, 0xff, 0xbe,
  0xda, 0xa1, 0xd5, 0x3e, 0x58, 0x7f, 0x95, 0x3f, 0x3d, 0xe9, 0x00, 0x3f,
  0xee, 0x7d, 0x7e, 0x3f, 0x38, 0xd4, 0xb9, 0x3e, 0x28, 0x40, 0x85, 0xbe,
  0x45, 0x39, 0xb8, 0xbe, 0x9c, 0xf8, 0x61, 0x3f, 0xa5, 0x98, 0x3a, 0x3f,
  0x2f, 0x85, 0x59, 0xbf, 0xa7, 0x2c, 0xb6, 0xbe, 0xcf, 0x78, 0x9d, 0x3f,
  0xba, 0x76, 0x68, 0x3f, 0x8b, 0xf1, 0x9f, 0x3f, 0x35, 0xc3, 0x3b, 0xbf,
  0x96, 0xb5, 0xe8, 0xbe, 0xd0, 0x03, 0x2b, 0xbf, 0xcf, 0x9f, 0x3a, 0x3e,
  0xa1, 0xac, 0xef, 0xbe, 0x26, 0x58, 0xab, 0xbe, 0xa0, 0x31, 0x34, 0x3f,
  0x65, 0x0f, 0x82, 0x3f, 0xae, 0x17, 0x80, 0x3f, 0xcf, 0x5c, 0x9d, 0x3f,
  0x35, 0xde, 0x5b, 0xbe, 0xe5, 0xff, 0x13, 0xbf, 0x87, 0x1f, 0x32, 0xbf,
  0x5a, 0xc4, 0x51, 0x3f, 0xa8, 0xdb, 0x86, 0x3f, 0x70, 0x16, 0x3d, 0x3e,
  0x22, 0x2c, 0xa6, 0x3d, 0xdc, 0x6c, 0xf7, 0x3e, 0xe3, 0xe1, 0xf6, 0xbe,
  0xe3, 0x3f, 0xb3, 0xbe, 0xf9, 0xb4, 0xb6, 0x3e, 0x0e, 0xd2, 0x77, 0x3e,
  0x5f, 0x12, 0xb6, 0x3e, 0x27, 0xdb, 0x54, 0x3e, 0xb6, 0xee, 0x95, 0x3e,
  0x10, 0xad, 0x97, 0x3d, 0x29, 0xbd, 0xb4, 0xbe, 0x07, 0x7e, 0x26, 0xbf,
  0x45, 0x32, 0xd3, 0xbe, 0x95, 0x65, 0x52, 0xbe, 0xc9, 0xe4, 0xcf, 0x3d,
  0x1e, 0xdf, 0x90, 0xbc, 0x5d, 0xcd, 0xc5, 0x3e, 0xe1, 0x7d, 0xfa, 0xbe,
  0x37, 0x84, 0xb7, 0xbe, 0xa1, 0x79, 0x60, 0xbe, 0x3c, 0x29, 0x76, 0xbd,
  0x26, 0xdd, 0xd5, 0xbe, 0x76, 0xfd, 0xff, 0xff, 0x04, 0x00, 0x00, 0x00,
  0x90, 0x01, 0x00, 0x00, 0xe1, 0xdc, 0xe6, 0xbd, 0xbd, 0x09, 0x1b, 0xbf,
  0xba, 0x53, 0x94, 0x3f, 0x7d, 0xd2, 0xbb, 0xbe, 0xc3, 0xe7, 0x8f, 0x3d,
  0x3f, 0x8a, 0xf0, 0x3e, 0xfc, 0xc4, 0x26, 0x3f, 0xce, 0xdc, 0x9a, 0x3e,
  0x84, 0x73, 0xf2, 0xbe, 0xe1, 0x59, 0x8d, 0xbd, 0x93, 0x73, 0x24, 0x3c,
  0x61, 0x90, 0x98, 0xbe, 0x91, 0xf6, 0x1a, 0xc0, 0xaf, 0x4e, 0xb8, 0x3e,
  0x85, 0xea, 0xbc, 0xbe, 0x48, 0xae, 0xdc, 0x3e, 0x6b, 0x75, 0xf8, 0x3e,
  0xc4, 0xad, 0x9d, 0xbd, 0x44, 0xa4, 0x0f, 0x3f, 0xb6, 0x43, 0x1a, 0x3f,
  0x98, 0xad, 0x06, 0xc0, 0x09, 0xef, 0x99, 0xbf, 0x5a, 0x88, 0xc4, 0xbf,
  0x38, 0x43, 0x96, 0xbf, 0xdd, 0x6f, 0x37, 0x40, 0xb6, 0x5c, 0x02, 0x40,
  0xaa, 0xb2, 0x06, 0x40, 0x69, 0xaf, 0xb8, 0xbf, 0x05, 0x50, 0x5a, 0xbf,
  0x70, 0x22, 0x51, 0xbf, 0xba, 0x16, 0x51, 0x40, 0xcc, 0xbb, 0x48, 0x40,
  0x03, 0xf5, 0xc6, 0x3f, 0x3a, 0x89, 0x24, 0x40, 0x59, 0x8a, 0x86, 0xbf,
  0x21, 0x2f, 0xa8, 0xbf, 0x18, 0xc8, 0x3b, 0xbf, 0xa7, 0xb5, 0xc9, 0x3f,
  0x6f, 0x03, 0x45, 0x40, 0x33, 0xea, 0xe2, 0x3e, 0x15, 0x5f, 0x51, 0x3f,
  0x98, 0x1a, 0x5a, 0xbe, 0x8a, 0xdb, 0x3a, 0xc0, 0x4f, 0x1e, 0x29, 0xbe,
  0x22, 0x94, 0x8c, 0x3e, 0xe0, 0x47, 0xb8, 0x3b, 0xe2, 0xb0, 0x2f, 0x3e,
  0x86, 0x0e, 0x87, 0x3e, 0xfb, 0x48, 0xe9, 0xbe, 0xe4, 0x04, 0xe9, 0x3e,
  0x63, 0x17, 0xea, 0x3f, 0x06, 0x87, 0xa9, 0x3f, 0x5d, 0xf3, 0x85, 0x3f,
  0xc1, 0x55, 0x0a, 0x3f, 0x9c, 0xff, 0xba, 0xbf, 0x47, 0x4c, 0x13, 0xc0,
  0x8c, 0xcd, 0x17, 0xc0, 0x4b, 0x4d, 0x22, 0x3f, 0x36, 0x13, 0x25, 0x3f,
  0x1f, 0xa3, 0xec, 0xbd, 0xbb, 0xf0, 0xe1, 0x3f, 0x6d, 0x94, 0xfc, 0x3f,
  0x93, 0xf0, 0x2d, 0x40, 0x2a, 0xc5, 0x0b, 0x40, 0xa9, 0x4b, 0x92, 0xbf,
  0x0f, 0xe6, 0x72, 0xbf, 0x40, 0xfa, 0x01, 0xbf, 0xdb, 0x72, 0xa1, 0x3f,
  0x74, 0xa1, 0xfe, 0x3f, 0x80, 0x2b, 0x96, 0x3f, 0x3d, 0xbd, 0x9c, 0xbe,
  0x5e, 0xdb, 0xf7, 0xbe, 0xbb, 0x23, 0x7c, 0x3e, 0xcb, 0x09, 0x0a, 0xbe,
  0x34, 0x90, 0x7f, 0x3f, 0xd0, 0x41, 0x8c, 0x3e, 0xdb, 0xbb, 0xdf, 0x3d,
  0xb2, 0xc7, 0x9d, 0xbf, 0xb2, 0x0b, 0xf3, 0xbe, 0x6b, 0xa8, 0x3d, 0xbe,
  0x6a, 0x2c, 0xf6, 0x3f, 0x1c, 0x28, 0x38, 0x3f, 0xee, 0x43, 0x3d, 0x40,
  0xec, 0x72, 0xe6, 0x3f, 0x39, 0xfa, 0xee, 0xbf, 0xe1, 0xe8, 0x9d, 0xbf,
  0x88, 0x77, 0xa7, 0xbf, 0x28, 0xa8, 0x28, 0x40, 0xfe, 0x55, 0x0d, 0xbf,
  0x4f, 0x05, 0x10, 0x40, 0xde, 0xe2, 0x42, 0x40, 0xe8, 0xbe, 0xc1, 0x3f,
  0xa9, 0x33, 0x2d, 0x40, 0x85, 0xba, 0xf0, 0x3f, 0xdb, 0x42, 0xe6, 0xbf,
  0xac, 0x40, 0xe0, 0xbe, 0xde, 0x0d, 0xc1, 0xbf, 0x66, 0x1c, 0x31, 0x40,
  0x4e, 0xba, 0x83, 0x3f, 0x4d, 0x33, 0xbf, 0x3f, 0x12, 0xff, 0xff, 0xff,
  0x04, 0x00, 0x00, 0x00, 0x0c, 0x00, 0x00, 0x00, 0xff, 0xff, 0xff, 0xff,
  0x04, 0x00, 0x00, 0x00, 0x14, 0x00, 0x00, 0x00, 0x2a, 0xff, 0xff, 0xff,
  0x04, 0x00, 0x00, 0x00, 0x0c, 0x00, 0x00, 0x00, 0xff, 0xff, 0xff, 0xff,
  0x02, 0x00, 0x00, 0x00, 0x0a, 0x00, 0x00, 0x00, 0x2c, 0xef, 0xff, 0xff,
  0x30, 0xef, 0xff, 0xff, 0x0f, 0x00, 0x00, 0x00, 0x4d, 0x4c, 0x49, 0x52,
  0x20, 0x43, 0x6f, 0x6e, 0x76, 0x65, 0x72, 0x74, 0x65, 0x64, 0x2e, 0x00,
  0x01, 0x00, 0x00, 0x00, 0x14, 0x00, 0x00, 0x00, 0x00, 0x00, 0x0e, 0x00,
  0x18, 0x00, 0x14, 0x00, 0x10, 0x00, 0x0c, 0x00, 0x08, 0x00, 0x04, 0x00,
  0x0e, 0x00, 0x00, 0x00, 0x14, 0x00, 0x00, 0x00, 0x1c, 0x00, 0x00, 0x00,
  0xcc, 0x03, 0x00, 0x00, 0xd0, 0x03, 0x00, 0x00, 0xd4, 0x03, 0x00, 0x00,
  0x04, 0x00, 0x00, 0x00, 0x6d, 0x61, 0x69, 0x6e, 0x00, 0x00, 0x00, 0x00,
  0x12, 0x00, 0x00, 0x00, 0x84, 0x03, 0x00, 0x00, 0x24, 0x03, 0x00, 0x00,
  0xec, 0x02, 0x00, 0x00, 0xac, 0x02, 0x00, 0x00, 0x88, 0x02, 0x00, 0x00,
  0x58, 0x02, 0x00, 0x00, 0x14, 0x02, 0x00, 0x00, 0xec, 0x01, 0x00, 0x00,
  0xb8, 0x01, 0x00, 0x00, 0x94, 0x01, 0x00, 0x00, 0x64, 0x01, 0x00, 0x00,
  0x20, 0x01, 0x00, 0x00, 0xf8, 0x00, 0x00, 0x00, 0xc4, 0x00, 0x00, 0x00,
  0xa0, 0x00, 0x00, 0x00, 0x78, 0x00, 0x00, 0x00, 0x40, 0x00, 0x00, 0x00,
  0x04, 0x00, 0x00, 0x00, 0x2e, 0xfd, 0xff, 0xff, 0x1c, 0x00, 0x00, 0x00,
  0x00, 0x00, 0x00, 0x09, 0x1c, 0x00, 0x00, 0x00, 0x20, 0x00, 0x00, 0x00,
  0x06, 0x00, 0x00, 0x00, 0x00, 0x00, 0x06, 0x00, 0x08, 0x00, 0x04, 0x00,
  0x06, 0x00, 0x00, 0x00, 0x00, 0x00, 0x80, 0x3f, 0x01, 0x00, 0x00, 0x00,
  0x20, 0x00, 0x00, 0x00, 0x01, 0x00, 0x00, 0x00, 0x1f, 0x00, 0x00, 0x00,
  0x66, 0xfd, 0xff, 0xff, 0x14, 0x00, 0x00, 0x00, 0x00, 0x00, 0x00, 0x08,
  0x10, 0x00, 0x00, 0x00, 0x14, 0x00, 0x00, 0x00, 0x05, 0x00, 0x00, 0x00,
  0x20, 0xf0, 0xff, 0xff, 0x01, 0x00, 0x00, 0x00, 0x1f, 0x00, 0x00, 0x00,
  0x03, 0x00, 0x00, 0x00, 0x1e, 0x00, 0x00, 0x00, 0x08, 0x00, 0x00, 0x00,
  0x0c, 0x00, 0x00, 0x00, 0xca, 0xfd, 0xff, 0xff, 0x0c, 0x00, 0x00, 0x00,
  0x10, 0x00, 0x00, 0x00, 0x02, 0x00, 0x00, 0x00, 0x01, 0x00, 0x00, 0x00,
  0x1e, 0x00, 0x00, 0x00, 0x02, 0x00, 0x00, 0x00, 0x1d, 0x00, 0x00, 0x00,
  0x0d, 0x00, 0x00, 0x00, 0xee, 0xfd, 0xff, 0xff, 0x0c, 0x00, 0x00, 0x00,
  0x10, 0x00, 0x00, 0x00, 0x04, 0x00, 0x00, 0x00, 0x01, 0x00, 0x00, 0x00,
  0x1d, 0x00, 0x00, 0x00, 0x01, 0x00, 0x00, 0x00, 0x1c, 0x00, 0x00, 0x00,
  0xde, 0xfd, 0xff, 0xff, 0x14, 0x00, 0x00, 0x00, 0x00, 0x00, 0x00, 0x0b,
  0x10, 0x00, 0x00, 0x00, 0x14, 0x00, 0x00, 0x00, 0x03, 0x00, 0x00, 0x00,
  0x98, 0xf0, 0xff, 0xff, 0x01, 0x00, 0x00, 0x00, 0x1c, 0x00, 0x00, 0x00,
  0x02, 0x00, 0x00, 0x00, 0x1b, 0x00, 0x00, 0x00, 0x09, 0x00, 0x00, 0x00,
  0x3e, 0xfe, 0xff, 0xff, 0x0c, 0x00, 0x00, 0x00, 0x10, 0x00, 0x00, 0x00,
  0x02, 0x00, 0x00, 0x00, 0x01, 0x00, 0x00, 0x00, 0x1b, 0x00, 0x00, 0x00,
  0x02, 0x00, 0x00, 0x00, 0x1a, 0x00, 0x00, 0x00, 0x01, 0x00, 0x00, 0x00,
  0x32, 0xfe, 0xff, 0xff, 0x14, 0x00, 0x00, 0x00, 0x00, 0x00, 0x00, 0x01,
  0x1c, 0x00, 0x00, 0x00, 0x20, 0x00, 0x00, 0x00, 0x01, 0x00, 0x00, 0x00,
  0x22, 0xfe, 0xff, 0xff, 0x01, 0x00, 0x00, 0x00, 0x01, 0x00, 0x00, 0x00,
  0x00, 0x00, 0x00, 0x01, 0x01, 0x00, 0x00, 0x00, 0x1a, 0x00, 0x00, 0x00,
  0x03, 0x00, 0x00, 0x00, 0x19, 0x00, 0x00, 0x00, 0x03, 0x00, 0x00, 0x00,
  0x05, 0x00, 0x00, 0x00, 0x16, 0xfe, 0xff, 0xff, 0x10, 0x00, 0x00, 0x00,
  0x00, 0x00, 0x00, 0x34, 0x0c, 0x00, 0x00, 0x00, 0x10, 0x00, 0x00, 0x00,
  0x28, 0xf1, 0xff, 0xff, 0x01, 0x00, 0x00, 0x00, 0x19, 0x00, 0x00, 0x00,
  0x02, 0x00, 0x00, 0x00, 0x18, 0x00, 0x00, 0x00, 0x0e, 0x00, 0x00, 0x00,
  0xce, 0xfe, 0xff, 0xff, 0x0c, 0x00, 0x00, 0x00, 0x10, 0x00, 0x00, 0x00,
  0x04, 0x00, 0x00, 0x00, 0x01, 0x00, 0x00, 0x00, 0x18, 0x00, 0x00, 0x00,
  0x01, 0x00, 0x00, 0x00, 0x17, 0x00, 0x00, 0x00, 0xbe, 0xfe, 0xff, 0xff,
  0x14, 0x00, 0x00, 0x00, 0x00, 0x00, 0x00, 0x0b, 0x10, 0x00, 0x00, 0x00,
  0x14, 0x00, 0x00, 0x00, 0x03, 0x00, 0x00, 0x00, 0x78, 0xf1, 0xff, 0xff,
  0x01, 0x00, 0x00, 0x00, 0x17, 0x00, 0x00, 0x00, 0x02, 0x00, 0x00, 0x00,
  0x16, 0x00, 0x00, 0x00, 0x0a, 0x00, 0x00, 0x00, 0x1e, 0xff, 0xff, 0xff,
  0x0c, 0x00, 0x00, 0x00, 0x10, 0x00, 0x00, 0x00, 0x02, 0x00, 0x00, 0x00,
  0x01, 0x00, 0x00, 0x00, 0x16, 0x00, 0x00, 0x00, 0x02, 0x00, 0x00, 0x00,
  0x15, 0x00, 0x00, 0x00, 0x01, 0x00, 0x00, 0x00, 0x12, 0xff, 0xff, 0xff,
  0x14, 0x00, 0x00, 0x00, 0x00, 0x00, 0x00, 0x01, 0x1c, 0x00, 0x00, 0x00,
  0x20, 0x00, 0x00, 0x00, 0x01, 0x00, 0x00, 0x00, 0x02, 0xff, 0xff, 0xff,
  0x01, 0x00, 0x00, 0x00, 0x01, 0x00, 0x00, 0x00, 0x00, 0x00, 0x00, 0x01,
  0x01, 0x00, 0x00, 0x00, 0x15, 0x00, 0x00, 0x00, 0x03, 0x00, 0x00, 0x00,
  0x14, 0x00, 0x00, 0x00, 0x04, 0x00, 0x00, 0x00, 0x05, 0x00, 0x00, 0x00,
  0xf6, 0xfe, 0xff, 0xff, 0x10, 0x00, 0x00, 0x00, 0x00, 0x00, 0x00, 0x34,
  0x0c, 0x00, 0x00, 0x00, 0x10, 0x00, 0x00, 0x00, 0x08, 0xf2, 0xff, 0xff,
  0x01, 0x00, 0x00, 0x00, 0x14, 0x00, 0x00, 0x00, 0x02, 0x00, 0x00, 0x00,
  0x13, 0x00, 0x00, 0x00, 0x0e, 0x00, 0x00, 0x00, 0xae, 0xff, 0xff, 0xff,
  0x0c, 0x00, 0x00, 0x00, 0x10, 0x00, 0x00, 0x00, 0x04, 0x00, 0x00, 0x00,
  0x01, 0x00, 0x00, 0x00, 0x13, 0x00, 0x00, 0x00, 0x01, 0x00, 0x00, 0x00,
  0x12, 0x00, 0x00, 0x00, 0x9e, 0xff, 0xff, 0xff, 0x14, 0x00, 0x00, 0x00,
  0x00, 0x00, 0x00, 0x0b, 0x10, 0x00, 0x00, 0x00, 0x14, 0x00, 0x00, 0x00,
  0x03, 0x00, 0x00, 0x00, 0x58, 0xf2, 0xff, 0xff, 0x01, 0x00, 0x00, 0x00,
  0x12, 0x00, 0x00, 0x00, 0x02, 0x00, 0x00, 0x00, 0x11, 0x00, 0x00, 0x00,
  0x0b, 0x00, 0x00, 0x00, 0x00, 0x00, 0x0a, 0x00, 0x10, 0x00, 0x0c, 0x00,
  0x08, 0x00, 0x04, 0x00, 0x0a, 0x00, 0x00, 0x00, 0x0c, 0x00, 0x00, 0x00,
  0x10, 0x00, 0x00, 0x00, 0x02, 0x00, 0x00, 0x00, 0x01, 0x00, 0x00, 0x00,
  0x11, 0x00, 0x00, 0x00, 0x02, 0x00, 0x00, 0x00, 0x10, 0x00, 0x00, 0x00,
  0x02, 0x00, 0x00, 0x00, 0x00, 0x00, 0x0e, 0x00, 0x1a, 0x00, 0x14, 0x00,
  0x10, 0x00, 0x0c, 0x00, 0x0b, 0x00, 0x04, 0x00, 0x0e, 0x00, 0x00, 0x00,
  0x20, 0x00, 0x00, 0x00, 0x00, 0x00, 0x00, 0x01, 0x28, 0x00, 0x00, 0x00,
  0x2c, 0x00, 0x00, 0x00, 0x01, 0x00, 0x00, 0x00, 0x00, 0x00, 0x0a, 0x00,
  0x10, 0x00, 0x0f, 0x00, 0x08, 0x00, 0x04, 0x00, 0x0a, 0x00, 0x00, 0x00,
  0x01, 0x00, 0x00, 0x00, 0x01, 0x00, 0x00, 0x00, 0x00, 0x00, 0x00, 0x01,
  0x01, 0x00, 0x00, 0x00, 0x10, 0x00, 0x00, 0x00, 0x03, 0x00, 0x00, 0x00,
  0x0f, 0x00, 0x00, 0x00, 0x06, 0x00, 0x00, 0x00, 0x07, 0x00, 0x00, 0x00,
  0x00, 0x00, 0x0e, 0x00, 0x14, 0x00, 0x00, 0x00, 0x10, 0x00, 0x0c, 0x00,
  0x0b, 0x00, 0x04, 0x00, 0x0e, 0x00, 0x00, 0x00, 0x10, 0x00, 0x00, 0x00,
  0x00, 0x00, 0x00, 0x34, 0x0c, 0x00, 0x00, 0x00, 0x10, 0x00, 0x00, 0x00,
  0x20, 0xf3, 0xff, 0xff, 0x01, 0x00, 0x00, 0x00, 0x0f, 0x00, 0x00, 0x00,
  0x02, 0x00, 0x00, 0x00, 0x00, 0x00, 0x00, 0x00, 0x0e, 0x00, 0x00, 0x00,
  0x01, 0x00, 0x00, 0x00, 0x20, 0x00, 0x00, 0x00, 0x01, 0x00, 0x00, 0x00,
  0x00, 0x00, 0x00, 0x00, 0x21, 0x00, 0x00, 0x00, 0x08, 0x0c, 0x00, 0x00,
  0xb0, 0x0b, 0x00, 0x00, 0x58, 0x0b, 0x00, 0x00, 0x10, 0x0b, 0x00, 0x00,
  0xb0, 0x0a, 0x00, 0x00, 0x74, 0x0a, 0x00, 0x00, 0x2c, 0x0a, 0x00, 0x00,
  0xf0, 0x09, 0x00, 0x00, 0xb0, 0x09, 0x00, 0x00, 0x6c, 0x09, 0x00, 0x00,
  0x28, 0x09, 0x00, 0x00, 0xe0, 0x08, 0x00, 0x00, 0xa0, 0x08, 0x00, 0x00,
  0x5c, 0x08, 0x00, 0x00, 0x1c, 0x08, 0x00, 0x00, 0x98, 0x07, 0x00, 0x00,
  0x20, 0x07, 0x00, 0x00, 0xa8, 0x06, 0x00, 0x00, 0x40, 0x06, 0x00, 0x00,
  0xd4, 0x05, 0x00, 0x00, 0x50, 0x05, 0x00, 0x00, 0xd8, 0x04, 0x00, 0x00,
  0x60, 0x04, 0x00, 0x00, 0xf8, 0x03, 0x00, 0x00, 0x8c, 0x03, 0x00, 0x00,
  0x08, 0x03, 0x00, 0x00, 0x90, 0x02, 0x00, 0x00, 0x18, 0x02, 0x00, 0x00,
  0xb0, 0x01, 0x00, 0x00, 0x44, 0x01, 0x00, 0x00, 0xe0, 0x00, 0x00, 0x00,
  0x60, 0x00, 0x00, 0x00, 0x04, 0x00, 0x00, 0x00, 0x92, 0xf4, 0xff, 0xff,
  0x00, 0x00, 0x00, 0x01, 0x14, 0x00, 0x00, 0x00, 0x1c, 0x00, 0x00, 0x00,
  0x1c, 0x00, 0x00, 0x00, 0x21, 0x00, 0x00, 0x00, 0x34, 0x00, 0x00, 0x00,
  0x02, 0x00, 0x00, 0x00, 0xff, 0xff, 0xff, 0xff, 0x05, 0x00, 0x00, 0x00,
  0xf8, 0xf3, 0xff, 0xff, 0x1b, 0x00, 0x00, 0x00, 0x53, 0x74, 0x61, 0x74,
  0x65, 0x66, 0x75, 0x6c, 0x50, 0x61, 0x72, 0x74, 0x69, 0x74, 0x69, 0x6f,
  0x6e, 0x65, 0x64, 0x43, 0x61, 0x6c, 0x6c, 0x5f, 0x31, 0x3a, 0x30, 0x00,
  0x02, 0x00, 0x00, 0x00, 0x01, 0x00, 0x00, 0x00, 0x05, 0x00, 0x00, 0x00,
  0xea, 0xf4, 0xff, 0xff, 0x00, 0x00, 0x00, 0x01, 0x14, 0x00, 0x00, 0x00,
  0x1c, 0x00, 0x00, 0x00, 0x1c, 0x00, 0x00, 0x00, 0x20, 0x00, 0x00, 0x00,
  0x58, 0x00, 0x00, 0x00, 0x02, 0x00, 0x00, 0x00, 0xff, 0xff, 0xff, 0xff,
  0x05, 0x00, 0x00, 0x00, 0x50, 0xf4, 0xff, 0xff, 0x3c, 0x00, 0x00, 0x00,
  0x73, 0x65, 0x71, 0x75, 0x65, 0x6e, 0x74, 0x69, 0x61, 0x6c, 0x5f, 0x34,
  0x5f, 0x31, 0x2f, 0x64, 0x65, 0x6e, 0x73, 0x65, 0x5f, 0x34, 0x5f, 0x31,
  0x2f, 0x4d, 0x61, 0x74, 0x4d, 0x75, 0x6c, 0x3b, 0x73, 0x65, 0x71, 0x75,
  0x65, 0x6e, 0x74, 0x69, 0x61, 0x6c, 0x5f, 0x34, 0x5f, 0x31, 0x2f, 0x64,
  0x65, 0x6e, 0x73, 0x65, 0x5f, 0x34, 0x5f, 0x31, 0x2f, 0x41, 0x64, 0x64,
  0x00, 0x00, 0x00, 0x00, 0x02, 0x00, 0x00, 0x00, 0x01, 0x00, 0x00, 0x00,
  0x05, 0x00, 0x00, 0x00, 0x66, 0xf5, 0xff, 0xff, 0x00, 0x00, 0x00, 0x01,
  0x14, 0x00, 0x00, 0x00, 0x1c, 0x00, 0x00, 0x00, 0x1c, 0x00, 0x00, 0x00,
  0x1f, 0x00, 0x00, 0x00, 0x3c, 0x00, 0x00, 0x00, 0x02, 0x00, 0x00, 0x00,
  0xff, 0xff, 0xff, 0xff, 0x14, 0x00, 0x00, 0x00, 0xcc, 0xf4, 0xff, 0xff,
  0x22, 0x00, 0x00, 0x00, 0x73, 0x65, 0x71, 0x75, 0x65, 0x6e, 0x74, 0x69,
  0x61, 0x6c, 0x5f, 0x34, 0x5f, 0x31, 0x2f, 0x66, 0x6c, 0x61, 0x74, 0x74,
  0x65, 0x6e, 0x5f, 0x34, 0x5f, 0x31, 0x2f, 0x52, 0x65, 0x73, 0x68, 0x61,
  0x70, 0x65, 0x00, 0x00, 0x02, 0x00, 0x00, 0x00, 0x01, 0x00, 0x00, 0x00,
  0x14, 0x00, 0x00, 0x00, 0xc6, 0xf5, 0xff, 0xff, 0x00, 0x00, 0x00, 0x01,
  0x14, 0x00, 0x00, 0x00, 0x20, 0x00, 0x00, 0x00, 0x20, 0x00, 0x00, 0x00,
  0x1e, 0x00, 0x00, 0x00, 0x40, 0x00, 0x00, 0x00, 0x03, 0x00, 0x00, 0x00,
  0xff, 0xff, 0xff, 0xff, 0x02, 0x00, 0x00, 0x00, 0x0a, 0x00, 0x00, 0x00,
  0x30, 0xf5, 0xff, 0xff, 0x22, 0x00, 0x00, 0x00, 0x73, 0x65, 0x71, 0x75,
  0x65, 0x6e, 0x74, 0x69, 0x61, 0x6c, 0x5f, 0x34, 0x5f, 0x31, 0x2f, 0x63,
  0x6f, 0x6e, 0x76, 0x31, 0x64, 0x5f, 0x31, 0x34, 0x5f, 0x31, 0x2f, 0x53,
  0x69, 0x67, 0x6d, 0x6f, 0x69, 0x64, 0x00, 0x00, 0x03, 0x00, 0x00, 0x00,
  0x01, 0x00, 0x00, 0x00, 0x02, 0x00, 0x00, 0x00, 0x0a, 0x00, 0x00, 0x00,
  0x2e, 0xf6, 0xff, 0xff, 0x00, 0x00, 0x00, 0x01, 0x14, 0x00, 0x00, 0x00,
  0x20, 0x00, 0x00, 0x00, 0x20, 0x00, 0x00, 0x00, 0x1d, 0x00, 0x00, 0x00,
  0x3c, 0x00, 0x00, 0x00, 0x03, 0x00, 0x00, 0x00, 0xff, 0xff, 0xff, 0xff,
  0x02, 0x00, 0x00, 0x00, 0x0a, 0x00, 0x00, 0x00, 0x98, 0xf5, 0xff, 0xff,
  0x1e, 0x00, 0x00, 0x00, 0x73, 0x65, 0x71, 0x75, 0x65, 0x6e, 0x74, 0x69,
  0x61, 0x6c, 0x5f, 0x34, 0x5f, 0x31, 0x2f, 0x63, 0x6f, 0x6e, 0x76, 0x31,
  0x64, 0x5f, 0x31, 0x34, 0x5f, 0x31, 0x2f, 0x61, 0x64, 0x64, 0x00, 0x00,
  0x03, 0x00, 0x00, 0x00, 0x01, 0x00, 0x00, 0x00, 0x02, 0x00, 0x00, 0x00,
  0x0a, 0x00, 0x00, 0x00, 0x92, 0xf6, 0xff, 0xff, 0x00, 0x00, 0x00, 0x01,
  0x14, 0x00, 0x00, 0x00, 0x20, 0x00, 0x00, 0x00, 0x20, 0x00, 0x00, 0x00,
  0x1c, 0x00, 0x00, 0x00, 0x4c, 0x00, 0x00, 0x00, 0x03, 0x00, 0x00, 0x00,
  0xff, 0xff, 0xff, 0xff, 0x02, 0x00, 0x00, 0x00, 0x0a, 0x00, 0x00, 0x00,
  0xfc, 0xf5, 0xff, 0xff, 0x2e, 0x00, 0x00, 0x00, 0x73, 0x65, 0x71, 0x75,
  0x65, 0x6e, 0x74, 0x69, 0x61, 0x6c, 0x5f, 0x34, 0x5f, 0x31, 0x2f, 0x63,
  0x6f, 0x6e, 0x76, 0x31, 0x64, 0x5f, 0x31, 0x34, 0x5f, 0x31, 0x2f, 0x63,
  0x6f, 0x6e, 0x76, 0x6f, 0x6c, 0x75, 0x74, 0x69, 0x6f, 0x6e, 0x2f, 0x53,
  0x71, 0x75, 0x65, 0x65, 0x7a, 0x65, 0x00, 0x00, 0x03, 0x00, 0x00, 0x00,
  0x01, 0x00, 0x00, 0x00, 0x02, 0x00, 0x00, 0x00, 0x0a, 0x00, 0x00, 0x00,
  0x06, 0xf7, 0xff, 0xff, 0x00, 0x00, 0x00, 0x01, 0x14, 0x00, 0x00, 0x00,
  0x24, 0x00, 0x00, 0x00, 0x24, 0x00, 0x00, 0x00, 0x1b, 0x00, 0x00, 0x00,
  0x48, 0x00, 0x00, 0x00, 0x04, 0x00, 0x00, 0x00, 0xff, 0xff, 0xff, 0xff,
  0x01, 0x00, 0x00, 0x00, 0x02, 0x00, 0x00, 0x00, 0x0a, 0x00, 0x00, 0x00,
  0x74, 0xf6, 0xff, 0xff, 0x26, 0x00, 0x00, 0x00, 0x73, 0x65, 0x71, 0x75,
  0x65, 0x6e, 0x74, 0x69, 0x61, 0x6c, 0x5f, 0x34, 0x5f, 0x31, 0x2f, 0x63,
  0x6f, 0x6e, 0x76, 0x31, 0x64, 0x5f, 0x31, 0x34, 0x5f, 0x31, 0x2f, 0x63,
  0x6f, 0x6e, 0x76, 0x6f, 0x6c, 0x75, 0x74, 0x69, 0x6f, 0x6e, 0x00, 0x00,
  0x04, 0x00, 0x00, 0x00, 0x01, 0x00, 0x00, 0x00, 0x01, 0x00, 0x00, 0x00,
  0x02, 0x00, 0x00, 0x00, 0x0a, 0x00, 0x00, 0x00, 0x7a, 0xf7, 0xff, 0xff,
  0x00, 0x00, 0x00, 0x01, 0x14, 0x00, 0x00, 0x00, 0x24, 0x00, 0x00, 0x00,
  0x24, 0x00, 0x00, 0x00, 0x1a, 0x00, 0x00, 0x00, 0x54, 0x00, 0x00, 0x00,
  0x04, 0x00, 0x00, 0x00, 0xff, 0xff, 0xff, 0xff, 0x01, 0x00, 0x00, 0x00,
  0x02, 0x00, 0x00, 0x00, 0x0a, 0x00, 0x00, 0x00, 0xe8, 0xf6, 0xff, 0xff,
  0x31, 0x00, 0x00, 0x00, 0x73, 0x65, 0x71, 0x75, 0x65, 0x6e, 0x74, 0x69,
  0x61, 0x6c, 0x5f, 0x34, 0x5f, 0x31, 0x2f, 0x63, 0x6f, 0x6e, 0x76, 0x31,
  0x64, 0x5f, 0x31, 0x34, 0x5f, 0x31, 0x2f, 0x63, 0x6f, 0x6e, 0x76, 0x6f,
  0x6c, 0x75, 0x74, 0x69, 0x6f, 0x6e, 0x2f, 0x45, 0x78, 0x70, 0x61, 0x6e,
  0x64, 0x44, 0x69, 0x6d, 0x73, 0x00, 0x00, 0x00, 0x04, 0x00, 0x00, 0x00,
  0x01, 0x00, 0x00, 0x00, 0x01, 0x00, 0x00, 0x00, 0x02, 0x00, 0x00, 0x00,
  0x0a, 0x00, 0x00, 0x00, 0xfa, 0xf7, 0xff, 0xff, 0x00, 0x00, 0x00, 0x01,
  0x14, 0x00, 0x00, 0x00, 0x20, 0x00, 0x00, 0x00, 0x20, 0x00, 0x00, 0x00,
  0x19, 0x00, 0x00, 0x00, 0x40, 0x00, 0x00, 0x00, 0x03, 0x00, 0x00, 0x00,
  0xff, 0xff, 0xff, 0xff, 0x02, 0x00, 0x00, 0x00, 0x0a, 0x00, 0x00, 0x00,
  0x64, 0xf7, 0xff, 0xff, 0x22, 0x00, 0x00, 0x00, 0x73, 0x65, 0x71, 0x75,
  0x65, 0x6e, 0x74, 0x69, 0x61, 0x6c, 0x5f, 0x34, 0x5f, 0x31, 0x2f, 0x63,
  0x6f, 0x6e, 0x76, 0x31, 0x64, 0x5f, 0x31, 0x33, 0x5f, 0x31, 0x2f, 0x53,
  0x69, 0x67, 0x6d, 0x6f, 0x69, 0x64, 0x00, 0x00, 0x03, 0x00, 0x00, 0x00,
  0x01, 0x00, 0x00, 0x00, 0x02, 0x00, 0x00, 0x00, 0x0a, 0x00, 0x00, 0x00,
  0x62, 0xf8, 0xff, 0xff, 0x00, 0x00, 0x00, 0x01, 0x14, 0x00, 0x00, 0x00,
  0x20, 0x00, 0x00, 0x00, 0x20, 0x00, 0x00, 0x00, 0x18, 0x00, 0x00, 0x00,
  0x3c, 0x00, 0x00, 0x00, 0x03, 0x00, 0x00, 0x00, 0xff, 0xff, 0xff, 0xff,
  0x02, 0x00, 0x00, 0x00, 0x0a, 0x00, 0x00, 0x00, 0xcc, 0xf7, 0xff, 0xff,
  0x1e, 0x00, 0x00, 0x00, 0x73, 0x65, 0x71, 0x75, 0x65, 0x6e, 0x74, 0x69,
  0x61, 0x6c, 0x5f, 0x34, 0x5f, 0x31, 0x2f, 0x63, 0x6f, 0x6e, 0x76, 0x31,
  0x64, 0x5f, 0x31, 0x33, 0x5f, 0x31, 0x2f, 0x61, 0x64, 0x64, 0x00, 0x00,
  0x03, 0x00, 0x00, 0x00, 0x01, 0x00, 0x00, 0x00, 0x02, 0x00, 0x00, 0x00,
  0x0a, 0x00, 0x00, 0x00, 0xc6, 0xf8, 0xff, 0xff, 0x00, 0x00, 0x00, 0x01,
  0x14, 0x00, 0x00, 0x00, 0x20, 0x00, 0x00, 0x00, 0x20, 0x00, 0x00, 0x00,
  0x17, 0x00, 0x00, 0x00, 0x4c, 0x00, 0x00, 0x00, 0x03, 0x00, 0x00, 0x00,
  0xff, 0xff, 0xff, 0xff, 0x02, 0x00, 0x00, 0x00, 0x0a, 0x00, 0x00, 0x00,
  0x30, 0xf8, 0xff, 0xff, 0x2e, 0x00, 0x00, 0x00, 0x73, 0x65, 0x71, 0x75,
  0x65, 0x6e, 0x74, 0x69, 0x61, 0x6c, 0x5f, 0x34, 0x5f, 0x31, 0x2f, 0x63,
  0x6f, 0x6e, 0x76, 0x31, 0x64, 0x5f, 0x31, 0x33, 0x5f, 0x31, 0x2f, 0x63,
  0x6f, 0x6e, 0x76, 0x6f, 0x6c, 0x75, 0x74, 0x69, 0x6f, 0x6e, 0x2f, 0x53,
  0x71, 0x75, 0x65, 0x65, 0x7a, 0x65, 0x00, 0x00, 0x03, 0x00, 0x00, 0x00,
  0x01, 0x00, 0x00, 0x00, 0x02, 0x00, 0x00, 0x00, 0x0a, 0x00, 0x00, 0x00,
  0x3a, 0xf9, 0xff, 0xff, 0x00, 0x00, 0x00, 0x01, 0x14, 0x00, 0x00, 0x00,
  0x24, 0x00, 0x00, 0x00, 0x24, 0x00, 0x00, 0x00, 0x16, 0x00, 0x00, 0x00,
  0x48, 0x00, 0x00, 0x00, 0x04, 0x00, 0x00, 0x00, 0xff, 0xff, 0xff, 0xff,
  0x01, 0x00, 0x00, 0x00, 0x02, 0x00, 0x00, 0x00, 0x0a, 0x00, 0x00, 0x00,
  0xa8, 0xf8, 0xff, 0xff, 0x26, 0x00, 0x00, 0x00, 0x73, 0x65, 0x71, 0x75,
  0x65, 0x6e, 0x74, 0x69, 0x61, 0x6c, 0x5f, 0x34, 0x5f, 0x31, 0x2f, 0x63,
  0x6f, 0x6e, 0x76, 0x31, 0x64, 0x5f, 0x31, 0x33, 0x5f, 0x31, 0x2f, 0x63,
  0x6f, 0x6e, 0x76, 0x6f, 0x6c, 0x75, 0x74, 0x69, 0x6f, 0x6e, 0x00, 0x00,
  0x04, 0x00, 0x00, 0x00, 0x01, 0x00, 0x00, 0x00, 0x01, 0x00, 0x00, 0x00,
  0x02, 0x00, 0x00, 0x00, 0x0a, 0x00, 0x00, 0x00, 0xae, 0xf9, 0xff, 0xff,
  0x00, 0x00, 0x00, 0x01, 0x14, 0x00, 0x00, 0x00, 0x24, 0x00, 0x00, 0x00,
  0x24, 0x00, 0x00, 0x00, 0x15, 0x00, 0x00, 0x00, 0x54, 0x00, 0x00, 0x00,
  0x04, 0x00, 0x00, 0x00, 0xff, 0xff, 0xff, 0xff, 0x01, 0x00, 0x00, 0x00,
  0x04, 0x00, 0x00, 0x00, 0x14, 0x00, 0x00, 0x00, 0x1c, 0xf9, 0xff, 0xff,
  0x31, 0x00, 0x00, 0x00, 0x73, 0x65, 0x71, 0x75, 0x65, 0x6e, 0x74, 0x69,
  0x61, 0x6c, 0x5f, 0x34, 0x5f, 0x31, 0x2f, 0x63, 0x6f, 0x6e, 0x76, 0x31,
  0x64, 0x5f, 0x31, 0x33, 0x5f, 0x31, 0x2f, 0x63, 0x6f, 0x6e, 0x76, 0x6f,
  0x6c, 0x75, 0x74, 0x69, 0x6f, 0x6e, 0x2f, 0x45, 0x78, 0x70, 0x61, 0x6e,
  0x64, 0x44, 0x69, 0x6d, 0x73, 0x00, 0x00, 0x00, 0x04, 0x00, 0x00, 0x00,
  0x01, 0x00, 0x00, 0x00, 0x01, 0x00, 0x00, 0x00, 0x04, 0x00, 0x00, 0x00,
  0x14, 0x00, 0x00, 0x00, 0x2e, 0xfa, 0xff, 0xff, 0x00, 0x00, 0x00, 0x01,
  0x14, 0x00, 0x00, 0x00, 0x20, 0x00, 0x00, 0x00, 0x20, 0x00, 0x00, 0x00,
  0x14, 0x00, 0x00, 0x00, 0x40, 0x00, 0x00, 0x00, 0x03, 0x00, 0x00, 0x00,
  0xff, 0xff, 0xff, 0xff, 0x04, 0x00, 0x00, 0x00, 0x14, 0x00, 0x00, 0x00,
  0x98, 0xf9, 0xff, 0xff, 0x22, 0x00, 0x00, 0x00, 0x73, 0x65, 0x71, 0x75,
  0x65, 0x6e, 0x74, 0x69, 0x61, 0x6c, 0x5f, 0x34, 0x5f, 0x31, 0x2f, 0x63,
  0x6f, 0x6e, 0x76, 0x31, 0x64, 0x5f, 0x31, 0x32, 0x5f, 0x31, 0x2f, 0x53,
  0x69, 0x67, 0x6d, 0x6f, 0x69, 0x64, 0x00, 0x00, 0x03, 0x00, 0x00, 0x00,
  0x01, 0x00, 0x00, 0x00, 0x04, 0x00, 0x00, 0x00, 0x14, 0x00, 0x00, 0x00,
  0x96, 0xfa, 0xff, 0xff, 0x00, 0x00, 0x00, 0x01, 0x14, 0x00, 0x00, 0x00,
  0x20, 0x00, 0x00, 0x00, 0x20, 0x00, 0x00, 0x00, 0x13, 0x00, 0x00, 0x00,
  0x3c, 0x00, 0x00, 0x00, 0x03, 0x00, 0x00, 0x00, 0xff, 0xff, 0xff, 0xff,
  0x04, 0x00, 0x00, 0x00, 0x14, 0x00, 0x00, 0x00, 0x00, 0xfa, 0xff, 0xff,
  0x1e, 0x00, 0x00, 0x00, 0x73, 0x65, 0x71, 0x75, 0x65, 0x6e, 0x74, 0x69,
  0x61, 0x6c, 0x5f, 0x34, 0x5f, 0x31, 0x2f, 0x63, 0x6f, 0x6e, 0x76, 0x31,
  0x64, 0x5f, 0x31, 0x32, 0x5f, 0x31, 0x2f, 0x61, 0x64, 0x64, 0x00, 0x00,
  0x03, 0x00, 0x00, 0x00, 0x01, 0x00, 0x00, 0x00, 0x04, 0x00, 0x00, 0x00,
  0x14, 0x00, 0x00, 0x00, 0xfa, 0xfa, 0xff, 0xff, 0x00, 0x00, 0x00, 0x01,
  0x14, 0x00, 0x00, 0x00, 0x20, 0x00, 0x00, 0x00, 0x20, 0x00, 0x00, 0x00,
  0x12, 0x00, 0x00, 0x00, 0x4c, 0x00, 0x00, 0x00, 0x03, 0x00, 0x00, 0x00,
  0xff, 0xff, 0xff, 0xff, 0x04, 0x00, 0x00, 0x00, 0x14, 0x00, 0x00, 0x00,
  0x64, 0xfa, 0xff, 0xff, 0x2e, 0x00, 0x00, 0x00, 0x73, 0x65, 0x71, 0x75,
  0x65, 0x6e, 0x74, 0x69, 0x61, 0x6c, 0x5f, 0x34, 0x5f, 0x31, 0x2f, 0x63,
  0x6f, 0x6e, 0x76, 0x31, 0x64, 0x5f, 0x31, 0x32, 0x5f, 0x31, 0x2f, 0x63,
  0x6f, 0x6e, 0x76, 0x6f, 0x6c, 0x75, 0x74, 0x69, 0x6f, 0x6e, 0x2f, 0x53,
  0x71, 0x75, 0x65, 0x65, 0x7a, 0x65, 0x00, 0x00, 0x03, 0x00, 0x00, 0x00,
  0x01, 0x00, 0x00, 0x00, 0x04, 0x00, 0x00, 0x00, 0x14, 0x00, 0x00, 0x00,
  0x6e, 0xfb, 0xff, 0xff, 0x00, 0x00, 0x00, 0x01, 0x14, 0x00, 0x00, 0x00,
  0x24, 0x00, 0x00, 0x00, 0x24, 0x00, 0x00, 0x00, 0x11, 0x00, 0x00, 0x00,
  0x48, 0x00, 0x00, 0x00, 0x04, 0x00, 0x00, 0x00, 0xff, 0xff, 0xff, 0xff,
  0x01, 0x00, 0x00, 0x00, 0x04, 0x00, 0x00, 0x00, 0x14, 0x00, 0x00, 0x00,
  0xdc, 0xfa, 0xff, 0xff, 0x26, 0x00, 0x00, 0x00, 0x73, 0x65, 0x71, 0x75,
  0x65, 0x6e, 0x74, 0x69, 0x61, 0x6c, 0x5f, 0x34, 0x5f, 0x31, 0x2f, 0x63,
  0x6f, 0x6e, 0x76, 0x31, 0x64, 0x5f, 0x31, 0x32, 0x5f, 0x31, 0x2f, 0x63,
  0x6f, 0x6e, 0x76, 0x6f, 0x6c, 0x75, 0x74, 0x69, 0x6f, 0x6e, 0x00, 0x00,
  0x04, 0x00, 0x00, 0x00, 0x01, 0x00, 0x00, 0x00, 0x01, 0x00, 0x00, 0x00,
  0x04, 0x00, 0x00, 0x00, 0x14, 0x00, 0x00, 0x00, 0xe2, 0xfb, 0xff, 0xff,
  0x00, 0x00, 0x00, 0x01, 0x14, 0x00, 0x00, 0x00, 0x24, 0x00, 0x00, 0x00,
  0x24, 0x00, 0x00, 0x00, 0x10, 0x00, 0x00, 0x00, 0x54, 0x00, 0x00, 0x00,
  0x04, 0x00, 0x00, 0x00, 0xff, 0xff, 0xff, 0xff, 0x01, 0x00, 0x00, 0x00,
  0x06, 0x00, 0x00, 0x00, 0x01, 0x00, 0x00, 0x00, 0x50, 0xfb, 0xff, 0xff,
  0x31, 0x00, 0x00, 0x00, 0x73, 0x65, 0x71, 0x75, 0x65, 0x6e, 0x74, 0x69,
  0x61, 0x6c, 0x5f, 0x34, 0x5f, 0x31, 0x2f, 0x63, 0x6f, 0x6e, 0x76, 0x31,
  0x64, 0x5f, 0x31, 0x32, 0x5f, 0x31, 0x2f, 0x63, 0x6f, 0x6e, 0x76, 0x6f,
  0x6c, 0x75, 0x74, 0x69, 0x6f, 0x6e, 0x2f, 0x45, 0x78, 0x70, 0x61, 0x6e,
  0x64, 0x44, 0x69, 0x6d, 0x73, 0x00, 0x00, 0x00, 0x04, 0x00, 0x00, 0x00,
  0x01, 0x00, 0x00, 0x00, 0x01, 0x00, 0x00, 0x00, 0x06, 0x00, 0x00, 0x00,
  0x01, 0x00, 0x00, 0x00, 0xb6, 0xfc, 0xff, 0xff, 0x00, 0x00, 0x00, 0x01,
  0x14, 0x00, 0x00, 0x00, 0x14, 0x00, 0x00, 0x00, 0x0f, 0x00, 0x00, 0x00,
  0x00, 0x00, 0x00, 0x02, 0x20, 0x00, 0x00, 0x00, 0xbc, 0xfb, 0xff, 0xff,
  0x10, 0x00, 0x00, 0x00, 0x61, 0x72, 0x69, 0x74, 0x68, 0x2e, 0x63, 0x6f,
  0x6e, 0x73, 0x74, 0x61, 0x6e, 0x74, 0x31, 0x33, 0x00, 0x00, 0x00, 0x00,
  0x00, 0x00, 0x00, 0x00, 0xf2, 0xfc, 0xff, 0xff, 0x00, 0x00, 0x00, 0x01,
  0x14, 0x00, 0x00, 0x00, 0x14, 0x00, 0x00, 0x00, 0x0e, 0x00, 0x00, 0x00,
  0x00, 0x00, 0x00, 0x02, 0x20, 0x00, 0x00, 0x00, 0xf8, 0xfb, 0xff, 0xff,
  0x10, 0x00, 0x00, 0x00, 0x61, 0x72, 0x69, 0x74, 0x68, 0x2e, 0x63, 0x6f,
  0x6e, 0x73, 0x74, 0x61, 0x6e, 0x74, 0x31, 0x32, 0x00, 0x00, 0x00, 0x00,
  0x01, 0x00, 0x00, 0x00, 0x02, 0x00, 0x00, 0x00, 0xca, 0xfd, 0xff, 0xff,
  0x00, 0x00, 0x00, 0x01, 0x10, 0x00, 0x00, 0x00, 0x10, 0x00, 0x00, 0x00,
  0x0d, 0x00, 0x00, 0x00, 0x20, 0x00, 0x00, 0x00, 0x34, 0xfc, 0xff, 0xff,
  0x10, 0x00, 0x00, 0x00, 0x61, 0x72, 0x69, 0x74, 0x68, 0x2e, 0x63, 0x6f,
  0x6e, 0x73, 0x74, 0x61, 0x6e, 0x74, 0x31, 0x31, 0x00, 0x00, 0x00, 0x00,
  0x01, 0x00, 0x00, 0x00, 0x05, 0x00, 0x00, 0x00, 0x06, 0xfe, 0xff, 0xff,
  0x00, 0x00, 0x00, 0x01, 0x10, 0x00, 0x00, 0x00, 0x10, 0x00, 0x00, 0x00,
  0x0c, 0x00, 0x00, 0x00, 0x20, 0x00, 0x00, 0x00, 0x70, 0xfc, 0xff, 0xff,
  0x10, 0x00, 0x00, 0x00, 0x61, 0x72, 0x69, 0x74, 0x68, 0x2e, 0x63, 0x6f,
  0x6e, 0x73, 0x74, 0x61, 0x6e, 0x74, 0x31, 0x30, 0x00, 0x00, 0x00, 0x00,
  0x03, 0x00, 0x00, 0x00, 0x01, 0x00, 0x00, 0x00, 0x01, 0x00, 0x00, 0x00,
  0x14, 0x00, 0x00, 0x00, 0x4a, 0xfe, 0xff, 0xff, 0x00, 0x00, 0x00, 0x01,
  0x10, 0x00, 0x00, 0x00, 0x10, 0x00, 0x00, 0x00, 0x0b, 0x00, 0x00, 0x00,
  0x1c, 0x00, 0x00, 0x00, 0xb4, 0xfc, 0xff, 0xff, 0x0f, 0x00, 0x00, 0x00,
  0x61, 0x72, 0x69, 0x74, 0x68, 0x2e, 0x63, 0x6f, 0x6e, 0x73, 0x74, 0x61,
  0x6e, 0x74, 0x39, 0x00, 0x03, 0x00, 0x00, 0x00, 0x01, 0x00, 0x00, 0x00,
  0x01, 0x00, 0x00, 0x00, 0x0a, 0x00, 0x00, 0x00, 0x8a, 0xfe, 0xff, 0xff,
  0x00, 0x00, 0x00, 0x01, 0x10, 0x00, 0x00, 0x00, 0x10, 0x00, 0x00, 0x00,
  0x0a, 0x00, 0x00, 0x00, 0x1c, 0x00, 0x00, 0x00, 0xf4, 0xfc, 0xff, 0xff,
  0x0f, 0x00, 0x00, 0x00, 0x61, 0x72, 0x69, 0x74, 0x68, 0x2e, 0x63, 0x6f,
  0x6e, 0x73, 0x74, 0x61, 0x6e, 0x74, 0x38, 0x00, 0x03, 0x00, 0x00, 0x00,
  0x01, 0x00, 0x00, 0x00, 0x01, 0x00, 0x00, 0x00, 0x0a, 0x00, 0x00, 0x00,
  0xca, 0xfe, 0xff, 0xff, 0x00, 0x00, 0x00, 0x01, 0x10, 0x00, 0x00, 0x00,
  0x10, 0x00, 0x00, 0x00, 0x09, 0x00, 0x00, 0x00, 0x1c, 0x00, 0x00, 0x00,
  0x34, 0xfd, 0xff, 0xff, 0x0f, 0x00, 0x00, 0x00, 0x61, 0x72, 0x69, 0x74,
  0x68, 0x2e, 0x63, 0x6f, 0x6e, 0x73, 0x74, 0x61, 0x6e, 0x74, 0x37, 0x00,
  0x02, 0x00, 0x00, 0x00, 0x05, 0x00, 0x00, 0x00, 0x14, 0x00, 0x00, 0x00,
  0x06, 0xff, 0xff, 0xff, 0x00, 0x00, 0x00, 0x01, 0x10, 0x00, 0x00, 0x00,
  0x10, 0x00, 0x00, 0x00, 0x08, 0x00, 0x00, 0x00, 0x1c, 0x00, 0x00, 0x00,
  0x70, 0xfd, 0xff, 0xff, 0x0f, 0x00, 0x00, 0x00, 0x61, 0x72, 0x69, 0x74,
  0x68, 0x2e, 0x63, 0x6f, 0x6e, 0x73, 0x74, 0x61, 0x6e, 0x74, 0x36, 0x00,
  0x01, 0x00, 0x00, 0x00, 0x14, 0x00, 0x00, 0x00, 0x3e, 0xff, 0xff, 0xff,
  0x00, 0x00, 0x00, 0x01, 0x10, 0x00, 0x00, 0x00, 0x10, 0x00, 0x00, 0x00,
  0x07, 0x00, 0x00, 0x00, 0x1c, 0x00, 0x00, 0x00, 0xa8, 0xfd, 0xff, 0xff,
  0x0f, 0x00, 0x00, 0x00, 0x61, 0x72, 0x69, 0x74, 0x68, 0x2e, 0x63, 0x6f,
  0x6e, 0x73, 0x74, 0x61, 0x6e, 0x74, 0x35, 0x00, 0x04, 0x00, 0x00, 0x00,
  0x14, 0x00, 0x00, 0x00, 0x01, 0x00, 0x00, 0x00, 0x03, 0x00, 0x00, 0x00,
  0x01, 0x00, 0x00, 0x00, 0x82, 0xff, 0xff, 0xff, 0x00, 0x00, 0x00, 0x01,
  0x10, 0x00, 0x00, 0x00, 0x10, 0x00, 0x00, 0x00, 0x06, 0x00, 0x00, 0x00,
  0x1c, 0x00, 0x00, 0x00, 0xec, 0xfd, 0xff, 0xff, 0x0f, 0x00, 0x00, 0x00,
  0x61, 0x72, 0x69, 0x74, 0x68, 0x2e, 0x63, 0x6f, 0x6e, 0x73, 0x74, 0x61,
  0x6e, 0x74, 0x34, 0x00, 0x01, 0x00, 0x00, 0x00, 0x0a, 0x00, 0x00, 0x00,
  0xba, 0xff, 0xff, 0xff, 0x00, 0x00, 0x00, 0x01, 0x10, 0x00, 0x00, 0x00,
  0x10, 0x00, 0x00, 0x00, 0x05, 0x00, 0x00, 0x00, 0x1c, 0x00, 0x00, 0x00,
  0x24, 0xfe, 0xff, 0xff, 0x0f, 0x00, 0x00, 0x00, 0x61, 0x72, 0x69, 0x74,
  0x68, 0x2e, 0x63, 0x6f, 0x6e, 0x73, 0x74, 0x61, 0x6e, 0x74, 0x33, 0x00,
  0x04, 0x00, 0x00, 0x00, 0x0a, 0x00, 0x00, 0x00, 0x01, 0x00, 0x00, 0x00,
  0x03, 0x00, 0x00, 0x00, 0x14, 0x00, 0x00, 0x00, 0x00, 0x00, 0x16, 0x00,
  0x18, 0x00, 0x14, 0x00, 0x00, 0x00, 0x10, 0x00, 0x0c, 0x00, 0x08, 0x00,
  0x00, 0x00, 0x00, 0x00, 0x00, 0x00, 0x07, 0x00, 0x16, 0x00, 0x00, 0x00,
  0x00, 0x00, 0x00, 0x01, 0x10, 0x00, 0x00, 0x00, 0x10, 0x00, 0x00, 0x00,
  0x04, 0x00, 0x00, 0x00, 0x1c, 0x00, 0x00, 0x00, 0x80, 0xfe, 0xff, 0xff,
  0x0f, 0x00, 0x00, 0x00, 0x61, 0x72, 0x69, 0x74, 0x68, 0x2e, 0x63, 0x6f,
  0x6e, 0x73, 0x74, 0x61, 0x6e, 0x74, 0x32, 0x00, 0x04, 0x00, 0x00, 0x00,
  0x0a, 0x00, 0x00, 0x00, 0x01, 0x00, 0x00, 0x00, 0x01, 0x00, 0x00, 0x00,
  0x0a, 0x00, 0x00, 0x00, 0xc2, 0xff, 0xff, 0xff, 0x00, 0x00, 0x00, 0x01,
  0x14, 0x00, 0x00, 0x00, 0x14, 0x00, 0x00, 0x00, 0x03, 0x00, 0x00, 0x00,
  0x00, 0x00, 0x00, 0x02, 0x1c, 0x00, 0x00, 0x00, 0xc8, 0xfe, 0xff, 0xff,
  0x0f, 0x00, 0x00, 0x00, 0x61, 0x72, 0x69, 0x74, 0x68, 0x2e, 0x63, 0x6f,
  0x6e, 0x73, 0x74, 0x61, 0x6e, 0x74, 0x31, 0x00, 0x01, 0x00, 0x00, 0x00,
  0x03, 0x00, 0x00, 0x00, 0x00, 0x00, 0x16, 0x00, 0x1c, 0x00, 0x18, 0x00,
  0x17, 0x00, 0x10, 0x00, 0x0c, 0x00, 0x08, 0x00, 0x00, 0x00, 0x00, 0x00,
  0x00, 0x00, 0x07, 0x00, 0x16, 0x00, 0x00, 0x00, 0x00, 0x00, 0x00, 0x01,
  0x14, 0x00, 0x00, 0x00, 0x14, 0x00, 0x00, 0x00, 0x02, 0x00, 0x00, 0x00,
  0x00, 0x00, 0x00, 0x02, 0x1c, 0x00, 0x00, 0x00, 0x1c, 0xff, 0xff, 0xff,
  0x0e, 0x00, 0x00, 0x00, 0x61, 0x72, 0x69, 0x74, 0x68, 0x2e, 0x63, 0x6f,
  0x6e, 0x73, 0x74, 0x61, 0x6e, 0x74, 0x00, 0x00, 0x01, 0x00, 0x00, 0x00,
  0x03, 0x00, 0x00, 0x00, 0x00, 0x00, 0x16, 0x00, 0x1c, 0x00, 0x18, 0x00,
  0x00, 0x00, 0x14, 0x00, 0x10, 0x00, 0x0c, 0x00, 0x00, 0x00, 0x00, 0x00,
  0x08, 0x00, 0x07, 0x00, 0x16, 0x00, 0x00, 0x00, 0x00, 0x00, 0x00, 0x01,
  0x14, 0x00, 0x00, 0x00, 0x20, 0x00, 0x00, 0x00, 0x20, 0x00, 0x00, 0x00,
  0x01, 0x00, 0x00, 0x00, 0x40, 0x00, 0x00, 0x00, 0x03, 0x00, 0x00, 0x00,
  0xff, 0xff, 0xff, 0xff, 0x06, 0x00, 0x00, 0x00, 0x01, 0x00, 0x00, 0x00,
  0x80, 0xff, 0xff, 0xff, 0x21, 0x00, 0x00, 0x00, 0x73, 0x65, 0x72, 0x76,
  0x69, 0x6e, 0x67, 0x5f, 0x64, 0x65, 0x66, 0x61, 0x75, 0x6c, 0x74, 0x5f,
  0x6b, 0x65, 0x72, 0x61, 0x73, 0x5f, 0x74, 0x65, 0x6e, 0x73, 0x6f, 0x72,
  0x5f, 0x36, 0x34, 0x3a, 0x30, 0x00, 0x00, 0x00, 0x03, 0x00, 0x00, 0x00,
  0x01, 0x00, 0x00, 0x00, 0x06, 0x00, 0x00, 0x00, 0x01, 0x00, 0x00, 0x00,
  0x07, 0x00, 0x00, 0x00, 0x6c, 0x00, 0x00, 0x00, 0x50, 0x00, 0x00, 0x00,
  0x40, 0x00, 0x00, 0x00, 0x38, 0x00, 0x00, 0x00, 0x24, 0x00, 0x00, 0x00,
  0x14, 0x00, 0x00, 0x00, 0x04, 0x00, 0x00, 0x00, 0xbc, 0xff, 0xff, 0xff,
  0x19, 0x00, 0x00, 0x00, 0x00, 0x00, 0x00, 0x19, 0xc8, 0xff, 0xff, 0xff,
  0x09, 0x00, 0x00, 0x00, 0x00, 0x00, 0x00, 0x09, 0xd4, 0xff, 0xff, 0xff,
  0x0e, 0x00, 0x00, 0x00, 0x00, 0x00, 0x00, 0x0e, 0x04, 0x00, 0x04, 0x00,
  0x04, 0x00, 0x00, 0x00, 0xe8, 0xff, 0xff, 0xff, 0x16, 0x00, 0x00, 0x00,
  0x00, 0x00, 0x00, 0x16, 0xf4, 0xff, 0xff, 0xff, 0x03, 0x00, 0x00, 0x00,
  0x00, 0x00, 0x00, 0x03, 0x0c, 0x00, 0x0c, 0x00, 0x0b, 0x00, 0x00, 0x00,
  0x00, 0x00, 0x04, 0x00, 0x0c, 0x00, 0x00, 0x00, 0x46, 0x00, 0x00, 0x00,
  0x00, 0x00, 0x00, 0x46
};

#endif //GESTURE_MODEL_H