#ifndef GESTURE_MODEL_H
#define GESTURE_MODEL_H


unsigned int gesture_model_len = 7752;
unsigned char gesture_model[] = {
 0x1c, 0x00, 0x00, 0x00, 0x54, 0x46, 0x4c, 0x33, 0x14, 0x00, 0x20, 0x00,
  0x1c, 0x00, 0x18, 0x00, 0x14, 0x00, 0x10, 0x00, 0x0c, 0x00, 0x00, 0x00,
  0x08, 0x00, 0x04, 0x00, 0x14, 0x00, 0x00, 0x00, 0x1c, 0x00, 0x00, 0x00,
  0x8c, 0x00, 0x00, 0x00, 0xe4, 0x00, 0x00, 0x00, 0xe0, 0x0e, 0x00, 0x00,
  0xf0, 0x0e, 0x00, 0x00, 0xa4, 0x1d, 0x00, 0x00, 0x03, 0x00, 0x00, 0x00,
  0x01, 0x00, 0x00, 0x00, 0x04, 0x00, 0x00, 0x00, 0x82, 0xee, 0xff, 0xff,
  0x0c, 0x00, 0x00, 0x00, 0x1c, 0x00, 0x00, 0x00, 0x3c, 0x00, 0x00, 0x00,
  0x0f, 0x00, 0x00, 0x00, 0x73, 0x65, 0x72, 0x76, 0x69, 0x6e, 0x67, 0x5f,
  0x64, 0x65, 0x66, 0x61, 0x75, 0x6c, 0x74, 0x00, 0x01, 0x00, 0x00, 0x00,
  0x04, 0x00, 0x00, 0x00, 0x90, 0xff, 0xff, 0xff, 0x19, 0x00, 0x00, 0x00,
  0x04, 0x00, 0x00, 0x00, 0x08, 0x00, 0x00, 0x00, 0x6f, 0x75, 0x74, 0x70,
  0x75, 0x74, 0x5f, 0x30, 0x00, 0x00, 0x00, 0x00, 0x01, 0x00, 0x00, 0x00,
  0x04, 0x00, 0x00, 0x00, 0xe2, 0xf0, 0xff, 0xff, 0x04, 0x00, 0x00, 0x00,
  0x0c, 0x00, 0x00, 0x00, 0x6b, 0x65, 0x72, 0x61, 0x73, 0x5f, 0x74, 0x65,
  0x6e, 0x73, 0x6f, 0x72, 0x00, 0x00, 0x00, 0x00, 0x02, 0x00, 0x00, 0x00,
  0x34, 0x00, 0x00, 0x00, 0x04, 0x00, 0x00, 0x00, 0xdc, 0xff, 0xff, 0xff,
  0x1c, 0x00, 0x00, 0x00, 0x04, 0x00, 0x00, 0x00, 0x13, 0x00, 0x00, 0x00,
  0x43, 0x4f, 0x4e, 0x56, 0x45, 0x52, 0x53, 0x49, 0x4f, 0x4e, 0x5f, 0x4d,
  0x45, 0x54, 0x41, 0x44, 0x41, 0x54, 0x41, 0x00, 0x08, 0x00, 0x0c, 0x00,
  0x08, 0x00, 0x04, 0x00, 0x08, 0x00, 0x00, 0x00, 0x1b, 0x00, 0x00, 0x00,
  0x04, 0x00, 0x00, 0x00, 0x13, 0x00, 0x00, 0x00, 0x6d, 0x69, 0x6e, 0x5f,
  0x72, 0x75, 0x6e, 0x74, 0x69, 0x6d, 0x65, 0x5f, 0x76, 0x65, 0x72, 0x73,
  0x69, 0x6f, 0x6e, 0x00, 0x1d, 0x00, 0x00, 0x00, 0xf8, 0x0d, 0x00, 0x00,
  0xf0, 0x0d, 0x00, 0x00, 0xa0, 0x0d, 0x00, 0x00, 0x50, 0x0d, 0x00, 0x00,
  0x34, 0x0d, 0x00, 0x00, 0x18, 0x0d, 0x00, 0x00, 0x08, 0x05, 0x00, 0x00,
  0xf8, 0x03, 0x00, 0x00, 0x68, 0x01, 0x00, 0x00, 0x44, 0x01, 0x00, 0x00,
  0x30, 0x01, 0x00, 0x00, 0x18, 0x01, 0x00, 0x00, 0x04, 0x01, 0x00, 0x00,
  0xfc, 0x00, 0x00, 0x00, 0xf4, 0x00, 0x00, 0x00, 0xec, 0x00, 0x00, 0x00,
  0xe4, 0x00, 0x00, 0x00, 0xdc, 0x00, 0x00, 0x00, 0xd4, 0x00, 0x00, 0x00,
  0xcc, 0x00, 0x00, 0x00, 0xc4, 0x00, 0x00, 0x00, 0xbc, 0x00, 0x00, 0x00,
  0xb4, 0x00, 0x00, 0x00, 0xac, 0x00, 0x00, 0x00, 0xa4, 0x00, 0x00, 0x00,
  0x9c, 0x00, 0x00, 0x00, 0x94, 0x00, 0x00, 0x00, 0x74, 0x00, 0x00, 0x00,
  0x04, 0x00, 0x00, 0x00, 0xd2, 0xf1, 0xff, 0xff, 0x04, 0x00, 0x00, 0x00,
  0x60, 0x00, 0x00, 0x00, 0x10, 0x00, 0x00, 0x00, 0x00, 0x00, 0x00, 0x00,
  0x08, 0x00, 0x0e, 0x00, 0x08, 0x00, 0x04, 0x00, 0x08, 0x00, 0x00, 0x00,
  0x10, 0x00, 0x00, 0x00, 0x24, 0x00, 0x00, 0x00, 0x00, 0x00, 0x06, 0x00,
  0x08, 0x00, 0x04, 0x00, 0x06, 0x00, 0x00, 0x00, 0x04, 0x00, 0x00, 0x00,
  0x00, 0x00, 0x00, 0x00, 0x0c, 0x00, 0x18, 0x00, 0x14, 0x00, 0x10, 0x00,
  0x0c, 0x00, 0x04, 0x00, 0x0c, 0x00, 0x00, 0x00, 0x3a, 0xa8, 0x8e, 0x60,
  0xd5, 0x3d, 0x2b, 0x25, 0x02, 0x00, 0x00, 0x00, 0x02, 0x00, 0x00, 0x00,
  0x04, 0x00, 0x00, 0x00, 0x06, 0x00, 0x00, 0x00, 0x32, 0x2e, 0x31, 0x39,
  0x2e, 0x30, 0x00, 0x00, 0x3e, 0xf2, 0xff, 0xff, 0x04, 0x00, 0x00, 0x00,
  0x10, 0x00, 0x00, 0x00, 0x31, 0x2e, 0x31, 0x30, 0x2e, 0x30, 0x00, 0x00,
  0x00, 0x00, 0x00, 0x00, 0x00, 0x00, 0x00, 0x00, 0x70, 0xe4, 0xff, 0xff,
  0x74, 0xe4, 0xff, 0xff, 0x78, 0xe4, 0xff, 0xff, 0x7c, 0xe4, 0xff, 0xff,
  0x80, 0xe4, 0xff, 0xff, 0x84, 0xe4, 0xff, 0xff, 0x88, 0xe4, 0xff, 0xff,
  0x8c, 0xe4, 0xff, 0xff, 0x90, 0xe4, 0xff, 0xff, 0x94, 0xe4, 0xff, 0xff,
  0x98, 0xe4, 0xff, 0xff, 0x9c, 0xe4, 0xff, 0xff, 0xa0, 0xe4, 0xff, 0xff,
  0xa4, 0xe4, 0xff, 0xff, 0x92, 0xf2, 0xff, 0xff, 0x04, 0x00, 0x00, 0x00,
  0x04, 0x00, 0x00, 0x00, 0xfd, 0xff, 0xff, 0xff, 0xa2, 0xf2, 0xff, 0xff,
  0x04, 0x00, 0x00, 0x00, 0x08, 0x00, 0x00, 0x00, 0xff, 0xff, 0xff, 0xff,
  0x20, 0x00, 0x00, 0x00, 0xb6, 0xf2, 0xff, 0xff, 0x04, 0x00, 0x00, 0x00,
  0x04, 0x00, 0x00, 0x00, 0x01, 0x00, 0x00, 0x00, 0xc6, 0xf2, 0xff, 0xff,
  0x04, 0x00, 0x00, 0x00, 0x14, 0x00, 0x00, 0x00, 0x0b, 0x94, 0x0c, 0xbd,
  0xb0, 0xf3, 0xa3, 0xbd, 0x3b, 0xac, 0x1b, 0xbd, 0x5d, 0x21, 0xc5, 0xbc,
  0x44, 0xca, 0x19, 0x3e, 0xe6, 0xf2, 0xff, 0xff, 0x04, 0x00, 0x00, 0x00,
  0x80, 0x02, 0x00, 0x00, 0xb9, 0x9c, 0xaf, 0xbe, 0x78, 0x9e, 0x16, 0xbe,
  0x7b, 0xc2, 0x78, 0x3d, 0x51, 0x90, 0x6d, 0xbe, 0x10, 0x42, 0x2a, 0x3d,
  0x2f, 0x21, 0x0d, 0x40, 0x80, 0xce, 0xf4, 0x3b, 0x90, 0xca, 0x4e, 0xbe,
  0xe8, 0x8b, 0xad, 0xbe, 0xe7, 0x30, 0x8c, 0x3f, 0xf7, 0x33, 0xe1, 0xbc,
  0xff, 0x58, 0x1b, 0x3e, 0x9a, 0x06, 0x07, 0xbe, 0x95, 0xb6, 0xc7, 0xbf,
  0xa7, 0x10, 0x84, 0xbf, 0x05, 0xe1, 0x2f, 0x3a, 0x91, 0xe2, 0x8b, 0x3e,
  0x7e, 0x18, 0xc6, 0xbe, 0x59, 0x49, 0xb8, 0xbe, 0x84, 0x69, 0x44, 0x3b,
  0x78, 0xef, 0xbf, 0xbd, 0xbc, 0xec, 0x5d, 0x3f, 0xde, 0x6a, 0xbe, 0xbe,
  0x06, 0x1a, 0xc8, 0x3e, 0x73, 0xd2, 0xcb, 0xbe, 0xec, 0xbc, 0xdd, 0x3c,
  0xc8, 0x45, 0x88, 0x3f, 0x54, 0x9b, 0x8d, 0x3d, 0x22, 0x6f, 0x3f, 0xbe,
  0xa3, 0x47, 0xab, 0xbf, 0x90, 0xed, 0xd3, 0x3e, 0x1d, 0xf7, 0x10, 0x3f,
  0xfa, 0x77, 0x9e, 0x3e, 0xf0, 0x4b, 0x43, 0xbd, 0x5c, 0xd5, 0x6e, 0x3f,
  0x94, 0x57, 0x7f, 0x3e, 0x7c, 0x5b, 0x9b, 0xbe, 0xdc, 0x55, 0xd9, 0xbf,
  0x85, 0xd0, 0x74, 0xbe, 0xec, 0xa3, 0x29, 0xbf, 0x24, 0x77, 0xa9, 0xbe,
  0x4a, 0x74, 0xd9, 0x3e, 0x31, 0x4f, 0xc3, 0xbf, 0x30, 0x94, 0xac, 0x3e,
  0x38, 0xb2, 0x07, 0x3e, 0x4a, 0xcb, 0x6a, 0x3f, 0xf3, 0xd3, 0x9c, 0x3f,
  0x00, 0x00, 0x13, 0xc0, 0x77, 0xa4, 0xf6, 0xbd, 0x41, 0x6a, 0xae, 0xbe,
  0x38, 0xdb, 0x87, 0xbf, 0xfc, 0x9d, 0x9d, 0x3e, 0xc8, 0x6b, 0x5e, 0x3d,
  0xd9, 0x43, 0x31, 0xbf, 0xac, 0x2a, 0x65, 0x3e, 0xa7, 0x03, 0x6f, 0x3e,
  0x60, 0xde, 0xf3, 0x3c, 0x5b, 0xac, 0x87, 0x3e, 0xe4, 0x96, 0x45, 0xbf,
  0x21, 0x5f, 0xc5, 0x3d, 0xd6, 0xef, 0x85, 0xbe, 0xec, 0x41, 0x15, 0xbe,
  0xfe, 0xad, 0xd0, 0xbd, 0x0f, 0x29, 0xbf, 0xbf, 0x0d, 0x79, 0xcd, 0xbd,
  0x64, 0x1e, 0x2f, 0x3e, 0x15, 0x32, 0x38, 0x3e, 0x51, 0x32, 0xc5, 0x3e,
  0xf8, 0x07, 0x32, 0x3d, 0x41, 0x9f, 0x5c, 0xc0, 0x28, 0xfc, 0xb4, 0xbe,
  0x14, 0x9a, 0xa3, 0x3d, 0x58, 0x5c, 0xc9, 0x3e, 0x8e, 0x88, 0x22, 0xbf,
  0xdb, 0xe4, 0x4f, 0x3f, 0x0a, 0x24, 0x72, 0x3d, 0xce, 0x81, 0xae, 0x3e,
  0xb4, 0xfc, 0xec, 0xbc, 0xb3, 0x57, 0x32, 0xc0, 0xa9, 0x04, 0x49, 0x3f,
  0x12, 0x1e, 0x84, 0x3e, 0x40, 0x52, 0xd7, 0x3d, 0xd1, 0x92, 0xb3, 0x3f,
  0x65, 0xc7, 0x55, 0xbd, 0x60, 0x11, 0xfa, 0x3d, 0x44, 0x9d, 0x56, 0xc0,
  0xfc, 0x6a, 0x09, 0x3e, 0x8f, 0x4f, 0x87, 0xbd, 0x55, 0x2c, 0x7f, 0xbe,
  0xd0, 0x30, 0x13, 0xbf, 0x4f, 0xda, 0x1a, 0xbd, 0xa1, 0x0e, 0x4c, 0xbe,
  0x1b, 0xcd, 0x9e, 0x3d, 0xc7, 0xc5, 0x03, 0x3f, 0xf3, 0x57, 0x26, 0xc0,
  0x8b, 0xf5, 0x20, 0xbf, 0xd5, 0xe7, 0x9b, 0x3e, 0xc9, 0x95, 0x7d, 0xbe,
  0x72, 0x8e, 0x03, 0xbf, 0x03, 0x6d, 0xb6, 0x3e, 0x9e, 0xc8, 0xc9, 0x3e,
  0xa6, 0x61, 0xb9, 0xbd, 0xd0, 0x7a, 0xb1, 0x3e, 0x5f, 0x76, 0xd8, 0xbe,
  0xb8, 0x5d, 0xe1, 0xbd, 0x6b, 0xaa, 0x7d, 0xbf, 0xa5, 0x89, 0x43, 0x3f,
  0x24, 0xce, 0x3c, 0xbe, 0x96, 0x0c, 0x33, 0x3e, 0x6c, 0x07, 0x11, 0x3f,
  0x25, 0x29, 0x8e, 0xbf, 0xe8, 0xd4, 0x23, 0x3f, 0x18, 0x92, 0xee, 0xbd,
  0x62, 0xfb, 0xca, 0x3e, 0x98, 0xc5, 0xec, 0x3e, 0x7c, 0x33, 0x2c, 0x3e,
  0x0a, 0xae, 0xcc, 0x3e, 0x75, 0x9c, 0xee, 0xbd, 0x9c, 0x74, 0x38, 0x3e,
  0xdc, 0xc3, 0xcb, 0x3d, 0x78, 0xe3, 0xf5, 0x3d, 0xce, 0xd0, 0x1d, 0xc0,
  0x13, 0x06, 0x46, 0x3d, 0x95, 0x84, 0x89, 0xbe, 0xc1, 0xcd, 0xc5, 0x3e,
  0x64, 0x96, 0x41, 0x3f, 0x8f, 0xae, 0x87, 0xbf, 0x18, 0x80, 0xbf, 0x3e,
  0x54, 0x8e, 0x4a, 0xbe, 0x02, 0xca, 0x34, 0xbe, 0x46, 0x1d, 0xf6, 0xbf,
  0x5f, 0x8a, 0x3c, 0xbe, 0x7c, 0xeb, 0x89, 0xbe, 0x9e, 0x6d, 0xff, 0xbd,
  0x4e, 0xd3, 0xb1, 0x3e, 0x50, 0x8f, 0x61, 0x3f, 0x07, 0xa9, 0x8f, 0xbe,
  0x4c, 0x18, 0xa3, 0xbf, 0x73, 0x90, 0x46, 0x3c, 0x2f, 0xf8, 0x9c, 0x3e,
  0x14, 0xed, 0x37, 0x3d, 0xf3, 0x10, 0x87, 0x3e, 0xc1, 0xdd, 0xbd, 0x3f,
  0x1c, 0x18, 0xa8, 0xbe, 0x64, 0xd6, 0xb4, 0xbd, 0x0d, 0x05, 0x4d, 0xbe,
  0x1e, 0xe6, 0x5c, 0xbf, 0xf8, 0x8d, 0x2e, 0x3e, 0xf8, 0x06, 0x24, 0xbd,
  0xd0, 0x50, 0xb2, 0x3e, 0x9c, 0x4c, 0x53, 0x3e, 0xf6, 0x3f, 0x3a, 0x3f,
  0x38, 0x07, 0x0e, 0xbd, 0x3e, 0xe8, 0xc6, 0x3e, 0x39, 0x09, 0xc8, 0x3c,
  0x7e, 0x36, 0x96, 0x3a, 0x50, 0x9e, 0x3b, 0x3e, 0xca, 0x54, 0x4d, 0x3f,
  0x58, 0xe8, 0xa3, 0x3f, 0x34, 0x64, 0xbd, 0x3e, 0x72, 0xf5, 0xff, 0xff,
  0x04, 0x00, 0x00, 0x00, 0x00, 0x01, 0x00, 0x00, 0x40, 0x6b, 0x8b, 0xbe,
  0x6a, 0x94, 0x62, 0x3f, 0xde, 0x7b, 0x67, 0x3d, 0x01, 0x2e, 0x8c, 0xbe,
  0xbe, 0x09, 0x7c, 0xbf, 0x70, 0x40, 0x02, 0x3e, 0x34, 0x7e, 0x72, 0x3f,
  0x3a, 0x76, 0x1a, 0xbe, 0xc0, 0x36, 0x16, 0xbc, 0x80, 0x25, 0x85, 0x3d,
  0x3c, 0xde, 0x4b, 0xbd, 0x22, 0x52, 0x63, 0xbe, 0xed, 0x6c, 0x47, 0xbf,
  0xca, 0x3b, 0x01, 0x3f, 0x3b, 0x49, 0xd3, 0x3e, 0x0d, 0xd4, 0xe6, 0x3e,
  0x78, 0x68, 0x4f, 0x3f, 0x1e, 0xbd, 0xd3, 0xbd, 0xe0, 0xf5, 0x51, 0x3d,
  0xb7, 0x1a, 0x67, 0xbe, 0x8f, 0xd0, 0x36, 0xbf, 0xab, 0x67, 0x50, 0xbe,
  0x80, 0x72, 0xc7, 0x3e, 0x19, 0x25, 0xd6, 0x3e, 0xa4, 0x44, 0x2c, 0x3f,
  0xbb, 0xe8, 0xd4, 0xbe, 0x32, 0xe9, 0x52, 0xbe, 0x76, 0xcc, 0x91, 0x3e,
  0x43, 0xfc, 0x87, 0x3f, 0x19, 0xdb, 0xb1, 0xbd, 0x26, 0x92, 0x03, 0x3e,
  0xc4, 0xc4, 0xab, 0x3d, 0x02, 0xfb, 0x81, 0xbf, 0x64, 0x9a, 0x2f, 0x3c,
  0xa0, 0x52, 0x28, 0x3f, 0xcb, 0x05, 0x45, 0x3e, 0x56, 0x11, 0x0f, 0x3e,
  0x91, 0x54, 0x3c, 0x3f, 0xcf, 0xc6, 0x46, 0x3f, 0x63, 0x0a, 0x1a, 0x3e,
  0xa9, 0x7c, 0xb8, 0xbd, 0xef, 0x60, 0x40, 0xbd, 0xc5, 0xde, 0x56, 0x3e,
  0xef, 0xb5, 0x97, 0xbe, 0x8f, 0x65, 0x7a, 0x3f, 0x0e, 0xc4, 0x89, 0x3e,
  0xbc, 0x86, 0xba, 0xbe, 0x1c, 0x0c, 0xd3, 0xbe, 0xb8, 0xbb, 0x7f, 0xbf,
  0x6e, 0x26, 0x3f, 0x3e, 0x66, 0xa1, 0x60, 0x3f, 0x74, 0x32, 0xbe, 0xbb,
  0xbc, 0x5b, 0x1d, 0xbe, 0xc3, 0xa8, 0x8a, 0xbe, 0x88, 0xea, 0xf3, 0xbd,
  0x42, 0xd9, 0x6b, 0xbe, 0x83, 0x07, 0x8a, 0x3e, 0x7a, 0xcc, 0xba, 0xbf,
  0x5e, 0x42, 0x1f, 0x3e, 0xc0, 0xd9, 0xb6, 0x3d, 0x94, 0x2b, 0x54, 0xbd,
  0x88, 0x5f, 0x94, 0xbd, 0xe0, 0x95, 0x62, 0xbc, 0x99, 0x58, 0x1d, 0xbe,
  0x7e, 0xf6, 0xff, 0xff, 0x04, 0x00, 0x00, 0x00, 0x00, 0x08, 0x00, 0x00,
  0x2a, 0xc1, 0x83, 0xbd, 0x5e, 0x2f, 0x5c, 0xbe, 0x4c, 0xec, 0x21, 0xbe,
  0xb7, 0xea, 0xed, 0x3d, 0xb8, 0x1f, 0x41, 0xbe, 0x9e, 0x99, 0x61, 0x3e,
  0x97, 0x9c, 0xb7, 0xbd, 0x64, 0x0a, 0x2b, 0xbe, 0x27, 0x4a, 0x71, 0x3b,
  0x9c, 0xc4, 0x33, 0xbe, 0x2e, 0x1b, 0xb1, 0xbd, 0x8b, 0x2a, 0x83, 0xbe,
  0x0c, 0x36, 0x54, 0x3e, 0xd8, 0x92, 0xc7, 0xbd, 0x28, 0xe3, 0xa6, 0x3d,
  0x2d, 0xfa, 0x97, 0xbe, 0x6c, 0x9c, 0x38, 0xbd, 0x0c, 0x07, 0xa6, 0xbd,
  0xb0, 0xd7, 0x9e, 0x3c, 0x75, 0x89, 0x70, 0x3d, 0x78, 0xe7, 0x6d, 0x3e,
  0x25, 0xcb, 0xf3, 0xbd, 0x90, 0x09, 0xa6, 0xbc, 0xec, 0x14, 0xa3, 0xbe,
  0x42, 0xce, 0x1b, 0xbe, 0x00, 0xf3, 0x6b, 0xbe, 0xac, 0x70, 0xb8, 0xbd,
  0x08, 0xd5, 0xbb, 0xbc, 0x70, 0x0a, 0x87, 0xbe, 0x3a, 0xb4, 0x49, 0x3e,
  0xbe, 0xc6, 0x77, 0x3e, 0x44, 0x25, 0x09, 0xbe, 0x9e, 0x46, 0x1e, 0xbe,
  0x64, 0x85, 0xf6, 0x3d, 0xe0, 0xf8, 0x1c, 0x3e, 0x70, 0xdb, 0xd5, 0xbd,
  0x8c, 0x81, 0x45, 0x3e, 0x70, 0xb9, 0xdb, 0x3d, 0xe2, 0xc0, 0x35, 0x3e,
  0x00, 0x11, 0xc1, 0xbd, 0x98, 0x03, 0xf5, 0x3d, 0x40, 0xae, 0x45, 0xbe,
  0x82, 0xc2, 0x4e, 0xbe, 0xc8, 0x69, 0x1d, 0xbd, 0x44, 0xf2, 0x86, 0xbd,
  0x72, 0x3b, 0x76, 0x3e, 0xa8, 0xd7, 0x52, 0xbd, 0xd0, 0x1a, 0x44, 0xbe,
  0x23, 0x58, 0x93, 0x3e, 0x8a, 0x1c, 0x69, 0xbe, 0xae, 0x03, 0x73, 0x3e,
  0x9e, 0xff, 0xf9, 0xbd, 0xac, 0x83, 0x9f, 0x3d, 0xb1, 0x57, 0x0f, 0xbe,
  0xa6, 0xc3, 0x85, 0xbe, 0xe4, 0xd3, 0xaa, 0xbd, 0xe7, 0xce, 0x55, 0xbe,
  0x8c, 0x1f, 0x80, 0xbd, 0xb7, 0x26, 0x85, 0x3e, 0xda, 0x5d, 0xd8, 0xbd,
  0x5c, 0xb2, 0xd8, 0xbd, 0x2e, 0x02, 0x0a, 0x3e, 0xc0, 0xcf, 0xcf, 0xbb,
  0x40, 0xdc, 0x34, 0xbc, 0x31, 0x0c, 0xdc, 0x3c, 0x0b, 0x0f, 0x1d, 0x40,
  0x44, 0xbb, 0xf9, 0xbd, 0xc8, 0xdf, 0xa7, 0xbd, 0x15, 0xec, 0x3b, 0x3e,
  0x6e, 0x7c, 0x92, 0x3f, 0x57, 0x68, 0x36, 0xbf, 0xd0, 0x57, 0x0f, 0xbf,
  0xe8, 0xbc, 0xb1, 0x3f, 0x83, 0x99, 0x86, 0xbe, 0xd7, 0xa5, 0x15, 0xbe,
  0xac, 0x19, 0x45, 0xbe, 0xba, 0xeb, 0x93, 0x3f, 0xe7, 0x02, 0x7f, 0xbe,
  0xf0, 0x16, 0x62, 0x40, 0x60, 0xb5, 0x24, 0xbd, 0xb2, 0xe7, 0x7f, 0x3f,
  0x1c, 0xea, 0xe4, 0x3f, 0x00, 0xb6, 0x6f, 0xbb, 0x60, 0x9a, 0x06, 0x3f,
  0x64, 0x81, 0xb5, 0xbe, 0x8e, 0x6d, 0xfb, 0x3e, 0x09, 0x68, 0x96, 0x3d,
  0xf2, 0x2b, 0x0f, 0xbe, 0x67, 0xf5, 0x71, 0x3f, 0xca, 0x37, 0x2b, 0x3e,
  0x38, 0x77, 0x38, 0xbe, 0xea, 0x5c, 0x03, 0xbf, 0xb2, 0x50, 0x58, 0x3f,
  0x1e, 0x60, 0x7b, 0x3e, 0xea, 0xcc, 0xb9, 0x3e, 0xb4, 0x1d, 0x80, 0xbe,
  0x28, 0x8a, 0x2d, 0x3e, 0xd0, 0xef, 0x08, 0xbe, 0x68, 0xc8, 0x73, 0xbd,
  0xce, 0xcc, 0x16, 0x3e, 0xfa, 0x1d, 0x7a, 0xbd, 0x17, 0x3d, 0xaa, 0xbe,
  0x52, 0xfc, 0xd1, 0x3d, 0x92, 0x5e, 0x70, 0xbe, 0xca, 0xe4, 0x60, 0xbd,
  0x40, 0x25, 0x26, 0x3d, 0x50, 0x67, 0x20, 0x3d, 0x7b, 0x77, 0xcf, 0xbd,
  0xf0, 0xbc, 0xce, 0xbc, 0xd9, 0x8a, 0x95, 0xbe, 0xc4, 0xa8, 0x6c, 0xbd,
  0x0c, 0xb3, 0xd4, 0x3d, 0x9a, 0x00, 0x9a, 0xbe, 0x67, 0xfb, 0x74, 0x3e,
  0x6c, 0x22, 0x90, 0x3d, 0x43, 0x38, 0x9b, 0xbd, 0x95, 0xc7, 0x70, 0xbe,
  0x77, 0xf7, 0xce, 0xbb, 0xd8, 0x26, 0x9f, 0xbd, 0x9e, 0x22, 0xac, 0x3d,
  0xe8, 0xda, 0x8e, 0x3e, 0x74, 0xc2, 0x12, 0x3d, 0x14, 0xa7, 0x04, 0x3e,
  0xff, 0xde, 0xe0, 0x3c, 0x01, 0xa3, 0xac, 0xbe, 0x00, 0xb7, 0xad, 0xbb,
  0xc8, 0x7a, 0xd7, 0x3d, 0xd7, 0xa3, 0x17, 0xbe, 0xae, 0x1a, 0x50, 0xbe,
  0xb4, 0x1c, 0x96, 0xbd, 0x0e, 0x9a, 0x96, 0xbd, 0xa0, 0x39, 0x40, 0xbc,
  0xe6, 0x47, 0x78, 0xbe, 0x88, 0x4f, 0x5e, 0x3d, 0xa6, 0x2c, 0x89, 0xbd,
  0xfc, 0x85, 0xce, 0x3d, 0x21, 0xc7, 0x1b, 0xbe, 0x4c, 0x20, 0x36, 0xbe,
  0xfd, 0xb5, 0x87, 0x3e, 0x40, 0xf2, 0xd9, 0x3d, 0x82, 0xec, 0xaf, 0xbd,
  0xc7, 0x28, 0x3e, 0xbe, 0xc2, 0x4f, 0x4f, 0x3e, 0x37, 0xff, 0x94, 0x3e,
  0x60, 0x5b, 0xff, 0x3c, 0x88, 0x1b, 0x72, 0x3d, 0x30, 0x9f, 0x89, 0xbc,
  0x3c, 0x27, 0x4c, 0xbe, 0x5c, 0x51, 0xbc, 0x3d, 0xb0, 0xe5, 0x09, 0x3e,
  0x36, 0xdd, 0x49, 0x3e, 0x52, 0x1c, 0x8c, 0xbe, 0x6a, 0xfd, 0x35, 0x3e,
  0x0e, 0xd9, 0x39, 0xbe, 0x14, 0xcd, 0xaa, 0x3d, 0x24, 0x17, 0x9c, 0xbe,
  0x30, 0x65, 0x0f, 0xbd, 0x2d, 0x6d, 0x93, 0x3e, 0xea, 0x40, 0x4e, 0xbe,
  0x36, 0x82, 0x5c, 0x3e, 0xbc, 0x74, 0x03, 0xbe, 0xf2, 0x73, 0x13, 0x3f,
  0x42, 0x75, 0x77, 0x3e, 0x7a, 0xb7, 0xeb, 0x3c, 0x9e, 0xa7, 0xff, 0xbe,
  0x9e, 0x8b, 0x89, 0x3f, 0xc3, 0x6f, 0x83, 0x3e, 0x6f, 0xa6, 0x56, 0xbe,
  0x49, 0x32, 0x1b, 0x3f, 0xe6, 0x29, 0xa2, 0xbe, 0x75, 0x5e, 0x37, 0xbe,
  0xa7, 0xb4, 0xa5, 0xbf, 0x55, 0xc3, 0x9c, 0x3e, 0x45, 0x53, 0x20, 0xbe,
  0xd5, 0xb3, 0x03, 0x40, 0xc5, 0x8c, 0x2f, 0xbe, 0xaa, 0x60, 0x1e, 0x3d,
  0x1a, 0x6f, 0xe6, 0x3f, 0xd0, 0x3a, 0x85, 0xbe, 0x53, 0xd3, 0xcc, 0x3e,
  0xb8, 0x2f, 0x4f, 0xbf, 0x4b, 0x9a, 0x3d, 0x3f, 0x98, 0x1c, 0x72, 0xbe,
  0x36, 0x1d, 0x22, 0xbf, 0x34, 0x6c, 0x39, 0x3f, 0x1a, 0x5c, 0x19, 0x3d,
  0x13, 0x65, 0x7d, 0xbe, 0x0c, 0xc5, 0x61, 0xbf, 0x55, 0xcb, 0x6d, 0x3f,
  0x5e, 0x0c, 0x9b, 0xbe, 0x0b, 0x0a, 0x23, 0xbf, 0x94, 0xd7, 0x9b, 0xbe,
  0xca, 0xe8, 0x7b, 0xbe, 0x17, 0x42, 0x80, 0x3e, 0x38, 0x5e, 0x4e, 0xbd,
  0x98, 0x07, 0x2f, 0xbd, 0xcc, 0x9a, 0xb3, 0x3d, 0x91, 0x16, 0x9a, 0xbe,
  0x40, 0x5e, 0x78, 0xbe, 0x3d, 0xf1, 0x95, 0xbe, 0x89, 0x11, 0x3b, 0xbe,
  0x88, 0xd7, 0x44, 0x3d, 0x38, 0x61, 0x22, 0xbd, 0x07, 0x21, 0x3c, 0xbe,
  0xb4, 0xc0, 0x8a, 0xbe, 0xa0, 0x99, 0x27, 0x3c, 0xca, 0xbb, 0x2d, 0x3e,
  0xee, 0x5d, 0x5b, 0x3e, 0x28, 0xe2, 0x00, 0x3d, 0xf0, 0x82, 0xd4, 0xbd,
  0xd4, 0xad, 0x15, 0xbe, 0xf8, 0x9c, 0x4e, 0xbd, 0x8e, 0xfe, 0x79, 0x3e,
  0xe4, 0x28, 0x9b, 0xbe, 0x21, 0x37, 0x89, 0xbe, 0x5a, 0x3b, 0x77, 0xbe,
  0xaa, 0xba, 0x79, 0x3e, 0x4c, 0x81, 0x8f, 0x3d, 0x5e, 0xd2, 0x29, 0xbe,
  0x86, 0xb7, 0x16, 0x3e, 0x2f, 0x4f, 0x53, 0xbe, 0x4b, 0xef, 0x8d, 0xbe,
  0x04, 0xef, 0x3a, 0x3e, 0x82, 0xb5, 0x66, 0x3e, 0x12, 0x0d, 0xc4, 0xbe,
  0x67, 0x6c, 0xe2, 0xbf, 0x00, 0x30, 0xf1, 0xbc, 0x13, 0x50, 0xa3, 0xbc,
  0x04, 0x81, 0x2a, 0x3f, 0xe9, 0x9d, 0x26, 0xbf, 0xe9, 0x58, 0x35, 0x3e,
  0xeb, 0x1d, 0x1d, 0x3f, 0x4e, 0x59, 0x94, 0xbe, 0x63, 0xa4, 0xdc, 0x3e,
  0x67, 0x8d, 0x7a, 0x3e, 0x43, 0x43, 0x81, 0xbc, 0xf1, 0xce, 0x0b, 0xbf,
  0x1c, 0xda, 0x98, 0x3d, 0xe5, 0x76, 0x75, 0xc0, 0xd2, 0xf6, 0x76, 0x3e,
  0xf8, 0x56, 0x8e, 0x3f, 0xab, 0x9d, 0x35, 0xbf, 0x01, 0xb0, 0x37, 0xbe,
  0xe4, 0xe1, 0xff, 0x3e, 0xdc, 0xe4, 0xe0, 0x3c, 0x10, 0xe2, 0x9c, 0xbe,
  0x0a, 0xc7, 0x58, 0x3e, 0xee, 0x18, 0x92, 0x3e, 0x1e, 0xe5, 0xbe, 0x3d,
  0x5d, 0x42, 0x34, 0x3f, 0x54, 0xa4, 0xbf, 0x3d, 0xf5, 0xe6, 0xe6, 0xbe,
  0x3f, 0x4e, 0xac, 0x3e, 0x60, 0xba, 0x85, 0xbe, 0xfb, 0x73, 0x0b, 0xbf,
  0xdc, 0xbc, 0x40, 0xbe, 0x62, 0x82, 0x84, 0xbe, 0xd4, 0xd7, 0xa6, 0x3d,
  0x30, 0x74, 0x56, 0x3d, 0x42, 0x72, 0x62, 0x3e, 0xf8, 0x70, 0xc3, 0x3d,
  0xaa, 0xee, 0x3d, 0x3e, 0x66, 0x52, 0x21, 0x3e, 0x05, 0x82, 0x37, 0xbe,
  0xae, 0x39, 0x9b, 0xbe, 0xf9, 0x82, 0x01, 0xbe, 0x94, 0x1f, 0x81, 0xbe,
  0x25, 0x68, 0x61, 0xbe, 0xe4, 0xfe, 0xed, 0x3d, 0xb8, 0xef, 0xcd, 0x3d,
  0x4e, 0xce, 0x2e, 0xbe, 0x76, 0x18, 0xbd, 0xbd, 0xda, 0x2f, 0x30, 0xbe,
  0xc0, 0xe2, 0x90, 0xbb, 0x6c, 0x12, 0x8c, 0x3d, 0x4d, 0xa7, 0x3f, 0xbe,
  0x34, 0x43, 0x02, 0x3e, 0x74, 0xbb, 0x58, 0xbe, 0x5a, 0xa6, 0x61, 0x3e,
  0xc4, 0xba, 0x66, 0xbe, 0x00, 0xd4, 0xb9, 0x3a, 0x78, 0x7c, 0x22, 0x3d,
  0x00, 0x44, 0x85, 0xba, 0x24, 0xad, 0xc0, 0x3d, 0xc7, 0xf7, 0x9a, 0x3e,
  0x14, 0xe8, 0x24, 0x3e, 0x0f, 0x71, 0x88, 0x3e, 0x0e, 0x2c, 0x1c, 0xbe,
  0xdd, 0x63, 0xa2, 0x3f, 0xb9, 0x3b, 0x5c, 0x3f, 0xa6, 0x91, 0x27, 0x3e,
  0x34, 0x19, 0xf7, 0x3d, 0xb4, 0x66, 0x15, 0x3f, 0x4b, 0xca, 0x5e, 0xbf,
  0xb3, 0x29, 0x43, 0xbe, 0xb2, 0xac, 0x69, 0x3e, 0x28, 0x6f, 0x56, 0xbe,
  0x2a, 0xb0, 0x05, 0x3f, 0x20, 0xd1, 0x09, 0xbe, 0x5a, 0x19, 0xd8, 0x3e,
  0x5f, 0x65, 0xce, 0x3e, 0xf5, 0x17, 0x89, 0xbe, 0x4e, 0x9f, 0x3b, 0xbe,
  0x06, 0xe3, 0x0f, 0x3e, 0xf2, 0x9e, 0xb7, 0x3c, 0xeb, 0xde, 0xda, 0xbf,
  0x04, 0x3a, 0xea, 0x3d, 0xb3, 0xd3, 0x09, 0xbf, 0xbb, 0x67, 0x9b, 0x3f,
  0x8b, 0x97, 0x73, 0xbf, 0xde, 0xac, 0xcb, 0x3e, 0xa3, 0xec, 0x28, 0x3f,
  0x61, 0x73, 0xaa, 0xbf, 0x17, 0x89, 0xbc, 0xbe, 0x10, 0x22, 0xc0, 0x3c,
  0x18, 0xcb, 0xe8, 0x3f, 0x6d, 0xb8, 0x8c, 0xbf, 0x20, 0x63, 0xc5, 0x3c,
  0x12, 0x0c, 0x25, 0x3f, 0x54, 0x58, 0x2e, 0x3e, 0x45, 0x80, 0xdc, 0xbd,
  0x69, 0x4c, 0x0f, 0xbf, 0xc7, 0x13, 0x92, 0x3e, 0x06, 0x4d, 0x02, 0xbd,
  0xc6, 0x22, 0x24, 0x3f, 0xa8, 0x0a, 0xc8, 0x3e, 0x8a, 0xb6, 0x00, 0x3f,
  0x3a, 0xfe, 0xac, 0x3e, 0x9d, 0xcb, 0xa2, 0xbe, 0xa3, 0x87, 0x93, 0x3b,
  0x3e, 0xbb, 0xaa, 0xbd, 0x40, 0xc3, 0x14, 0x3f, 0x3a, 0xe3, 0x0e, 0xbf,
  0x9c, 0xd0, 0x0e, 0x3e, 0x6c, 0xf7, 0x15, 0x40, 0x24, 0x6a, 0x6f, 0xbe,
  0xc6, 0x53, 0xc3, 0x3d, 0x68, 0x7f, 0xfe, 0x3f, 0xc0, 0x36, 0xf8, 0xbb,
  0x07, 0x96, 0x9d, 0x3e, 0x52, 0x3c, 0x99, 0xbe, 0x08, 0x0d, 0xb8, 0x3f,
  0x54, 0xeb, 0x21, 0xbe, 0xb7, 0x61, 0x43, 0xbe, 0x2e, 0xe0, 0x94, 0x3f,
  0x16, 0x9f, 0xc1, 0x3e, 0x48, 0xc9, 0x57, 0x3d, 0xa2, 0x01, 0x9a, 0xbe,
  0x9f, 0x24, 0x94, 0x3f, 0x92, 0xc8, 0x6e, 0xbe, 0xc2, 0xb7, 0x19, 0xbf,
  0x56, 0x80, 0x70, 0x3e, 0x36, 0xc3, 0xc5, 0x3c, 0x98, 0x17, 0x9f, 0xbe,
  0x9c, 0xa9, 0xa3, 0x3d, 0x75, 0x38, 0xe5, 0x3d, 0x26, 0x0b, 0x8b, 0xbe,
  0x22, 0x25, 0x95, 0x3e, 0x88, 0xea, 0xa8, 0x3c, 0x98, 0x84, 0x9d, 0xbe,
  0x2f, 0xe2, 0x5a, 0xbe, 0xc4, 0xcc, 0x38, 0xbe, 0x48, 0xa6, 0x58, 0x3d,
  0x98, 0xb0, 0xd6, 0x3d, 0x6f, 0xe0, 0x33, 0xbd, 0xd2, 0x8a, 0xfe, 0xbd,
  0x24, 0xe6, 0xbd, 0xbd, 0xa0, 0x30, 0x0e, 0xbe, 0x36, 0x88, 0x76, 0x3d,
  0xf8, 0xc2, 0x85, 0xbe, 0x81, 0xb0, 0x88, 0x3e, 0xe4, 0x05, 0xad, 0x3d,
  0x1d, 0x30, 0x82, 0xba, 0x76, 0xd2, 0x09, 0x3e, 0x11, 0xdb, 0x02, 0x3d,
  0x2d, 0x62, 0x0f, 0x3d, 0xd5, 0x4d, 0x92, 0xbe, 0x35, 0xdf, 0x49, 0x3e,
  0x40, 0xa1, 0xa6, 0x3c, 0x12, 0x4a, 0x90, 0xbe, 0xe7, 0xe7, 0x57, 0x3e,
  0x26, 0x53, 0x5b, 0x3e, 0x4e, 0xb9, 0xbb, 0xbd, 0x28, 0x9d, 0xe3, 0x3d,
  0x60, 0x43, 0x65, 0x3d, 0xc5, 0x07, 0xe0, 0xbd, 0xfb, 0x1c, 0x96, 0x3e,
  0x52, 0x29, 0xb0, 0xbe, 0xd8, 0x83, 0x7d, 0xbe, 0x30, 0x86, 0xf1, 0xbd,
  0xab, 0x33, 0x9a, 0x3d, 0x5e, 0xff, 0x90, 0x3d, 0xec, 0xd1, 0x9a, 0xbe,
  0xe7, 0x95, 0xb0, 0x3d, 0x1a, 0xb2, 0x4a, 0x3e, 0xcd, 0x45, 0xd7, 0xbd,
  0x9b, 0xe5, 0x71, 0xbe, 0x2a, 0x5a, 0xb8, 0xbd, 0x02, 0xed, 0x0e, 0xbe,
  0x12, 0x9d, 0x36, 0x3e, 0xdf, 0x98, 0x4c, 0x3d, 0xed, 0xcd, 0x52, 0x3e,
  0x98, 0x6c, 0x23, 0x3e, 0xd2, 0xce, 0x7b, 0xbd, 0x87, 0xe6, 0x01, 0x3d,
  0xab, 0xde, 0x9c, 0xbe, 0x76, 0xda, 0x3a, 0x3e, 0x4a, 0x4b, 0x6c, 0xbe,
  0x82, 0x8a, 0xd0, 0xbd, 0xb5, 0x13, 0xbb, 0x3d, 0x46, 0x1d, 0x75, 0x3e,
  0x05, 0x11, 0x8d, 0x3c, 0x6f, 0xa9, 0x41, 0xbb, 0x60, 0x2a, 0x64, 0x3d,
  0x41, 0x0e, 0xb1, 0xbe, 0x6f, 0x9e, 0x92, 0xbe, 0x6b, 0x93, 0x4e, 0xbe,
  0x43, 0xf8, 0xf8, 0xbd, 0x9c, 0x01, 0x97, 0xbe, 0x1c, 0x24, 0xe9, 0x3d,
  0x6a, 0x46, 0xb9, 0xbf, 0xf2, 0xbb, 0x17, 0x3f, 0x33, 0xe8, 0x0d, 0xbf,
  0x3b, 0x7a, 0x0e, 0xbf, 0xa2, 0xbf, 0x65, 0x3e, 0x07, 0xa9, 0x90, 0x3e,
  0x2d, 0xc4, 0xa3, 0x3e, 0x19, 0xbe, 0xaf, 0xbf, 0xd3, 0x58, 0x4d, 0x3e,
  0xec, 0xdf, 0x4a, 0xbe, 0xe1, 0x3b, 0x9e, 0xbf, 0x90, 0xf6, 0x07, 0x3e,
  0xe0, 0x96, 0x09, 0xbe, 0xa4, 0x7d, 0x7e, 0xbe, 0xc2, 0x2b, 0xc1, 0xbd,
  0x3a, 0xcd, 0xff, 0x3e, 0xf1, 0x2e, 0x65, 0xbc, 0xa3, 0x06, 0xd2, 0x3e,
  0xa8, 0xdc, 0xcd, 0x3e, 0xdd, 0xbe, 0xd7, 0x3e, 0xfc, 0xda, 0x8c, 0x3e,
  0x15, 0xd7, 0x6d, 0x3e, 0x63, 0x47, 0x9c, 0x3e, 0x26, 0x88, 0xc5, 0xbe,
  0x05, 0x11, 0xc4, 0x3e, 0xce, 0xf4, 0x63, 0x3e, 0xc8, 0x34, 0xb5, 0xbe,
  0xe8, 0xa4, 0x6f, 0xbe, 0x9a, 0x77, 0x2b, 0x3c, 0x6a, 0x10, 0xfc, 0x3e,
  0x7c, 0xe5, 0xc3, 0x3d, 0x02, 0x4c, 0x90, 0x3d, 0x8b, 0x7c, 0xbc, 0xbf,
  0xce, 0x0b, 0x1c, 0x3f, 0x7a, 0x26, 0x9c, 0xbe, 0xb6, 0x1f, 0x14, 0xbf,
  0x19, 0xda, 0xf3, 0x3e, 0x78, 0xe9, 0x8c, 0xbd, 0x36, 0xe5, 0x96, 0xbe,
  0x71, 0x59, 0x9f, 0xbf, 0xf0, 0xe8, 0xb5, 0x3e, 0x97, 0x08, 0x9c, 0x3e,
  0x60, 0x11, 0x77, 0x3e, 0x9b, 0xab, 0x90, 0x3e, 0x91, 0x26, 0x02, 0x3e,
  0xc6, 0xb3, 0xd9, 0x3f, 0x3e, 0xe4, 0x3e, 0x3e, 0xe8, 0x3b, 0x70, 0xbd,
  0xc8, 0xae, 0xa6, 0x3c, 0x2c, 0xd4, 0x2b, 0x3f, 0x4a, 0x77, 0x69, 0x3e,
  0x50, 0xa7, 0xac, 0xbe, 0x7e, 0x4f, 0x1f, 0x3f, 0x21, 0x50, 0x08, 0x3e,
  0xe8, 0xc1, 0xd9, 0x3d, 0xbf, 0xe7, 0x08, 0xbd, 0xc1, 0xdf, 0xaa, 0x3e,
  0x1d, 0x5e, 0x8a, 0x3e, 0xb8, 0xf3, 0x89, 0x3e, 0xe1, 0x3e, 0x86, 0x3e,
  0xaa, 0x06, 0x67, 0xbe, 0xa1, 0x71, 0x8d, 0xbf, 0xc0, 0x63, 0x75, 0xbe,
  0xd6, 0x90, 0xbc, 0xbb, 0xa3, 0x2f, 0x70, 0xbc, 0x34, 0xa0, 0xeb, 0xbe,
  0x94, 0xbb, 0xc0, 0x3e, 0x57, 0xc5, 0x61, 0x3e, 0xe0, 0xe3, 0xee, 0xbe,
  0xb4, 0xfe, 0xee, 0x3d, 0xc4, 0x65, 0x6a, 0xbd, 0x76, 0xea, 0x06, 0xbe,
  0xda, 0x17, 0xeb, 0xbe, 0x02, 0x2f, 0x73, 0xbe, 0xbd, 0xb3, 0x2c, 0x40,
  0x05, 0x20, 0x20, 0xbe, 0x06, 0x12, 0xe9, 0xbd, 0x63, 0xa2, 0xe1, 0x3f,
  0x3c, 0xad, 0x11, 0xbe, 0xad, 0x65, 0x05, 0x3f, 0xfc, 0x47, 0xc8, 0xbe,
  0xe4, 0xf3, 0x9c, 0x3f, 0xbc, 0x81, 0x0c, 0x3e, 0xa9, 0x78, 0x8a, 0xbe,
  0x80, 0xf3, 0x8c, 0x3f, 0x6b, 0x56, 0x68, 0x3e, 0x25, 0xbd, 0x88, 0x3e,
  0x5c, 0x27, 0xe3, 0xbe, 0x11, 0xaf, 0x99, 0x3f, 0x7f, 0x62, 0x0e, 0xbe,
  0x51, 0xd0, 0x04, 0xbf, 0xee, 0xce, 0x46, 0x3e, 0x8a, 0xfe, 0xff, 0xff,
  0x04, 0x00, 0x00, 0x00, 0x0c, 0x00, 0x00, 0x00, 0xff, 0xff, 0xff, 0xff,
  0x03, 0x00, 0x00, 0x00, 0x10, 0x00, 0x00, 0x00, 0xa2, 0xfe, 0xff, 0xff,
  0x04, 0x00, 0x00, 0x00, 0x0c, 0x00, 0x00, 0x00, 0xff, 0xff, 0xff, 0xff,
  0x02, 0x00, 0x00, 0x00, 0x10, 0x00, 0x00, 0x00, 0xba, 0xfe, 0xff, 0xff,
  0x04, 0x00, 0x00, 0x00, 0x40, 0x00, 0x00, 0x00, 0x05, 0x6a, 0x04, 0xbe,
  0xda, 0x00, 0x0d, 0x3e, 0x00, 0x00, 0x00, 0x00, 0x24, 0xdc, 0x23, 0x3e,
  0x97, 0xa5, 0x8b, 0xbe, 0xfc, 0x66, 0x95, 0x3e, 0x7e, 0x38, 0x65, 0x3e,
  0xeb, 0x8c, 0x27, 0x3c, 0xef, 0xa3, 0xb1, 0x3e, 0xfa, 0x25, 0xc0, 0x3e,
  0xdb, 0xe8, 0xde, 0xbc, 0x34, 0x27, 0x85, 0xbe, 0x58, 0x12, 0x8e, 0x3e,
  0x00, 0x00, 0x00, 0x00, 0x46, 0x4c, 0xb5, 0x3e, 0x00, 0x00, 0x00, 0x00,
  0x06, 0xff, 0xff, 0xff, 0x04, 0x00, 0x00, 0x00, 0x40, 0x00, 0x00, 0x00,
  0x0d, 0xcb, 0x80, 0xbc, 0x00, 0x00, 0x00, 0x00, 0x95, 0xa0, 0x88, 0xbe,
  0xd8, 0x5e, 0x01, 0xbd, 0x00, 0x00, 0x00, 0x00, 0x5d, 0x61, 0x85, 0x3d,
  0x00, 0x00, 0x00, 0x00, 0x4d, 0xf1, 0x46, 0x3e, 0x00, 0x00, 0x00, 0x00,
  0x74, 0x60, 0x1c, 0xbe, 0x9e, 0x59, 0x30, 0x3e, 0x0c, 0xa5, 0x81, 0xbc,
  0x59, 0x87, 0x8f, 0xbd, 0xa7, 0xfd, 0x89, 0x3e, 0x64, 0x24, 0xaa, 0x3d,
  0x1f, 0xc5, 0x1c, 0x3e, 0x68, 0xf1, 0xff, 0xff, 0x6c, 0xf1, 0xff, 0xff,
  0x0f, 0x00, 0x00, 0x00, 0x4d, 0x4c, 0x49, 0x52, 0x20, 0x43, 0x6f, 0x6e,
  0x76, 0x65, 0x72, 0x74, 0x65, 0x64, 0x2e, 0x00, 0x01, 0x00, 0x00, 0x00,
  0x14, 0x00, 0x00, 0x00, 0x00, 0x00, 0x0e, 0x00, 0x18, 0x00, 0x14, 0x00,
  0x10, 0x00, 0x0c, 0x00, 0x08, 0x00, 0x04, 0x00, 0x0e, 0x00, 0x00, 0x00,
  0x14, 0x00, 0x00, 0x00, 0x1c, 0x00, 0x00, 0x00, 0x48, 0x03, 0x00, 0x00,
  0x4c, 0x03, 0x00, 0x00, 0x50, 0x03, 0x00, 0x00, 0x04, 0x00, 0x00, 0x00,
  0x6d, 0x61, 0x69, 0x6e, 0x00, 0x00, 0x00, 0x00, 0x0e, 0x00, 0x00, 0x00,
  0x00, 0x03, 0x00, 0x00, 0x9c, 0x02, 0x00, 0x00, 0x64, 0x02, 0x00, 0x00,
  0x28, 0x02, 0x00, 0x00, 0xd8, 0x01, 0x00, 0x00, 0xb0, 0x01, 0x00, 0x00,
  0x80, 0x01, 0x00, 0x00, 0x38, 0x01, 0x00, 0x00, 0x10, 0x01, 0x00, 0x00,
  0xe0, 0x00, 0x00, 0x00, 0xa0, 0x00, 0x00, 0x00, 0x78, 0x00, 0x00, 0x00,
  0x40, 0x00, 0x00, 0x00, 0x04, 0x00, 0x00, 0x00, 0xa6, 0xfd, 0xff, 0xff,
  0x1c, 0x00, 0x00, 0x00, 0x00, 0x00, 0x00, 0x09, 0x1c, 0x00, 0x00, 0x00,
  0x20, 0x00, 0x00, 0x00, 0x05, 0x00, 0x00, 0x00, 0x00, 0x00, 0x06, 0x00,
  0x08, 0x00, 0x04, 0x00, 0x06, 0x00, 0x00, 0x00, 0x00, 0x00, 0x80, 0x3f,
  0x01, 0x00, 0x00, 0x00, 0x19, 0x00, 0x00, 0x00, 0x01, 0x00, 0x00, 0x00,
  0x18, 0x00, 0x00, 0x00, 0xde, 0xfd, 0xff, 0xff, 0x14, 0x00, 0x00, 0x00,
  0x00, 0x00, 0x00, 0x08, 0x10, 0x00, 0x00, 0x00, 0x14, 0x00, 0x00, 0x00,
  0x04, 0x00, 0x00, 0x00, 0x4c, 0xf2, 0xff, 0xff, 0x01, 0x00, 0x00, 0x00,
  0x18, 0x00, 0x00, 0x00, 0x03, 0x00, 0x00, 0x00, 0x17, 0x00, 0x00, 0x00,
  0x07, 0x00, 0x00, 0x00, 0x08, 0x00, 0x00, 0x00, 0x42, 0xfe, 0xff, 0xff,
  0x0c, 0x00, 0x00, 0x00, 0x10, 0x00, 0x00, 0x00, 0x02, 0x00, 0x00, 0x00,
  0x01, 0x00, 0x00, 0x00, 0x17, 0x00, 0x00, 0x00, 0x02, 0x00, 0x00, 0x00,
  0x16, 0x00, 0x00, 0x00, 0x0a, 0x00, 0x00, 0x00, 0x36, 0xfe, 0xff, 0xff,
  0x14, 0x00, 0x00, 0x00, 0x00, 0x00, 0x00, 0x05, 0x20, 0x00, 0x00, 0x00,
  0x24, 0x00, 0x00, 0x00, 0x03, 0x00, 0x00, 0x00, 0xde, 0xfe, 0xff, 0xff,
  0x01, 0x00, 0x00, 0x00, 0x02, 0x00, 0x00, 0x00, 0x01, 0x00, 0x00, 0x00,
  0x01, 0x00, 0x00, 0x00, 0x01, 0x00, 0x00, 0x00, 0x16, 0x00, 0x00, 0x00,
  0x01, 0x00, 0x00, 0x00, 0x15, 0x00, 0x00, 0x00, 0x12, 0xfe, 0xff, 0xff,
  0x10, 0x00, 0x00, 0x00, 0x00, 0x00, 0x00, 0x34, 0x0c, 0x00, 0x00, 0x00,
  0x10, 0x00, 0x00, 0x00, 0xdc, 0xf2, 0xff, 0xff, 0x01, 0x00, 0x00, 0x00,
  0x15, 0x00, 0x00, 0x00, 0x02, 0x00, 0x00, 0x00, 0x14, 0x00, 0x00, 0x00,
  0x09, 0x00, 0x00, 0x00, 0xce, 0xfe, 0xff, 0xff, 0x0c, 0x00, 0x00, 0x00,
  0x10, 0x00, 0x00, 0x00, 0x02, 0x00, 0x00, 0x00, 0x01, 0x00, 0x00, 0x00,
  0x14, 0x00, 0x00, 0x00, 0x02, 0x00, 0x00, 0x00, 0x13, 0x00, 0x00, 0x00,
  0x03, 0x00, 0x00, 0x00, 0xc2, 0xfe, 0xff, 0xff, 0x14, 0x00, 0x00, 0x00,
  0x00, 0x00, 0x00, 0x01, 0x20, 0x00, 0x00, 0x00, 0x24, 0x00, 0x00, 0x00,
  0x01, 0x00, 0x00, 0x00, 0xb4, 0xfe, 0xff, 0xff, 0x00, 0x00, 0x00, 0x01,
  0x01, 0x00, 0x00, 0x00, 0x01, 0x00, 0x00, 0x00, 0x00, 0x00, 0x00, 0x01,
  0x01, 0x00, 0x00, 0x00, 0x13, 0x00, 0x00, 0x00, 0x03, 0x00, 0x00, 0x00,
  0x12, 0x00, 0x00, 0x00, 0x05, 0x00, 0x00, 0x00, 0x01, 0x00, 0x00, 0x00,
  0xa6, 0xfe, 0xff, 0xff, 0x10, 0x00, 0x00, 0x00, 0x00, 0x00, 0x00, 0x34,
  0x0c, 0x00, 0x00, 0x00, 0x10, 0x00, 0x00, 0x00, 0x70, 0xf3, 0xff, 0xff,
  0x01, 0x00, 0x00, 0x00, 0x12, 0x00, 0x00, 0x00, 0x02, 0x00, 0x00, 0x00,
  0x11, 0x00, 0x00, 0x00, 0x0b, 0x00, 0x00, 0x00, 0x62, 0xff, 0xff, 0xff,
  0x0c, 0x00, 0x00, 0x00, 0x10, 0x00, 0x00, 0x00, 0x02, 0x00, 0x00, 0x00,
  0x01, 0x00, 0x00, 0x00, 0x11, 0x00, 0x00, 0x00, 0x02, 0x00, 0x00, 0x00,
  0x10, 0x00, 0x00, 0x00, 0x04, 0x00, 0x00, 0x00, 0x56, 0xff, 0xff, 0xff,
  0x24, 0x00, 0x00, 0x00, 0x00, 0x00, 0x00, 0x05, 0x30, 0x00, 0x00, 0x00,
  0x34, 0x00, 0x00, 0x00, 0x03, 0x00, 0x00, 0x00, 0x00, 0x00, 0x0e, 0x00,
  0x14, 0x00, 0x00, 0x00, 0x10, 0x00, 0x0c, 0x00, 0x08, 0x00, 0x04, 0x00,
  0x0e, 0x00, 0x00, 0x00, 0x01, 0x00, 0x00, 0x00, 0x02, 0x00, 0x00, 0x00,
  0x01, 0x00, 0x00, 0x00, 0x01, 0x00, 0x00, 0x00, 0x01, 0x00, 0x00, 0x00,
  0x10, 0x00, 0x00, 0x00, 0x01, 0x00, 0x00, 0x00, 0x0f, 0x00, 0x00, 0x00,
  0x42, 0xff, 0xff, 0xff, 0x10, 0x00, 0x00, 0x00, 0x00, 0x00, 0x00, 0x34,
  0x0c, 0x00, 0x00, 0x00, 0x10, 0x00, 0x00, 0x00, 0x0c, 0xf4, 0xff, 0xff,
  0x01, 0x00, 0x00, 0x00, 0x0f, 0x00, 0x00, 0x00, 0x02, 0x00, 0x00, 0x00,
  0x0e, 0x00, 0x00, 0x00, 0x09, 0x00, 0x00, 0x00, 0x00, 0x00, 0x0a, 0x00,
  0x10, 0x00, 0x0c, 0x00, 0x08, 0x00, 0x04, 0x00, 0x0a, 0x00, 0x00, 0x00,
  0x0c, 0x00, 0x00, 0x00, 0x10, 0x00, 0x00, 0x00, 0x02, 0x00, 0x00, 0x00,
  0x01, 0x00, 0x00, 0x00, 0x0e, 0x00, 0x00, 0x00, 0x02, 0x00, 0x00, 0x00,
  0x0d, 0x00, 0x00, 0x00, 0x04, 0x00, 0x00, 0x00, 0x00, 0x00, 0x0e, 0x00,
  0x18, 0x00, 0x14, 0x00, 0x10, 0x00, 0x0c, 0x00, 0x0b, 0x00, 0x04, 0x00,
  0x0e, 0x00, 0x00, 0x00, 0x20, 0x00, 0x00, 0x00, 0x00, 0x00, 0x00, 0x01,
  0x2c, 0x00, 0x00, 0x00, 0x30, 0x00, 0x00, 0x00, 0x01, 0x00, 0x00, 0x00,
  0x0c, 0x00, 0x14, 0x00, 0x13, 0x00, 0x0c, 0x00, 0x08, 0x00, 0x07, 0x00,
  0x0c, 0x00, 0x00, 0x00, 0x00, 0x00, 0x00, 0x01, 0x01, 0x00, 0x00, 0x00,
  0x01, 0x00, 0x00, 0x00, 0x00, 0x00, 0x00, 0x01, 0x01, 0x00, 0x00, 0x00,
  0x0d, 0x00, 0x00, 0x00, 0x03, 0x00, 0x00, 0x00, 0x0c, 0x00, 0x00, 0x00,
  0x06, 0x00, 0x00, 0x00, 0x02, 0x00, 0x00, 0x00, 0x00, 0x00, 0x0e, 0x00,
  0x14, 0x00, 0x00, 0x00, 0x10, 0x00, 0x0c, 0x00, 0x0b, 0x00, 0x04, 0x00,
  0x0e, 0x00, 0x00, 0x00, 0x10, 0x00, 0x00, 0x00, 0x00, 0x00, 0x00, 0x34,
  0x0c, 0x00, 0x00, 0x00, 0x10, 0x00, 0x00, 0x00, 0xd8, 0xf4, 0xff, 0xff,
  0x01, 0x00, 0x00, 0x00, 0x0c, 0x00, 0x00, 0x00, 0x02, 0x00, 0x00, 0x00,
  0x00, 0x00, 0x00, 0x00, 0x0b, 0x00, 0x00, 0x00, 0x01, 0x00, 0x00, 0x00,
  0x19, 0x00, 0x00, 0x00, 0x01, 0x00, 0x00, 0x00, 0x00, 0x00, 0x00, 0x00,
  0x1a, 0x00, 0x00, 0x00, 0xd0, 0x0a, 0x00, 0x00, 0x7c, 0x0a, 0x00, 0x00,
  0x28, 0x0a, 0x00, 0x00, 0xe8, 0x09, 0x00, 0x00, 0x90, 0x09, 0x00, 0x00,
  0x48, 0x09, 0x00, 0x00, 0x00, 0x09, 0x00, 0x00, 0xc0, 0x08, 0x00, 0x00,
  0x84, 0x08, 0x00, 0x00, 0x48, 0x08, 0x00, 0x00, 0x08, 0x08, 0x00, 0x00,
  0xc8, 0x07, 0x00, 0x00, 0x48, 0x07, 0x00, 0x00, 0x70, 0x06, 0x00, 0x00,
  0xc4, 0x05, 0x00, 0x00, 0x40, 0x05, 0x00, 0x00, 0xc8, 0x04, 0x00, 0x00,
  0x50, 0x04, 0x00, 0x00, 0xd0, 0x03, 0x00, 0x00, 0xf0, 0x02, 0x00, 0x00,
  0x3c, 0x02, 0x00, 0x00, 0xb8, 0x01, 0x00, 0x00, 0x3c, 0x01, 0x00, 0x00,
  0xdc, 0x00, 0x00, 0x00, 0x60, 0x00, 0x00, 0x00, 0x04, 0x00, 0x00, 0x00,
  0xae, 0xf5, 0xff, 0xff, 0x00, 0x00, 0x00, 0x01, 0x14, 0x00, 0x00, 0x00,
  0x1c, 0x00, 0x00, 0x00, 0x1c, 0x00, 0x00, 0x00, 0x1a, 0x00, 0x00, 0x00,
  0x34, 0x00, 0x00, 0x00, 0x02, 0x00, 0x00, 0x00, 0xff, 0xff, 0xff, 0xff,
  0x05, 0x00, 0x00, 0x00, 0x94, 0xf5, 0xff, 0xff, 0x1b, 0x00, 0x00, 0x00,
  0x53, 0x74, 0x61, 0x74, 0x65, 0x66, 0x75, 0x6c, 0x50, 0x61, 0x72, 0x74,
  0x69, 0x74, 0x69, 0x6f, 0x6e, 0x65, 0x64, 0x43, 0x61, 0x6c, 0x6c, 0x5f,
  0x31, 0x3a, 0x30, 0x00, 0x02, 0x00, 0x00, 0x00, 0x01, 0x00, 0x00, 0x00,
  0x05, 0x00, 0x00, 0x00, 0x06, 0xf6, 0xff, 0xff, 0x00, 0x00, 0x00, 0x01,
  0x14, 0x00, 0x00, 0x00, 0x1c, 0x00, 0x00, 0x00, 0x1c, 0x00, 0x00, 0x00,
  0x19, 0x00, 0x00, 0x00, 0x54, 0x00, 0x00, 0x00, 0x02, 0x00, 0x00, 0x00,
  0xff, 0xff, 0xff, 0xff, 0x05, 0x00, 0x00, 0x00, 0xec, 0xf5, 0xff, 0xff,
  0x38, 0x00, 0x00, 0x00, 0x73, 0x65, 0x71, 0x75, 0x65, 0x6e, 0x74, 0x69,
  0x61, 0x6c, 0x5f, 0x31, 0x2f, 0x64, 0x65, 0x6e, 0x73, 0x65, 0x5f, 0x31,
  0x2f, 0x4d, 0x61, 0x74, 0x4d, 0x75, 0x6c, 0x3b, 0x73, 0x65, 0x71, 0x75,
  0x65, 0x6e, 0x74, 0x69, 0x61, 0x6c, 0x5f, 0x31, 0x2f, 0x64, 0x65, 0x6e,
  0x73, 0x65, 0x5f, 0x31, 0x2f, 0x42, 0x69, 0x61, 0x73, 0x41, 0x64, 0x64,
  0x00, 0x00, 0x00, 0x00, 0x02, 0x00, 0x00, 0x00, 0x01, 0x00, 0x00, 0x00,
  0x05, 0x00, 0x00, 0x00, 0x7e, 0xf6, 0xff, 0xff, 0x00, 0x00, 0x00, 0x01,
  0x14, 0x00, 0x00, 0x00, 0x1c, 0x00, 0x00, 0x00, 0x1c, 0x00, 0x00, 0x00,
  0x18, 0x00, 0x00, 0x00, 0x38, 0x00, 0x00, 0x00, 0x02, 0x00, 0x00, 0x00,
  0xff, 0xff, 0xff, 0xff, 0x20, 0x00, 0x00, 0x00, 0x64, 0xf6, 0xff, 0xff,
  0x1e, 0x00, 0x00, 0x00, 0x73, 0x65, 0x71, 0x75, 0x65, 0x6e, 0x74, 0x69,
  0x61, 0x6c, 0x5f, 0x31, 0x2f, 0x66, 0x6c, 0x61, 0x74, 0x74, 0x65, 0x6e,
  0x5f, 0x31, 0x2f, 0x52, 0x65, 0x73, 0x68, 0x61, 0x70, 0x65, 0x00, 0x00,
  0x02, 0x00, 0x00, 0x00, 0x01, 0x00, 0x00, 0x00, 0x20, 0x00, 0x00, 0x00,
  0xda, 0xf6, 0xff, 0xff, 0x00, 0x00, 0x00, 0x01, 0x14, 0x00, 0x00, 0x00,
  0x24, 0x00, 0x00, 0x00, 0x24, 0x00, 0x00, 0x00, 0x17, 0x00, 0x00, 0x00,
  0x4c, 0x00, 0x00, 0x00, 0x04, 0x00, 0x00, 0x00, 0xff, 0xff, 0xff, 0xff,
  0x01, 0x00, 0x00, 0x00, 0x02, 0x00, 0x00, 0x00, 0x10, 0x00, 0x00, 0x00,
  0xc8, 0xf6, 0xff, 0xff, 0x28, 0x00, 0x00, 0x00, 0x73, 0x65, 0x71, 0x75,
  0x65, 0x6e, 0x74, 0x69, 0x61, 0x6c, 0x5f, 0x31, 0x2f, 0x6d, 0x61, 0x78,
  0x5f, 0x70, 0x6f, 0x6f, 0x6c, 0x69, 0x6e, 0x67, 0x31, 0x64, 0x5f, 0x31,
  0x5f, 0x32, 0x2f, 0x4d, 0x61, 0x78, 0x50, 0x6f, 0x6f, 0x6c, 0x31, 0x64,
  0x00, 0x00, 0x00, 0x00, 0x04, 0x00, 0x00, 0x00, 0x01, 0x00, 0x00, 0x00,
  0x01, 0x00, 0x00, 0x00, 0x02, 0x00, 0x00, 0x00, 0x10, 0x00, 0x00, 0x00,
  0x52, 0xf7, 0xff, 0xff, 0x00, 0x00, 0x00, 0x01, 0x14, 0x00, 0x00, 0x00,
  0x24, 0x00, 0x00, 0x00, 0x24, 0x00, 0x00, 0x00, 0x16, 0x00, 0x00, 0x00,
  0x54, 0x00, 0x00, 0x00, 0x04, 0x00, 0x00, 0x00, 0xff, 0xff, 0xff, 0xff,
  0x01, 0x00, 0x00, 0x00, 0x02, 0x00, 0x00, 0x00, 0x10, 0x00, 0x00, 0x00,
  0x40, 0xf7, 0xff, 0xff, 0x33, 0x00, 0x00, 0x00, 0x73, 0x65, 0x71, 0x75,
  0x65, 0x6e, 0x74, 0x69, 0x61, 0x6c, 0x5f, 0x31, 0x2f, 0x6d, 0x61, 0x78,
  0x5f, 0x70, 0x6f, 0x6f, 0x6c, 0x69, 0x6e, 0x67, 0x31, 0x64, 0x5f, 0x31,
  0x5f, 0x32, 0x2f, 0x4d, 0x61, 0x78, 0x50, 0x6f, 0x6f, 0x6c, 0x31, 0x64,
  0x2f, 0x45, 0x78, 0x70, 0x61, 0x6e, 0x64, 0x44, 0x69, 0x6d, 0x73, 0x00,
  0x04, 0x00, 0x00, 0x00, 0x01, 0x00, 0x00, 0x00, 0x01, 0x00, 0x00, 0x00,
  0x02, 0x00, 0x00, 0x00, 0x10, 0x00, 0x00, 0x00, 0xd2, 0xf7, 0xff, 0xff,
  0x00, 0x00, 0x00, 0x01, 0x14, 0x00, 0x00, 0x00, 0x20, 0x00, 0x00, 0x00,
  0x20, 0x00, 0x00, 0x00, 0x15, 0x00, 0x00, 0x00, 0x88, 0x00, 0x00, 0x00,
  0x03, 0x00, 0x00, 0x00, 0xff, 0xff, 0xff, 0xff, 0x02, 0x00, 0x00, 0x00,
  0x10, 0x00, 0x00, 0x00, 0xbc, 0xf7, 0xff, 0xff, 0x69, 0x00, 0x00, 0x00,
  0x73, 0x65, 0x71, 0x75, 0x65, 0x6e, 0x74, 0x69, 0x61, 0x6c, 0x5f, 0x31,
  0x2f, 0x63, 0x6f, 0x6e, 0x76, 0x31, 0x64, 0x5f, 0x31, 0x5f, 0x32, 0x2f,
  0x52, 0x65, 0x6c, 0x75, 0x3b, 0x73, 0x65, 0x71, 0x75, 0x65, 0x6e, 0x74,
  0x69, 0x61, 0x6c, 0x5f, 0x31, 0x2f, 0x63, 0x6f, 0x6e, 0x76, 0x31, 0x64,
  0x5f, 0x31, 0x5f, 0x32, 0x2f, 0x42, 0x69, 0x61, 0x73, 0x41, 0x64, 0x64,
  0x3b, 0x73, 0x65, 0x71, 0x75, 0x65, 0x6e, 0x74, 0x69, 0x61, 0x6c, 0x5f,
  0x31, 0x2f, 0x63, 0x6f, 0x6e, 0x76, 0x31, 0x64, 0x5f, 0x31, 0x5f, 0x32,
  0x2f, 0x63, 0x6f, 0x6e, 0x76, 0x6f, 0x6c, 0x75, 0x74, 0x69, 0x6f, 0x6e,
  0x2f, 0x53, 0x71, 0x75, 0x65, 0x65, 0x7a, 0x65, 0x3b, 0x00, 0x00, 0x00,
  0x03, 0x00, 0x00, 0x00, 0x01, 0x00, 0x00, 0x00, 0x02, 0x00, 0x00, 0x00,
  0x10, 0x00, 0x00, 0x00, 0x82, 0xf8, 0xff, 0xff, 0x00, 0x00, 0x00, 0x01,
  0x14, 0x00, 0x00, 0x00, 0x24, 0x00, 0x00, 0x00, 0x24, 0x00, 0x00, 0x00,
  0x14, 0x00, 0x00, 0x00, 0xb0, 0x00, 0x00, 0x00, 0x04, 0x00, 0x00, 0x00,
  0xff, 0xff, 0xff, 0xff, 0x01, 0x00, 0x00, 0x00, 0x02, 0x00, 0x00, 0x00,
  0x10, 0x00, 0x00, 0x00, 0x70, 0xf8, 0xff, 0xff, 0x8d, 0x00, 0x00, 0x00,
  0x73, 0x65, 0x71, 0x75, 0x65, 0x6e, 0x74, 0x69, 0x61, 0x6c, 0x5f, 0x31,
  0x2f, 0x63, 0x6f, 0x6e, 0x76, 0x31, 0x64, 0x5f, 0x31, 0x5f, 0x32, 0x2f,
  0x52, 0x65, 0x6c, 0x75, 0x3b, 0x73, 0x65, 0x71, 0x75, 0x65, 0x6e, 0x74,
  0x69, 0x61, 0x6c, 0x5f, 0x31, 0x2f, 0x63, 0x6f, 0x6e, 0x76, 0x31, 0x64,
  0x5f, 0x31, 0x5f, 0x32, 0x2f, 0x42, 0x69, 0x61, 0x73, 0x41, 0x64, 0x64,
  0x3b, 0x73, 0x65, 0x71, 0x75, 0x65, 0x6e, 0x74, 0x69, 0x61, 0x6c, 0x5f,
  0x31, 0x2f, 0x63, 0x6f, 0x6e, 0x76, 0x31, 0x64, 0x5f, 0x31, 0x5f, 0x32,
  0x2f, 0x63, 0x6f, 0x6e, 0x76, 0x6f, 0x6c, 0x75, 0x74, 0x69, 0x6f, 0x6e,
  0x2f, 0x53, 0x71, 0x75, 0x65, 0x65, 0x7a, 0x65, 0x3b, 0x3b, 0x73, 0x65,
  0x71, 0x75, 0x65, 0x6e, 0x74, 0x69, 0x61, 0x6c, 0x5f, 0x31, 0x2f, 0x63,
  0x6f, 0x6e, 0x76, 0x31, 0x64, 0x5f, 0x31, 0x5f, 0x32, 0x2f, 0x63, 0x6f,
  0x6e, 0x76, 0x6f, 0x6c, 0x75, 0x74, 0x69, 0x6f, 0x6e, 0x00, 0x00, 0x00,
  0x04, 0x00, 0x00, 0x00, 0x01, 0x00, 0x00, 0x00, 0x01, 0x00, 0x00, 0x00,
  0x02, 0x00, 0x00, 0x00, 0x10, 0x00, 0x00, 0x00, 0x5e, 0xf9, 0xff, 0xff,
  0x00, 0x00, 0x00, 0x01, 0x14, 0x00, 0x00, 0x00, 0x24, 0x00, 0x00, 0x00,
  0x24, 0x00, 0x00, 0x00, 0x13, 0x00, 0x00, 0x00, 0x50, 0x00, 0x00, 0x00,
  0x04, 0x00, 0x00, 0x00, 0xff, 0xff, 0xff, 0xff, 0x01, 0x00, 0x00, 0x00,
  0x03, 0x00, 0x00, 0x00, 0x10, 0x00, 0x00, 0x00, 0x4c, 0xf9, 0xff, 0xff,
  0x2e, 0x00, 0x00, 0x00, 0x73, 0x65, 0x71, 0x75, 0x65, 0x6e, 0x74, 0x69,
  0x61, 0x6c, 0x5f, 0x31, 0x2f, 0x63, 0x6f, 0x6e, 0x76, 0x31, 0x64, 0x5f,
  0x31, 0x5f, 0x32, 0x2f, 0x63, 0x6f, 0x6e, 0x76, 0x6f, 0x6c, 0x75, 0x74,
  0x69, 0x6f, 0x6e, 0x2f, 0x45, 0x78, 0x70, 0x61, 0x6e, 0x64, 0x44, 0x69,
  0x6d, 0x73, 0x00, 0x00, 0x04, 0x00, 0x00, 0x00, 0x01, 0x00, 0x00, 0x00,
  0x01, 0x00, 0x00, 0x00, 0x03, 0x00, 0x00, 0x00, 0x10, 0x00, 0x00, 0x00,
  0xda, 0xf9, 0xff, 0xff, 0x00, 0x00, 0x00, 0x01, 0x14, 0x00, 0x00, 0x00,
  0x20, 0x00, 0x00, 0x00, 0x20, 0x00, 0x00, 0x00, 0x12, 0x00, 0x00, 0x00,
  0x4c, 0x00, 0x00, 0x00, 0x03, 0x00, 0x00, 0x00, 0xff, 0xff, 0xff, 0xff,
  0x03, 0x00, 0x00, 0x00, 0x10, 0x00, 0x00, 0x00, 0xc4, 0xf9, 0xff, 0xff,
  0x2e, 0x00, 0x00, 0x00, 0x73, 0x65, 0x71, 0x75, 0x65, 0x6e, 0x74, 0x69,
  0x61, 0x6c, 0x5f, 0x31, 0x2f, 0x6d, 0x61, 0x78, 0x5f, 0x70, 0x6f, 0x6f,
  0x6c, 0x69, 0x6e, 0x67, 0x31, 0x64, 0x5f, 0x31, 0x2f, 0x4d, 0x61, 0x78,
  0x50, 0x6f, 0x6f, 0x6c, 0x31, 0x64, 0x2f, 0x53, 0x71, 0x75, 0x65, 0x65,
  0x7a, 0x65, 0x00, 0x00, 0x03, 0x00, 0x00, 0x00, 0x01, 0x00, 0x00, 0x00,
  0x03, 0x00, 0x00, 0x00, 0x10, 0x00, 0x00, 0x00, 0x4e, 0xfa, 0xff, 0xff,
  0x00, 0x00, 0x00, 0x01, 0x14, 0x00, 0x00, 0x00, 0x24, 0x00, 0x00, 0x00,
  0x24, 0x00, 0x00, 0x00, 0x11, 0x00, 0x00, 0x00, 0x48, 0x00, 0x00, 0x00,
  0x04, 0x00, 0x00, 0x00, 0xff, 0xff, 0xff, 0xff, 0x01, 0x00, 0x00, 0x00,
  0x03, 0x00, 0x00, 0x00, 0x10, 0x00, 0x00, 0x00, 0x3c, 0xfa, 0xff, 0xff,
  0x26, 0x00, 0x00, 0x00, 0x73, 0x65, 0x71, 0x75, 0x65, 0x6e, 0x74, 0x69,
  0x61, 0x6c, 0x5f, 0x31, 0x2f, 0x6d, 0x61, 0x78, 0x5f, 0x70, 0x6f, 0x6f,
  0x6c, 0x69, 0x6e, 0x67, 0x31, 0x64, 0x5f, 0x31, 0x2f, 0x4d, 0x61, 0x78,
  0x50, 0x6f, 0x6f, 0x6c, 0x31, 0x64, 0x00, 0x00, 0x04, 0x00, 0x00, 0x00,
  0x01, 0x00, 0x00, 0x00, 0x01, 0x00, 0x00, 0x00, 0x03, 0x00, 0x00, 0x00,
  0x10, 0x00, 0x00, 0x00, 0xc2, 0xfa, 0xff, 0xff, 0x00, 0x00, 0x00, 0x01,
  0x14, 0x00, 0x00, 0x00, 0x24, 0x00, 0x00, 0x00, 0x24, 0x00, 0x00, 0x00,
  0x10, 0x00, 0x00, 0x00, 0x54, 0x00, 0x00, 0x00, 0x04, 0x00, 0x00, 0x00,
  0xff, 0xff, 0xff, 0xff, 0x01, 0x00, 0x00, 0x00, 0x03, 0x00, 0x00, 0x00,
  0x10, 0x00, 0x00, 0x00, 0xb0, 0xfa, 0xff, 0xff, 0x31, 0x00, 0x00, 0x00,
  0x73, 0x65, 0x71, 0x75, 0x65, 0x6e, 0x74, 0x69, 0x61, 0x6c, 0x5f, 0x31,
  0x2f, 0x6d, 0x61, 0x78, 0x5f, 0x70, 0x6f, 0x6f, 0x6c, 0x69, 0x6e, 0x67,
  0x31, 0x64, 0x5f, 0x31, 0x2f, 0x4d, 0x61, 0x78, 0x50, 0x6f, 0x6f, 0x6c,
  0x31, 0x64, 0x2f, 0x45, 0x78, 0x70, 0x61, 0x6e, 0x64, 0x44, 0x69, 0x6d,
  0x73, 0x00, 0x00, 0x00, 0x04, 0x00, 0x00, 0x00, 0x01, 0x00, 0x00, 0x00,
  0x01, 0x00, 0x00, 0x00, 0x03, 0x00, 0x00, 0x00, 0x10, 0x00, 0x00, 0x00,
  0x42, 0xfb, 0xff, 0xff, 0x00, 0x00, 0x00, 0x01, 0x14, 0x00, 0x00, 0x00,
  0x20, 0x00, 0x00, 0x00, 0x20, 0x00, 0x00, 0x00, 0x0f, 0x00, 0x00, 0x00,
  0x80, 0x00, 0x00, 0x00, 0x03, 0x00, 0x00, 0x00, 0xff, 0xff, 0xff, 0xff,
  0x03, 0x00, 0x00, 0x00, 0x10, 0x00, 0x00, 0x00, 0x2c, 0xfb, 0xff, 0xff,
  0x63, 0x00, 0x00, 0x00, 0x73, 0x65, 0x71, 0x75, 0x65, 0x6e, 0x74, 0x69,
  0x61, 0x6c, 0x5f, 0x31, 0x2f, 0x63, 0x6f, 0x6e, 0x76, 0x31, 0x64, 0x5f,
  0x31, 0x2f, 0x52, 0x65, 0x6c, 0x75, 0x3b, 0x73, 0x65, 0x71, 0x75, 0x65,
  0x6e, 0x74, 0x69, 0x61, 0x6c, 0x5f, 0x31, 0x2f, 0x63, 0x6f, 0x6e, 0x76,
  0x31, 0x64, 0x5f, 0x31, 0x2f, 0x42, 0x69, 0x61, 0x73, 0x41, 0x64, 0x64,
  0x3b, 0x73, 0x65, 0x71, 0x75, 0x65, 0x6e, 0x74, 0x69, 0x61, 0x6c, 0x5f,
  0x31, 0x2f, 0x63, 0x6f, 0x6e, 0x76, 0x31, 0x64, 0x5f, 0x31, 0x2f, 0x63,
  0x6f, 0x6e, 0x76, 0x6f, 0x6c, 0x75, 0x74, 0x69, 0x6f, 0x6e, 0x2f, 0x53,
  0x71, 0x75, 0x65, 0x65, 0x7a, 0x65, 0x3b, 0x00, 0x03, 0x00, 0x00, 0x00,
  0x01, 0x00, 0x00, 0x00, 0x03, 0x00, 0x00, 0x00, 0x10, 0x00, 0x00, 0x00,
  0xea, 0xfb, 0xff, 0xff, 0x00, 0x00, 0x00, 0x01, 0x14, 0x00, 0x00, 0x00,
  0x24, 0x00, 0x00, 0x00, 0x24, 0x00, 0x00, 0x00, 0x0e, 0x00, 0x00, 0x00,
  0xa8, 0x00, 0x00, 0x00, 0x04, 0x00, 0x00, 0x00, 0xff, 0xff, 0xff, 0xff,
  0x01, 0x00, 0x00, 0x00, 0x03, 0x00, 0x00, 0x00, 0x10, 0x00, 0x00, 0x00,
  0xd8, 0xfb, 0xff, 0xff, 0x85, 0x00, 0x00, 0x00, 0x73, 0x65, 0x71, 0x75,
  0x65, 0x6e, 0x74, 0x69, 0x61, 0x6c, 0x5f, 0x31, 0x2f, 0x63, 0x6f, 0x6e,
  0x76, 0x31, 0x64, 0x5f, 0x31, 0x2f, 0x52, 0x65, 0x6c, 0x75, 0x3b, 0x73,
  0x65, 0x71, 0x75, 0x65, 0x6e, 0x74, 0x69, 0x61, 0x6c, 0x5f, 0x31, 0x2f,
  0x63, 0x6f, 0x6e, 0x76, 0x31, 0x64, 0x5f, 0x31, 0x2f, 0x42, 0x69, 0x61,
  0x73, 0x41, 0x64, 0x64, 0x3b, 0x73, 0x65, 0x71, 0x75, 0x65, 0x6e, 0x74,
  0x69, 0x61, 0x6c, 0x5f, 0x31, 0x2f, 0x63, 0x6f, 0x6e, 0x76, 0x31, 0x64,
  0x5f, 0x31, 0x2f, 0x63, 0x6f, 0x6e, 0x76, 0x6f, 0x6c, 0x75, 0x74, 0x69,
  0x6f, 0x6e, 0x2f, 0x53, 0x71, 0x75, 0x65, 0x65, 0x7a, 0x65, 0x3b, 0x3b,
  0x73, 0x65, 0x71, 0x75, 0x65, 0x6e, 0x74, 0x69, 0x61, 0x6c, 0x5f, 0x31,
  0x2f, 0x63, 0x6f, 0x6e, 0x76, 0x31, 0x64, 0x5f, 0x31, 0x2f, 0x63, 0x6f,
  0x6e, 0x76, 0x6f, 0x6c, 0x75, 0x74, 0x69, 0x6f, 0x6e, 0x00, 0x00, 0x00,
  0x04, 0x00, 0x00, 0x00, 0x01, 0x00, 0x00, 0x00, 0x01, 0x00, 0x00, 0x00,
  0x03, 0x00, 0x00, 0x00, 0x10, 0x00, 0x00, 0x00, 0xbe, 0xfc, 0xff, 0xff,
  0x00, 0x00, 0x00, 0x01, 0x14, 0x00, 0x00, 0x00, 0x24, 0x00, 0x00, 0x00,
  0x24, 0x00, 0x00, 0x00, 0x0d, 0x00, 0x00, 0x00, 0x50, 0x00, 0x00, 0x00,
  0x04, 0x00, 0x00, 0x00, 0xff, 0xff, 0xff, 0xff, 0x01, 0x00, 0x00, 0x00,
  0x06, 0x00, 0x00, 0x00, 0x01, 0x00, 0x00, 0x00, 0xac, 0xfc, 0xff, 0xff,
  0x2c, 0x00, 0x00, 0x00, 0x73, 0x65, 0x71, 0x75, 0x65, 0x6e, 0x74, 0x69,
  0x61, 0x6c, 0x5f, 0x31, 0x2f, 0x63, 0x6f, 0x6e, 0x76, 0x31, 0x64, 0x5f,
  0x31, 0x2f, 0x63, 0x6f, 0x6e, 0x76, 0x6f, 0x6c, 0x75, 0x74, 0x69, 0x6f,
  0x6e, 0x2f, 0x45, 0x78, 0x70, 0x61, 0x6e, 0x64, 0x44, 0x69, 0x6d, 0x73,
  0x00, 0x00, 0x00, 0x00, 0x04, 0x00, 0x00, 0x00, 0x01, 0x00, 0x00, 0x00,
  0x01, 0x00, 0x00, 0x00, 0x06, 0x00, 0x00, 0x00, 0x01, 0x00, 0x00, 0x00,
  0x16, 0xfe, 0xff, 0xff, 0x00, 0x00, 0x00, 0x01, 0x14, 0x00, 0x00, 0x00,
  0x14, 0x00, 0x00, 0x00, 0x0c, 0x00, 0x00, 0x00, 0x00, 0x00, 0x00, 0x02,
  0x20, 0x00, 0x00, 0x00, 0x14, 0xfd, 0xff, 0xff, 0x10, 0x00, 0x00, 0x00,
  0x61, 0x72, 0x69, 0x74, 0x68, 0x2e, 0x63, 0x6f, 0x6e, 0x73, 0x74, 0x61,
  0x6e, 0x74, 0x31, 0x30, 0x00, 0x00, 0x00, 0x00, 0x00, 0x00, 0x00, 0x00,
  0x52, 0xfe, 0xff, 0xff, 0x00, 0x00, 0x00, 0x01, 0x14, 0x00, 0x00, 0x00,
  0x14, 0x00, 0x00, 0x00, 0x0b, 0x00, 0x00, 0x00, 0x00, 0x00, 0x00, 0x02,
  0x1c, 0x00, 0x00, 0x00, 0x50, 0xfd, 0xff, 0xff, 0x0f, 0x00, 0x00, 0x00,
  0x61, 0x72, 0x69, 0x74, 0x68, 0x2e, 0x63, 0x6f, 0x6e, 0x73, 0x74, 0x61,
  0x6e, 0x74, 0x39, 0x00, 0x01, 0x00, 0x00, 0x00, 0x02, 0x00, 0x00, 0x00,
  0x8e, 0xfe, 0xff, 0xff, 0x00, 0x00, 0x00, 0x01, 0x14, 0x00, 0x00, 0x00,
  0x14, 0x00, 0x00, 0x00, 0x0a, 0x00, 0x00, 0x00, 0x00, 0x00, 0x00, 0x02,
  0x1c, 0x00, 0x00, 0x00, 0x8c, 0xfd, 0xff, 0xff, 0x0f, 0x00, 0x00, 0x00,
  0x61, 0x72, 0x69, 0x74, 0x68, 0x2e, 0x63, 0x6f, 0x6e, 0x73, 0x74, 0x61,
  0x6e, 0x74, 0x38, 0x00, 0x00, 0x00, 0x00, 0x00, 0x3a, 0xfe, 0xff, 0xff,
  0x00, 0x00, 0x00, 0x01, 0x10, 0x00, 0x00, 0x00, 0x10, 0x00, 0x00, 0x00,
  0x09, 0x00, 0x00, 0x00, 0x1c, 0x00, 0x00, 0x00, 0xc0, 0xfd, 0xff, 0xff,
  0x0f, 0x00, 0x00, 0x00, 0x61, 0x72, 0x69, 0x74, 0x68, 0x2e, 0x63, 0x6f,
  0x6e, 0x73, 0x74, 0x61, 0x6e, 0x74, 0x37, 0x00, 0x01, 0x00, 0x00, 0x00,
  0x05, 0x00, 0x00, 0x00, 0x72, 0xfe, 0xff, 0xff, 0x00, 0x00, 0x00, 0x01,
  0x10, 0x00, 0x00, 0x00, 0x10, 0x00, 0x00, 0x00, 0x08, 0x00, 0x00, 0x00,
  0x1c, 0x00, 0x00, 0x00, 0xf8, 0xfd, 0xff, 0xff, 0x0f, 0x00, 0x00, 0x00,
  0x61, 0x72, 0x69, 0x74, 0x68, 0x2e, 0x63, 0x6f, 0x6e, 0x73, 0x74, 0x61,
  0x6e, 0x74, 0x36, 0x00, 0x02, 0x00, 0x00, 0x00, 0x05, 0x00, 0x00, 0x00,
  0x20, 0x00, 0x00, 0x00, 0xae, 0xfe, 0xff, 0xff, 0x00, 0x00, 0x00, 0x01,
  0x10, 0x00, 0x00, 0x00, 0x10, 0x00, 0x00, 0x00, 0x07, 0x00, 0x00, 0x00,
  0x1c, 0x00, 0x00, 0x00, 0x34, 0xfe, 0xff, 0xff, 0x0f, 0x00, 0x00, 0x00,
  0x61, 0x72, 0x69, 0x74, 0x68, 0x2e, 0x63, 0x6f, 0x6e, 0x73, 0x74, 0x61,
  0x6e, 0x74, 0x35, 0x00, 0x04, 0x00, 0x00, 0x00, 0x10, 0x00, 0x00, 0x00,
  0x01, 0x00, 0x00, 0x00, 0x04, 0x00, 0x00, 0x00, 0x01, 0x00, 0x00, 0x00,
  0xf2, 0xfe, 0xff, 0xff, 0x00, 0x00, 0x00, 0x01, 0x10, 0x00, 0x00, 0x00,
  0x10, 0x00, 0x00, 0x00, 0x06, 0x00, 0x00, 0x00, 0x1c, 0x00, 0x00, 0x00,
  0x78, 0xfe, 0xff, 0xff, 0x0f, 0x00, 0x00, 0x00, 0x61, 0x72, 0x69, 0x74,
  0x68, 0x2e, 0x63, 0x6f, 0x6e, 0x73, 0x74, 0x61, 0x6e, 0x74, 0x34, 0x00,
  0x04, 0x00, 0x00, 0x00, 0x10, 0x00, 0x00, 0x00, 0x01, 0x00, 0x00, 0x00,
  0x02, 0x00, 0x00, 0x00, 0x10, 0x00, 0x00, 0x00, 0xc2, 0xff, 0xff, 0xff,
  0x00, 0x00, 0x00, 0x01, 0x14, 0x00, 0x00, 0x00, 0x14, 0x00, 0x00, 0x00,
  0x05, 0x00, 0x00, 0x00, 0x00, 0x00, 0x00, 0x02, 0x1c, 0x00, 0x00, 0x00,
  0xc0, 0xfe, 0xff, 0xff, 0x0f, 0x00, 0x00, 0x00, 0x61, 0x72, 0x69, 0x74,
  0x68, 0x2e, 0x63, 0x6f, 0x6e, 0x73, 0x74, 0x61, 0x6e, 0x74, 0x33, 0x00,
  0x01, 0x00, 0x00, 0x00, 0x03, 0x00, 0x00, 0x00, 0x00, 0x00, 0x16, 0x00,
  0x1c, 0x00, 0x18, 0x00, 0x17, 0x00, 0x10, 0x00, 0x0c, 0x00, 0x08, 0x00,
  0x00, 0x00, 0x00, 0x00, 0x00, 0x00, 0x07, 0x00, 0x16, 0x00, 0x00, 0x00,
  0x00, 0x00, 0x00, 0x01, 0x14, 0x00, 0x00, 0x00, 0x14, 0x00, 0x00, 0x00,
  0x04, 0x00, 0x00, 0x00, 0x00, 0x00, 0x00, 0x02, 0x1c, 0x00, 0x00, 0x00,
  0x14, 0xff, 0xff, 0xff, 0x0f, 0x00, 0x00, 0x00, 0x61, 0x72, 0x69, 0x74,
  0x68, 0x2e, 0x63, 0x6f, 0x6e, 0x73, 0x74, 0x61, 0x6e, 0x74, 0x32, 0x00,
  0x01, 0x00, 0x00, 0x00, 0x03, 0x00, 0x00, 0x00, 0xc6, 0xff, 0xff, 0xff,
  0x00, 0x00, 0x00, 0x01, 0x10, 0x00, 0x00, 0x00, 0x10, 0x00, 0x00, 0x00,
  0x03, 0x00, 0x00, 0x00, 0x1c, 0x00, 0x00, 0x00, 0x4c, 0xff, 0xff, 0xff,
  0x0f, 0x00, 0x00, 0x00, 0x61, 0x72, 0x69, 0x74, 0x68, 0x2e, 0x63, 0x6f,
  0x6e, 0x73, 0x74, 0x61, 0x6e, 0x74, 0x31, 0x00, 0x01, 0x00, 0x00, 0x00,
  0x10, 0x00, 0x00, 0x00, 0x00, 0x00, 0x16, 0x00, 0x18, 0x00, 0x14, 0x00,
  0x00, 0x00, 0x10, 0x00, 0x0c, 0x00, 0x08, 0x00, 0x00, 0x00, 0x00, 0x00,
  0x00, 0x00, 0x07, 0x00, 0x16, 0x00, 0x00, 0x00, 0x00, 0x00, 0x00, 0x01,
  0x10, 0x00, 0x00, 0x00, 0x10, 0x00, 0x00, 0x00, 0x02, 0x00, 0x00, 0x00,
  0x1c, 0x00, 0x00, 0x00, 0x9c, 0xff, 0xff, 0xff, 0x0e, 0x00, 0x00, 0x00,
  0x61, 0x72, 0x69, 0x74, 0x68, 0x2e, 0x63, 0x6f, 0x6e, 0x73, 0x74, 0x61,
  0x6e, 0x74, 0x00, 0x00, 0x01, 0x00, 0x00, 0x00, 0x10, 0x00, 0x00, 0x00,
  0x00, 0x00, 0x16, 0x00, 0x1c, 0x00, 0x18, 0x00, 0x00, 0x00, 0x14, 0x00,
  0x10, 0x00, 0x0c, 0x00, 0x00, 0x00, 0x00, 0x00, 0x08, 0x00, 0x07, 0x00,
  0x16, 0x00, 0x00, 0x00, 0x00, 0x00, 0x00, 0x01, 0x14, 0x00, 0x00, 0x00,
  0x24, 0x00, 0x00, 0x00, 0x24, 0x00, 0x00, 0x00, 0x01, 0x00, 0x00, 0x00,
  0x40, 0x00, 0x00, 0x00, 0x03, 0x00, 0x00, 0x00, 0xff, 0xff, 0xff, 0xff,
  0x06, 0x00, 0x00, 0x00, 0x01, 0x00, 0x00, 0x00, 0x04, 0x00, 0x04, 0x00,
  0x04, 0x00, 0x00, 0x00, 0x1e, 0x00, 0x00, 0x00, 0x73, 0x65, 0x72, 0x76,
  0x69, 0x6e, 0x67, 0x5f, 0x64, 0x65, 0x66, 0x61, 0x75, 0x6c, 0x74, 0x5f,
  0x6b, 0x65, 0x72, 0x61, 0x73, 0x5f, 0x74, 0x65, 0x6e, 0x73, 0x6f, 0x72,
  0x3a, 0x30, 0x00, 0x00, 0x03, 0x00, 0x00, 0x00, 0x01, 0x00, 0x00, 0x00,
  0x06, 0x00, 0x00, 0x00, 0x01, 0x00, 0x00, 0x00, 0x06, 0x00, 0x00, 0x00,
  0x60, 0x00, 0x00, 0x00, 0x44, 0x00, 0x00, 0x00, 0x34, 0x00, 0x00, 0x00,
  0x24, 0x00, 0x00, 0x00, 0x14, 0x00, 0x00, 0x00, 0x04, 0x00, 0x00, 0x00,
  0xc4, 0xff, 0xff, 0xff, 0x19, 0x00, 0x00, 0x00, 0x00, 0x00, 0x00, 0x19,
  0xd0, 0xff, 0xff, 0xff, 0x09, 0x00, 0x00, 0x00, 0x00, 0x00, 0x00, 0x09,
  0xdc, 0xff, 0xff, 0xff, 0x11, 0x00, 0x00, 0x00, 0x00, 0x00, 0x00, 0x11,
  0xe8, 0xff, 0xff, 0xff, 0x16, 0x00, 0x00, 0x00, 0x00, 0x00, 0x00, 0x16,
  0xf4, 0xff, 0xff, 0xff, 0x03, 0x00, 0x00, 0x00, 0x00, 0x00, 0x00, 0x03,
  0x0c, 0x00, 0x0c, 0x00, 0x0b, 0x00, 0x00, 0x00, 0x00, 0x00, 0x04, 0x00,
  0x0c, 0x00, 0x00, 0x00, 0x46, 0x00, 0x00, 0x00, 0x00, 0x00, 0x00, 0x46
 
};

#endif //GESTURE_MODEL_H